#version: 0.2
Ġ t
i n
Ġ a
ä ¸
h e
r e
ç ļ
çļ Ħ
o n
Ġt he
ï ¼
e r
a t
ä º
e n
ï¼ Į
ã Ģ
Ġ s
Ġ c
â Ģ
Ġ o
i t
a n
e s
ä »
i s
ãĢ Ĥ
Ġ w
a l
Ġ p
o r
Ġ b
Ġ in
å ħ
æ ľ
å ı
e d
Ġ f
n d
in g
å Ľ
Ġt o
i c
a r
Ġo f
i on
Ġ m
è ¿
r o
å ľ
å ¤
å Ī
å ®
Ġ d
Ġa nd
o u
æ ĺ
Ġt h
åĽ ½
en t
ç »
l e
Ġ e
s t
ä ½
Ġ h
Ġ re
å Ĭ
o m
Ġ n
ä ¹
å °
i l
åľ ¨
æĺ ¯
ä ¼
a s
ä¸ Ģ
æ Ķ
l y
æ ĸ
v e
å Ĳ
å ¹
æ Ī
Ġ l
Ġb e
å Ĵ
åĴ Į
è ®
Ġ g
c t
u t
Ġ is
ä¸ į
è Ģ
æ Ŀ
å į
o l
å ¯
at ion
Ġth at
ç Ķ
æ Ĺ
è¿ Ļ
i m
é ĩ
æľ ī
å º
äº º
âĢ Ļ
ç Ľ
è ¯
c e
ĥ ½
æ ī
äº Ĩ
âĢ Ķ
s e
r a
o t
æ Ń
Ġ âĢ
v er
å ¾
Ġd e
u r
å Ĩ
å ¸
ä¸ º
å ·
i d
Ġf or
å ĩ
è ´
m ent
è ¡
é Ģ
l d
i g
ä¸ Ń
o w
e t
Ġ it
æ Ģ
Ġ on
æĶ ¿
å ¼
å¤ §
Ġs t
ä» ¥
å Į
i es
è µ
ä» ¬
æ ł
a d
æ ¬
c h
n t
ä¼ ļ
Ġ u
Ġp ro
è ĥ½
ç» ı
i r
å¯ ¹
u l
Ġc on
ç İ
il l
at e
å¹ ´
æ µ
è ĩ
æ ²
æ ķ
æ ŀ
¦ ģ
é Ļ
é ¢
ç ¾
æ °
æ Ĭ
T he
é Ŀ
Ġa s
ä¸ ª
åı ¯
è ¦ģ
è §
ĠâĢ ĵ
æĿ ¥
èĢ Į
æ ³
o re
âĢ Ŀ
er s
ç¾ İ
æ ´
ä» ĸ
it h
æ ĭ
å® ¶
Ġw h
es t
p e
Ġ C
it y
é Ĺ
å ½
Ġa l
ç §
åħ ¶
Ġ r
ä½ Ĩ
he r
ä ¿
Ġs u
Ġc ou
ãĢ ģ
is t
è¡ Į
Ġw ith
å Ń
Ġ A
g e
a y
æ Į
ä¸ Ĭ
Ġe x
2 0
äº İ
Ġa re
å ¿
or t
l o
u s
å ¦
Ġa n
es s
Ġ S
Ġ E
æĪ Ĳ
a m
åĪ °
a b
Ġn e
i al
ä¹ Ł
åľ °
æ¬ §
ç Ĳ
c on
i ve
Ġ I
t er
a in
Ġn ot
re s
Ġh a
i f
å¦ Ĥ
å Ģ
æ Ľ
t h
åĩ º
åĬ Ľ
Ġw e
i v
ç º
æ İ
åı ĳ
å ĳ
k e
Ġc om
âĢĶ âĢĶ
Ġ U
å° Ĩ
å® ŀ
ä¸ »
æµ İ
æī Ģ
å¤ ļ
æĹ ¶
æ ¯
Ġb y
ç»ı æµİ
e m
ç Ń
å ī
å İ
Ġh as
æ³ ķ
ç ī
ç¾İ åĽ½
åĽ½ å®¶
Ġha ve
åĪ ©
å ¥
ou ld
æ° ĳ
a c
Ġs e
p p
çİ °
æĸ ¹
å ¢
æ Ħ
an d
con om
åħ ¨
å Ł
Ġ le
çĶ Ł
æĸ ¯
Ġp ol
äº Ľ
ï¼ Ī
èµ Ħ
q u
èĩ ª
ï¼ ī
æĪ ĳ
å° ±
Ġs h
åĽ ł
o c
Ġw ill
å ±
æľ Ģ
æĽ ´
è¿ ĩ
ç «
æĢ §
Ġw or
Ġ v
åĬ ¨
èĢ ħ
æŃ ¤
ä¹ ĭ
Ġcou nt
o ver
ig h
Ġe conom
i a
ç ķ
é ķ
u st
u m
æľ ¬
ro m
a p
Ġ en
æ ĥ
å¾ Ĺ
Ġ P
å¹ ¶
éĩ į
ic al
Ġo r
âĢ ľ
o p
o s
ä ¾
o st
an t
è ¾
éķ ¿
Ġa t
æ´ ²
u ro
å ĵ
Ġcount r
å® ļ
Ġf rom
o d
Ġ im
åĪ ¶
ar t
ion s
åĮ ĸ
é ĺ
i z
Ġ he
æľ º
æĸ °
Ġit s
ç ®
Ġ B
Ġ G
é ģ
æ ı
ç ¨
Ġ M
åĬ ł
Ġthe ir
e l
çĶ ¨
åĲ Į
ä¸ İ
Ġ y
Ġm ore
é ¡
åī į
Ġc h
a st
åº ¦
ä¸Ģ ä¸ª
om e
on g
ä¸ ļ
ä¸ ĸ
ä½ ľ
ĠâĢ ľ
åĪ Ĩ
u n
i b
å½ ĵ
u re
è¿ Ľ
äº ĭ
an s
æĮ ģ
ç Ħ
è ¶
å¢ ŀ
åĲ İ
åħ ¬
é ĥ½
Ġin c
ä¸ ĭ
Ġin t
äº §
h in
Ġu n
é Ĥ
æŀ ľ
a k
æŃ £
çĦ ¶
t her
Ġre s
éĩ ĳ
çĲ Ĩ
åº Ķ
f f
ç ½
é ļ
re d
é ľ
æ² »
å® ĥ
éĹ ®
ä½ ĵ
ic h
æĪĳ ä»¬
æł ·
åı Ĭ
åº ľ
åħ ³
æĶ¿ åºľ
Ġw ould
è ¢
éĿ ¢
Ġw as
Ġim p
é ĥ
æĹ ł
çļĦ ç
uro pe
B ut
è ģ
m er
e ct
éĥ ¨
è °
en d
å¤ ĸ
r u
æ¯ Ķ
ar y
é «
over n
ä¸Ń åĽ½
å ģ
e ar
g h
é« ĺ
Ġ R
æ ±
p t
al l
Ġc an
Ġ 1
Ġth is
ä»ĸ ä»¬
Ġa g
Ġa b
åı¯ èĥ½
æĦ ı
çĽ ¸
igh t
ä» İ
é¢ ĺ
çŃ ĸ
æ¬§ æ´²
an ce
ro w
çķ Į
åĲ Ī
åħ ¥
åŁ º
an c
ç Ŀ
Ġa d
ĠE urope
ĠU S
æı Ĳ
åľ º
ou s
ç§ į
Ġthe y
å¹ ³
å· ²
I n
u d
å¯ ¼
Ġg overn
è¿ ĺ
æĪ ĺ
å Ŀ
ç ľ
æ ģ
æľ Ł
éĹ® é¢ĺ
Ġth an
Ġcon t
æĿ ĥ
ĠC hin
ä¹ ī
ation al
çī ¹
Ġal l
åĨ ³
éľ Ģ
ou t
Ġwh ich
äº ļ
ar d
Ġ F
d u
è ĭ
ro u
ç ³
çĶ ±
éĤ £
Ġ 20
åı ĺ
ab le
è¿Ļ ä¸Ģ
çĽ ®
i p
c c
Ġcountr ies
Ġ T
è ½
ç® ¡
ç ¡
at es
ation s
å¼ Ģ
ç» Ł
éĢ ļ
è¯ ¥
çĿ Ģ
åĮ º
ä¿ Ŀ
è¢ «
çĲ ĥ
æ² ¡
at ed
ig n
æĭ ī
Ġcom p
åı į
i e
Ġf in
éĢ ī
è¯ ´
æķ °
åŃ ¦
e re
å° Ķ
æ Ļ
ä¸ĸ çķĮ
Ġgovern ment
æ į
0 0
Ġp r
Ġw he
èģ Ķ
å· ´
ul t
å¸ Ĥ
ä» »
åı¯ ä»¥
åı Ĺ
ar k
çĽ Ł
å¾ ·
Ġ W
åħ ĭ
æĶ ¯
åĨ ħ
an y
l ic
é¢ Ĩ
æĺ İ
æĢ »
Ġwor ld
Ġ (
éĹ ´
å· ¥
Ġb ut
éĿ ŀ
Ġf a
id e
ä» £
k s
Ġre c
Ġy ear
çİ ĩ
è ĥ
Ġ N
T h
Ġ j
re e
æĪ ĸ
ä½ ¿
åĬ ¡
è¿Ļ äºĽ
Ġd o
æĹ ¥
Ġpol it
v en
æĶ¿ æ²»
åħ ĥ
i ke
res s
è§ £
æĶ¿ çŃĸ
Ġex p
å §
b al
ç ¤
en ce
or m
åħ¨ çĲĥ
Ġp art
Ġd is
æĬ ķ
æ²¡ æľī
ç» ĵ
on e
a g
è® ®
Ġg row
re at
éĩ ı
Ġt r
ç ¼
ç³ »
æ ¶
å »
Ġre g
å¿ ħ
u b
i an
è® ¤
Ġpol ic
Ġeconom ic
ĠChin a
éĻ ħ
im e
ç Ł
ç« ĭ
¥ ¿
Ġbe en
Ġo ther
åĳ ĺ
Ġbe c
ç Ĥ
Ġs o
å¢ŀ éķ¿
æ ¸
lo bal
e p
ç ©
Ġp e
è ¥¿
æĶ ¹
è® ¸
è® ©
Ġp l
Ġo ut
ä¼ Ĭ
Ġ D
è Ĥ
è ŀ
ct ion
å·² ç»ı
åħ ±
ä¿ ¡
èŀ į
Ġne w
Ġ K
o g
ä» ·
in e
èµ ·
é ĵ
å± ķ
Ġ J
è ī
a ge
Ġin v
åı ª
Ġde c
é ©
æĶ ¶
er m
åİ »
ä¹ Ī
è® ¡
Â ·
r is
è¡ ¨
l l
i le
ç ĸ
ä¸» ä¹ī
å¾ Ī
å¿ ĥ
or s
å¼ º
Ġo ver
éľĢ è¦ģ
Ġwh o
Ġm e
æĥ ħ
åı ĸ
äº ī
Ġg lobal
Ġin ter
åį ±
è® º
en s
a re
Ġon e
Ġde m
è ·
æ± Ĥ
æ º
al ly
mer ic
it ion
å¸ ¸
åħ¶ ä»ĸ
é Ľ
Ġle ad
s o
åĲ ĳ
ra d
ow er
ï¼ ļ
ç ´
ä½ İ
er n
åĢ º
ark et
å¦Ĥ æŀľ
å¤ ±
å¥ ½
è¾ ¾
æ Ł
åĽł ä¸º
çĤ ¹
f orm
Ġu nd
å¸Ĥ åľº
æĺ ĵ
éĩ Į
ä»¥ åıĬ
ä½ ķ
é £
lo p
å° ĳ
ve lop
u e
ä» Ĭ
Ġin d
çº ¦
å® ī
Ġsh ould
Ġpolit ical
ac k
Ġon ly
re n
æĸ ½
ç¡ ®
Ġe ff
Ġal so
ç¨ ĭ
éļ ¾
è İ
æľ ª
æķ Ļ
éĢ ł
a u
Ġne ed
id ent
Ġ H
i re
il ity
å» º
ç» Ħ
è Ĳ
Ġh is
èĩ ³
Ġgrow th
a ke
c y
o se
éģ ĵ
Ġr is
Ġl ike
Ġn o
Ġcom m
Ġfin anc
re as
åħ °
ou r
èĩ ´
Ġab out
éĵ ¶
Ġp re
ĠA meric
it ies
is m
æ¬ ¡
ä¸ ¤
æŀ Ħ
éĵ¶ è¡Į
ĠU n
ä½ į
è¿ ĳ
éĩĳ èŀį
Ġcou ld
æł ¼
Ġcon s
æł ĩ
op le
ç½ Ĺ
æĬķ èµĦ
Ġm ost
é¡ »
é¢ Ħ
¾ ä¼ļ
f ic
ç ±
çŃ ī
Ġ1 9
å¿ħ é¡»
çĽ Ĭ
å¼ ı
Ġ L
åį ģ
æ¬§ çĽŁ
Ġp er
Ġbe t
Ġthe re
åĬ ©
åĪ Ļ
æ ¡
ç ł
Ġm arket
é© ¬
it ed
ç» Ń
åı £
Ġsu ch
å½ ±
Ġs p
an k
æº Ĳ
Ġsu pp
ub lic
åıĳ å±ķ
è§ Ħ
åĽ½ éĻħ
Ġde velop
ä¸ Ķ
or d
éĿ ©
Ġn ow
o od
Ġl ong
u ch
Ġst r
Ġinv est
å¸ ģ
æİ ¥
æĥ ³
i ous
åħ ļ
éĻ ©
èĭ ±
ol l
è´ §
Ġpe ople
at ive
é Ķ
éĺ ¿
an ge
æľ Ĺ
ä¾ Ľ
ment s
Ġa cc
Ġ qu
åĵ į
Ġwe re
Ġre l
æķ Ī
e w
æľ Ī
åĲ Ħ
Ġc l
ç ¬
ut ion
Ġe ven
Ġthe m
åģ ļ
Ġcountr y
is h
åĩ ł
ol d
Ġyear s
Ġpolic y
åŃ Ĳ
Ġfinanc ial
åĨ Ľ
æĶ¯ æĮģ
b le
å° ½
ä½Ĩ æĺ¯
æĶ ¾
Ġ if
u c
ä¸į æĺ¯
Ġs ome
æŀ ģ
le ct
åį± æľº
æĻ ®
Ġa r
Ġ k
b er
am p
åĮ ħ
åºĶ è¯¥
c es
Ġu p
Ġund er
Ġe m
Ġm any
è į
Ġre m
è £
Ġinc reas
r ic
åĨ µ
çľ ĭ
å½± åĵį
Ġc ap
a ce
éĩį è¦ģ
ä» ħ
æ¶ Ī
a ch
ou gh
å¸ Į
b t
u nd
è¿Ļ æł·
r it
in t
Ġin f
on s
1 9
åľ° åĮº
au se
ĠEurope an
us s
æ´ »
å¸ ĥ
Ġc ur
Ġs y
è§ Ĥ
é¢Ĩ å¯¼
an g
am e
ä» Ģ
è Ļ
Ġwhe n
å¤ Ł
è º
åĽł æŃ¤
a v
Ġa pp
å®ĥ ä»¬
åĢ Ļ
å¤ ©
ç Ĺ
Th is
ç¤ ¾ä¼ļ
le ar
ic e
ĠS t
åĩ ı
Ġwor k
å¤§ çļĦ
è¶ Ĭ
æ ¨
p er
ç» Ļ
er al
åį ³
çĽ ´
as s
Ġ O
ï¼ Ł
ä¸ ľ
Ġeconom y
g y
Ġp ower
è´ ¢
ver y
I t
å¸ ¦
20 0
ä¿ Ħ
Ġm ust
åĪ Ĵ
èº «
åį ı
ill ion
v ent
æį ®
è´§ å¸ģ
éĢļ è¿ĩ
äº ¤
Ġt w
è® ¾
Ġthe se
a ct
æ¨ ¡
æŃ ¥
pe ct
èī ²
æ° Ķ
åĢ ¼
å° ¼
äºĭ å®ŀ
åŃ ĺ
åĬ ¿
Ġl ar
Ġint o
éĻ į
w e
Ġ ro
è½ ¬
Ġm ay
ow n
æīĢ æľī
é ¦
æł ¹
Ġs oc
åĨ į
ç± »
åĪ «
st em
c ess
æĺ ¾
Ġwh at
res ident
st it
er v
ï¼ Ľ
Ġt rad
¿ ½
ï ¿½
or y
èİ ·
Ġf ir
çī ©
Ġc ris
è®¤ ä¸º
ere st
Ġpro du
Ġinter n
æī ¿
Ġa m
é£ İ
æĿ ¡
ä¼ ¼
æł ¸
rou gh
Ġt ime
ĠI s
f ter
åİ Ł
Ġm uch
å¼ ķ
D P
at ing
Ġh ow
å§ ĭ
ç¨ İ
Ġp o
ic es
Ġh ad
m s
Ġre p
it al
l ud
åı ¸
æĢ» ç»Ł
Ġu s
A nd
æµ ģ
åĪ Ĺ
æĮ ĩ
æ°ĳ ä¸»
ä¹ İ
20 1
Ġat t
ç» ĩ
å¤ Ħ
ç Ĭ
å° ı
æ° ´
é¡ ¹
æ »
åĵ ģ
æľ Ľ
æĸ¹ éĿ¢
å ¨
ou nt
é Ĵ
Ġs c
Ġp ublic
åį °
ç ¥
Ġsy stem
c ed
ç¾İ åħĥ
f ul
ä» į
Ġd if
ç»Ħ ç»ĩ
Ġ20 0
Ġm on
ä¼ Ĺ
æ ·
Ġc ent
åĪ Ľ
Ġ ra
å°½ ç®¡
Ġan y
çļĦ äºº
æĭ ħ
it s
a x
å¤ į
ä¸ ¾
u al
æİ ¨
æ´ ¾
Ġa ct
çļĦ æĺ¯
Ġag ain
ç ¦
æĪĲ ä¸º
al th
è° ĥ
ä¸ ī
æī ĭ
å ķ
os s
Ġint erest
å £
ç§ ĳ
æĭ ¬
ç ģ
æıĲ ä¾Ľ
ib le
Ġcon f
ç» ´
è®¡ åĪĴ
on d
ur n
æ ļ
er t
il d
æ¡ Ī
åĮħ æĭ¬
Ġt e
ç Ļ
è¿Ļ ä¸ª
æĹł æ³ķ
è¯ ģ
å· ±
çİ° åľ¨
Ġ20 1
o v
Ġpro v
æĬ Ģ
è¯ Ĩ
åį ´
å Ĥ
Ġcris is
Ġlead ers
ist s
if ic
å ĥ
è´ ¸
éĥ¨ åĪĨ
ul ar
i ed
g et
åĲ į
è¿ Ĳ
Ġo w
he d
å°± æĺ¯
. âĢĿ
ĠE U
è Ħ
èĩª å·±
èĭ± åĽ½
æŃ ¢
o b
è¿ ľ
Ġintern ational
Ġg en
çľ Ł
äº Į
i et
Ġc o
å¢ ĥ
iz ation
ĠUn ited
Ġj ust
åĲĮ æĹ¶
Ġre al
Ġw ar
Ġh igh
å¯ Į
åĳ ½
åħ ·
Ġwe ll
è®¸ å¤ļ
Ġa c
ä¸ ¥
ad e
é »
ver s
h ip
å¨ ģ
åĽ ŀ
Ġtr ans
Ġtw o
é¦ ĸ
è¶ ³
o k
è¿Ľ è¡Į
è´ ¹
çĽ® æłĩ
è ħ
å¯¼ èĩ´
ç¬ ¬
A s
å®ŀ çİ°
å¼Ģ å§ĭ
Ġsupp ort
is e
ot h
Ġrec ent
ä¼ ģ
Ġpro ble
ĠR uss
ol og
i ent
it e
Ġimp ort
he n
å ĭ
as e
e ed
Ġre f
Ġbec ause
æĶ¹ éĿ©
å ¡
ä» ¤
åħ¬ åı¸
åķ Ĩ
ä» ¶
æĬ ¥
è´¸ æĺĵ
Ġw ay
æ¬§ åħĥ
å ŀ
å¢ŀ åĬł
æĥħ åĨµ
is s
è§£ åĨ³
è ¨
in ist
å½ ¢
è¨ Ģ
éļ ı
r al
èĩª çĶ±
ic s
åĩ »
éĩ ĩ
we en
å¦Ĥ æŃ¤
ru ct
Ġf ore
æ ®
äº ¿
èĥ½ å¤Ł
ç½Ĺ æĸ¯
c ur
Ġo pp
åĲ ¦
éĢ Ł
e f
çŁ ¥
å¾· åĽ½
Ġde bt
çº ª
åĢº åĬ¡
ç ²
ĠA s
j ect
è¿Ļ ç§į
iv en
Ġth ose
æ ¿
çķ ¥
Ġbet ween
åį ĩ
o ve
æľ ¯
iv es
æŀ Ĺ
es e
åİ Ĩ
ä¸ ĩ
a w
ic t
Ġf ar
it t
Ġde f
ä¾ ĭ
æŃ£ åľ¨
äºº ä»¬
ç ĭ
Ġm an
æķ ´
il it
æ¿ Ģ
in d
Ġr ight
im ate
è§ Ĩ
çļĦ ä¸Ģ
ç ª
Ġd es
åĤ ¨
r an
åĩ Ĩ
æĹ¥ æľ¬
ou nd
ä¿Ħ ç½Ĺæĸ¯
å®ī åħ¨
re nt
l ow
é ²
Ġrem ain
å ĸ
æĬ ¤
éĻ Ĳ
Ġinc lud
se l
å± Ģ
Ġl ess
Ġen d
pe c
ap an
æľº æŀĦ
r y
åľ Ł
Ġeff ect
æľ į
iz e
w ard
ç ĥ
Ġcont in
åĿ ¦
äºĭå®ŀ ä¸Ĭ
è ±
æ³ ¨
ing s
è´ £
å¸¦ æĿ¥
åį° åº¦
lo y
æĬ Ĭ
ä¼ģ ä¸ļ
Ġfa ct
a il
æĶ¶ åħ¥
a j
éĹ ¨
å¥ ¥
rou nd
ĠI nd
ä¼ ł
å® Į
u es
p loy
Ġt ax
Ġwh ile
at ic
Ġst ate
ur ing
Ġpro g
re ad
åħ Ī
è´¢ æĶ¿
ve l
ä¾ Ŀ
åĽ °
ç» Ī
æ¯ ı
éĽ Ĩ
è¯ Ŀ
æĸ ĩ
ä¸» è¦ģ
æĸ Ń
çļĦ ç»ıæµİ
Ġ ent
Ġm od
Ġo ur
in ce
èİ· å¾Ĺ
ç¨ ³
å¤ ®
pt ion
éĻ ¤
Ġas s
ur al
ç© ¶
é£İ éĻ©
åĬ Ł
è´ Ł
Ġfir st
ĠAmeric a
Ġs ur
Ġn ational
Ġp op
åıĳ çĶŁ
Ġlar ge
çĹ ħ
Ġres ult
an ks
Ġm em
å® ĺ
æī į
æĦ Ł
å· ¨
Ġhe l
æľª æĿ¥
åĨ ²
ä»Ģ ä¹Ī
Ġdem oc
r ation
æĸ¯ åĿ¦
Ġreg ion
ĠG erm
ç» Ŀ
æ¬ ¾
Ġres p
Ġof f
éĢ Ģ
u res
as h
Ġow n
ĠA f
Ġsu b
å¤ ª
ç® Ĺ
Ġo b
l ed
çĶ ļ
r i
æŁ Ĳ
Ġa fter
ab ility
W h
ä¸ ´
Ġs im
ä»» ä½ķ
Ġre form
Ġhel p
Ġagain st
é ª
æµ ·
aj or
å ²
ĠJ apan
ä¸ĸ çºª
Ġse em
Ġad d
è¡Į åĬ¨
Ġre qu
Ġad v
ä¼Ĭ æľĹ
çª ģ
ä¸Ģ äºĽ
æİ §
f ere
è¦ģ æ±Ĥ
è¾ ¹
åĥ ı
cur ity
ç§ »
Ġb oth
åĪ ¤
ä¹ĭ éĹ´
iz ed
æĮģ ç»Ń
ç»ĵ æŀľ
åħ³ ç³»
æĢ ģ
Ġk n
éķ¿ æľŁ
ial ly
ter m
Ġc ost
F or
Ġinf l
Ġe uro
Ġex amp
Ġre du
Ġcap ital
åŃĺ åľ¨
åŃ Ĺ
Ġcur rent
ch n
Ġex t
åıĺ åĮĸ
ak ing
å·¥ ä½ľ
è° Ī
Ġm ajor
I nd
éĤ£ äºĽ
l es
è¶ ħ
Ġl ast
Ġcon c
O n
æ ħ
Ġg o
é¢Ĩå¯¼ äºº
e x
r ib
Ġpart ic
ç» §
i ans
åı ²
ç« ŀ
c al
Ġf und
çİ ¯
Ġs ign
Ġch ange
çĽ ĳ
æĬĢ æľ¯
åħ į
ou n
Ġm ilit
ra el
å¤ ĩ
Ġg reat
all en
Ġ ke
Ġ 2
åĪ° äºĨ
åŀ ĭ
èĤ ²
ç ¢
ort s
åŁº ç¡
åŁºç¡ Ģ
ut ions
5 0
èµĦ æľ¬
æĹ ı
å® ¹
éĤ£ ä¹Ī
Ġtrad e
Ġb o
Ġpro t
è· ¯
ä½ľ ä¸º
ay s
g an
å¾ Ģ
Ġde p
Ġg ood
ra m
çĽ® åīį
æ· ±
Ġb en
Ġm ake
çĶŁ äº§
æĦ ¿
çł ´
è§ ģ
çļĦ åĽ½å®¶
Ġinvest ment
ç Ī
åİ ĭ
ical ly
Ġexamp le
t y
Ķ ç©¶
çĶ µ
Ġb anks
ä»¥ èī²
åį ķ
æģ ¯
Ġapp ro
ä»¥èī² åĪĹ
Ġ $
è± ¡
Ġbec ome
Ġc re
æ² ¹
è¯ º
Ġmarket s
d ay
é ħ
3 0
I f
ç¨³ å®ļ
t s
en se
å¹¶ ä¸į
ï¿½ ï¿½
Ġth rough
è´ ¨
åĳ Ĭ
um p
Ġto o
åįģ å¹´
åĪ© äºļ
ç¤ º
Ġin stit
Ġh um
00 0
å¥ ³
è¿Ļæł· çļĦ
åį Ĺ
at her
åı Ĥ
å¿ «
g ing
Ġimport ant
Ġc or
æĮ ĳ
end ing
è Ĭ
åĪ ĩ
ĠRuss ia
æĪĲ åĬŁ
çº ³
Ġfa il
Ġdem and
Ġgovernment s
çĶļ èĩ³
Ġsoc ial
ç¼ º
éĢł æĪĲ
æģ Ĳ
æĽ´ åĬł
Ġre t
Ġa ut
Ġ est
èĢ ĥ
Ġl o
Ġb ank
åı Ī
Ġb u
Ġte chn
èģĶ åĲĪ
ä¸į ä¼ļ
éĩĩ åıĸ
Ġwhe re
æİ ª
æ ¼
çº §
in k
ç§ °
ĠI ran
æĢ§ çļĦ
g est
ot her
æľĢ è¿ĳ
t ing
äºº çļĦ
Ġre st
å Ķ
è´ ·
ç´ ł
æİ Ĵ
æ³ķ åĽ½
Ġfore ign
æī ©
Ġdo es
åħ ´
6 0
at h
Ġr ates
ä¹Ł æĺ¯
æĹ¶ éĹ´
æī ĵ
è¯ ķ
åĽ½å®¶ çļĦ
æĽ´ å¤ļ
uc lear
ĠSt ates
ra ct
å¯¹ äºİ
Ġle g
å»º ç«ĭ
ĠIs rael
è´ ¥
åĽ ¢
ç´ §
æŃ ¦
å® ³
ä»· æł¼
ol ution
åĵ Ī
Ġe mer
æ Ĵ
ort un
åĽ ¾
ä¼ ¯
åį ł
æ ĳ
Ġis s
Ġs a
çī¹ åĪ«
Ġf ut
æ¯Ķ å¦Ĥ
åı ¦
r on
åĽ½ åĨħ
ĠW est
æĪĲ åĳĺ
åĨ³ å®ļ
ä¸į åĲĮ
è¿ĩ åİ»
åĪ© çĽĬ
ĠC h
Ġm ain
èĭ ı
Ġris k
Ġpolic ies
al s
er gy
ul ation
Ġe very
ä¸Ģ ç§į
Ġch allen
Ġpro m
Ġhe alth
åĲĪ ä½ľ
å§ Ķ
Ind eed
èĢĮ ä¸Ķ
f t
æĭ ©
at er
Ġto day
ä¸Ń çļĦ
Ġmilit ary
åĳ ³
Ġb ack
æĪĺ äºī
l ess
in ed
in ess
Ġin s
åĮ Ĺ
Ġof fic
åĭ Ĵ
å¼ ±
is ion
è§Ħ æ¨¡
å¤ ´
å¦Ĥ ä»Ĭ
å Ļ
ĠP resident
M ore
ar ly
Ġdif fere
ent ial
å¦Ĥ ä½ķ
ä¿Ŀ æĬ¤
e g
ç§ ģ
Ġst ill
æŃ¤ å¤ĸ
å¹´ çļĦ
äº§ çĶŁ
æļ ´
å¹¶ ä¸Ķ
Ġcou r
ä»¥ æĿ¥
cc ess
Ġb as
éĢī æĭ©
Ġfut ure
, âĢĿ
ç¦ »
åŁ Ł
Ġeconom ies
åıį å¯¹
u ally
Ġs ame
il y
çĭ ¬
æĮĳ æĪĺ
Ġor d
ä¸Ģ çĽ´
è Į
ä¸¥ éĩį
Ġdevelop ment
e c
om m
er ation
Ġc red
n ing
t en
åĬ ³
åİĨ åı²
åĮ »
æĭ ¥
è¡ ¡
ï¼ī ãĢĤ
å¸Į æľĽ
æĸ° çļĦ
ç»§ ç»Ń
éĿ¢ ä¸´
ä» ½
Ġd om
ing ly
çĸ ĳ
è¯ Ħ
Ġbe ing
Ġne g
et ary
èĥ ģ
Ġben ef
ie w
Ġr ate
Ġn uclear
æĢ Ŀ
åħ¬ åħ±
is cal
f ore
n ess
Ġe lect
Ġs m
æ² Ļ
Ġstr ong
åħ ħ
Ġt ra
Ġs ince
æķĻ èĤ²
Ġe l
è Ī
å¤® è¡Į
Ġs et
æ Ĥ
å¨ģ èĥģ
æĦı åĳ³
åıª æľī
Ġinclud ing
e ver
åĩº çİ°
us h
Ġhum an
Ġle vel
æ°´ å¹³
è¿ «
el l
i or
èĥ½ æºĲ
å® £
æĭī åħĭ
Ġu se
ĠChin ese
æ³ ¢
Ġag ree
ä½ľ çĶ¨
Ġv al
Ġdis c
åĬĽ çļĦ
éĺ ²
Ġb r
Ġbe l
Ġstr ate
id d
ant s
Ġcomm un
ou th
è¡Į ä¸º
Ġm ight
ab ly
im es
Ġl ow
åĻ ¨
b ers
Ġt er
éģ ¿
æ¸ ħ
a red
ä¸ ĵ
åĲĮ æł·
ploy ment
æ ½
Th at
åįı è®®
çİ¯ å¢ĥ
åĪ© çİĩ
in c
ĠAf ric
) .
å¹ ²
Ġse e
Ġsu ccess
read y
Ġlike ly
p l
Ġb illion
åį ¡
åĸ Ħ
ĠAmeric an
èĻ ĳ
çĶŁ æ´»
c k
Ġp ur
Ġpr iv
ä»¤ äºº
n ot
æĿ¥ è¯´
è¥¿ æĸ¹
Ġ Y
Ġt erm
æ® µ
Ġd id
æĦıåĳ³ çĿĢ
Ġproble m
Ġs erv
ç¾İåĽ½ çļĦ
) ,
Ġ ed
æĪĲ æľ¬
çł Ķç©¶
åŁ ĥ
æ» ¡
éĢī ä¸¾
ç¼ ©
al ity
Ġe qu
æ°Ķ åĢĻ
us iness
æİª æĸ½
ort h
v ed
Ġo p
çĸ Ĺ
èħ Ĭ
å ´
ĠE ast
Ġc all
G DP
å¸Į èħĬ
ç ¿
è´ «
é¢ Ŀ
éĺ Ł
Ġc lear
Ġen ergy
ce pt
æĸ¹ æ¡Ī
ie ve
çĬ ¶
g ed
åĽ½ çļĦ
Ġpr ices
Ġv ot
ç½ ĳ
è¡¨ æĺİ
ä¸į èĥ½
ä¸ĭ éĻį
Ġf iscal
å®ŀ éĻħ
ä»ĸä»¬ çļĦ
ra b
Ġsh ort
éĥ¨ éĹ¨
çŁ ³
å®ŀ æĸ½
ä¾ ¿
ĠT r
ĠInd ia
é Ł
Ġt ake
æľĢ ç»Ī
l am
ct or
æľº ä¼ļ
Ġbet ter
çļĦ éĹ®é¢ĺ
Ġre as
äº¿ ç¾İåħĥ
æ¶Ī è´¹
ä» ĺ
ä¼¼ ä¹İ
äºº æ°ĳ
æĭ¥ æľī
æ¬§åħĥ åĮº
Ġse curity
è¿Ļ æĺ¯
ç«ŀ äºī
Â ł
Ġwith out
åĿ ı
æıĲ é«ĺ
è ĳ
ç¥ ¨
åĪ¶ åº¦
Ġp os
çī¹ æľĹ
Ġth reat
Ġcomp et
æĪĺ çķ¥
èĥ Ģ
Ġal ready
en cy
Ġp ers
æµ ĭ
Ġcent ral
Ġ es
ĠGerm any
Ġh ist
å¹ ¿
å¾ ĭ
æŃ »
Ġcont ro
ä¼Ĭ æĸ¯
å¼ ł
åŃ¦ å®¶
v ing
Ġtechn olog
æİ¥ åıĹ
Ġ ide
con d
è¾ ĥ
çī¹æľĹ æĻ®
Ġs er
è¿ĺ æĺ¯
æİ§ åĪ¶
Ġpo int
Ġm ade
äºļ æ´²
ĠG DP
h or
ert ain
æĿ Ł
re m
id er
am a
g es
z one
Ġ V
Ġp oss
ab or
ä½¿ çĶ¨
Ġkn ow
ä¼Ĭæĸ¯ åħ°
Ġqu est
ar ch
æĹ¶ åĢĻ
âĢĿ ãĢĤ
e red
åİŁ åĽł
è°Ī åĪ¤
g er
ist an
l i
Ġan n
Ġpartic ular
ä½ ł
Ġprodu ct
åĨ ľ
èĥ½ åĬĽ
æĪĸ èĢħ
èµĦ äº§
ar s
ra cy
éª Į
Ġdec l
Ġst and
ï¼ī ï¼Į
éľĢ æ±Ĥ
ä¸į ä»ħ
idd le
éĶ Ļ
9 0
ra st
Ġcons um
å¤ļ æķ°
ä¸º äºĨ
ter n
Ġh ig
ab l
Ġd own
Ġb usiness
åº Ń
ĠK ore
æ £
oll ow
ĠB ank
Ġpro p
åŁº éĩĳ
Ġm ed
ent s
Ġd ire
åĨ² çªģ
ãĢ ĭ
rou p
M F
ment al
ãĢ Ĭ
ä¼ °
ur y
å·´ é©¬
ä¸Ĭ çļĦ
Ġcan not
è¿ °
Ġthe n
éĻ ·
èģĶ çĽŁ
æĶ¹ åıĺ
æī §
Ġar g
æľį åĬ¡
åĴĮ å¹³
i vers
Ġst ates
æĸ¹ å¼ı
åı °
Ġre v
x t
Ġind ust
Ġa ff
å¥¥ å·´é©¬
ä¼ ¦
ä¸į åı¯
Ġa p
æī¿ è¯º
The re
å± Ĥ
éļı çĿĢ
Ġed uc
èµĦ æºĲ
ä¸Ģ æŃ¥
Ġprot ect
The y
æĺ¯ åĲ¦
éĶ ®
Ġim m
èµ °
äº Ĵ
Ġof ten
Ġd ist
r atic
è£ ģ
ä»į çĦ¶
åħ³ éĶ®
æĽ ¾
Ġj ob
a h
ç« ¯
éĺ¿ æĭī
ir on
å¤ĸ äº¤
çļĦ æĶ¿æ²»
in es
éĿŀ æ´²
os ed
ç®¡ çĲĨ
Ġp resident
åĨĽ äºĭ
ou se
Ġp res
s s
åı Ļ
ĠB rit
çī¹åĪ« æĺ¯
t al
Ġe v
Ġex pect
åį «
ç³» ç»Ł
Ġ very
Ġt urn
æľī æķĪ
Ġam ong
Ġst art
ç¨ĭ åº¦
Ġord er
æĿ¥ èĩª
æı ´
è½ »
Ġan other
Ġh ard
éĻį ä½İ
Ġo il
S o
or ld
èĲ ¨
åĳ ¨
éĿŀ å¸¸
å§Ķ åĳĺ
Ġcour se
he re
Ġl aw
æĬ Ĺ
ä½ĵ ç³»
èĤ ¡
æŁ ¥
å Ħ
Ġth ree
ĠF r
p or
èĢ ³
èµĦ éĩĳ
æĻ ¯
Ġinstit utions
ic k
éĺ »
T o
å¥ ¹
Ġf ew
äºº åı£
åĩı å°ĳ
ä»ĸ çļĦ
u el
åħ± åĲĮ
åĿ ĩ
Ġf ollow
y r
Ġpro cess
åħ¶ ä¸Ń
Ġf ac
le ment
l and
è¯ ¯
sel f
it ions
ĠA rab
ru g
èĲ ¥
u p
åŁ İ
one y
Ġpriv ate
ä»İ èĢĮ
v es
ä»· åĢ¼
b ama
i ence
ä¸Ģ æł·
iv ing
åĵ ¥
åĩł ä¹İ
ĠG ree
çĶ± äºİ
å· ®
Ġc lo
Ġm ove
ĠAs ia
çļĦ æĥħåĨµ
inist er
ç ı
èĢĮ ä¸įæĺ¯
W e
å¤ «
å¾Ĺ åĪ°
æľ Ŀ
èģĶåĲĪ åĽ½
Ġm illion
e ad
Ġimp ro
ä¼Ĭ æĭīåħĭ
Ġcl imate
è§ Ĵ
éģ Ń
Ġto ward
Ġbe fore
åıĹ åĪ°
re t
le ction
om en
Ġen v
ĠUn ion
ĠI nt
h old
ra q
Ġp ot
iv id
ç© Ĩ
çĻ ¾
u ed
å½ĵ çĦ¶
Ġall ow
çŁ Ń
Ġp ay
st and
çĽĳ ç®¡
u ge
ap s
Ġf ul
i o
Ġa v
ĠS e
åıĻ åĪ©äºļ
W ith
åĪ º
æĸ Ļ
ak en
å¸ ®
è¿ĺ æľī
åį³ ä½¿
ç² ¾
åī Ĭ
æĹ ©
é¡ ¿
èĻ ½
æī ¹
åĬĽ éĩı
å£ «
åĽ ´
ut e
ç»ıæµİ ä½ĵ
Ġmem bers
8 0
Ġmon etary
åĲĦ åĽ½
p h
éĺ¿æĭī ä¼¯
Ġv iew
Ġe as
ä¼ ĺ
æį Ł
Ġch ild
Ġincreas e
åĦ ¿
ad es
Ġr ul
Ġeuro zone
Ġa ch
ä¸Ģ æ¬¡
è¡ ¥
m ost
Ġle ast
çļĦ æľĢ
çļĦ å¤§
Ġad m
Ġl if
éĩį æĸ°
our ces
Ġro le
st ain
éĻ ¢
ag es
Ġr ather
More over
an ies
Ġfor m
å°± ä¸ļ
åĬ³ åĬ¨
å§Ķåĳĺ ä¼ļ
Ġin e
ib ility
y ing
Ġpe ace
ruct ure
ate ly
ĠTr ump
c ing
èĻ½ çĦ¶
åĽ Ľ
å®Į åħ¨
Ġm oney
Ġpro f
Ġm at
ä¹ ħ
Ġg roup
ç ħ
ç§ ¯
Ġappro ach
åĴĮ åħ¶ä»ĸ
å¹´ ä»£
é¡¹ çĽ®
ä¿ ĥ
Ġa round
it iz
Ġsu stain
1 0
ç¾ ¤
ĠI raq
æ± ĩ
è§Ĥ çĤ¹
ĠIs lam
äº ¬
åĩº åı£
ro ss
Ġl im
éĤ£ æł·
ç¦ ı
èį ¯
èĮ ĥ
åī §
anc es
Ġp ut
Ġn um
èĢĥ èĻĳ
Ġacc ount
åľŁ èĢ³
å¯ Ĩ
åĪĽ éĢł
ro ad
r or
Ġa nt
Ġsoc iet
Ġth ough
éĴ Ī
Ġaut hor
or k
æĿ Ģ
åĽł ç´ł
itt le
Ġde fic
èģ Į
åľŁèĢ³ åħ¶
æ¼ Ķ
å¿ µ
Ġp ast
Ġp ress
æľī åı¯èĥ½
åģ ľ
èĥ ľ
Ġ 3
ur ther
éĿ ł
7 0
è® °
Ġpl ay
Ġ The
é² ľ
èĢ ģ
ç© º
å£ °
Ġen s
ä¹ Į
ä¹Ł è®¸
åĩº äºĨ
Ġv i
Ġinc ome
ä¸į æĸŃ
Ġhig her
æģ ¶
åį Ĭ
çĽ¸ åıį
Ġcur ren
æģĲ æĢ
Ġin st
Ġinfl ation
åıĤ ä¸İ
Ġp ar
åĨ³ çŃĸ
Ġeffect ive
Ġc ar
éĢ Ĥ
fic ult
% ãĢĤ
åĬ ª
Ġme as
g in
ä½ ı
Ġopp ortun
ç§» æ°ĳ
çº ¿
åģ ¥
Ġcomp anies
Ġdif ficult
id es
Ġsm all
æ ¢
Ġl ittle
åº ķ
èµ ¤
Ġoffic ial
ot i
Ġwhe ther
ç±» ä¼¼
ĠW orld
Ġop en
Ġas se
Ġneed s
Ġmon th
åıĺ å¾Ĺ
ç¼ ĵ
Ġproble ms
Ġgen er
er ing
èĲ ½
Ġsign ific
Ġdiffere nt
éģ¿ åħį
in ing
Ġne xt
åĿ ļ
ä¿Ŀ æĮģ
Ġ 4
å¸ Ń
èĩªå·± çļĦ
Ġcred it
pec ially
Ġl abor
iv il
a ir
Ġc itiz
ç¡® ä¿Ŀ
a im
ĠO bama
Ġl oc
ä¸ŃåĽ½ çļĦ
Ġest abl
å¸® åĬ©
Ġcontro l
Ġrel ations
Ġenv iron
é² ģ
h ing
Ġs pec
ak es
Ġconc ern
åĪ ¸
ä¹ĭ ä¸Ģ
æĪ ¿
Ġc ase
è¶Ĭ æĿ¥
è¿Ľ ä¸ĢæŃ¥
Ġdevelop ing
éĥ½ æĺ¯
ĠS yr
ä¹ °
è¶ĬæĿ¥ è¶Ĭ
ve re
i x
al est
Ġf e
åľ° æĸ¹
æı´ åĬ©
Ġf ree
æŁĲ äºĽ
èĩª èº«
äº Ķ
Ġg u
Ġconf lic
èĢħ çļĦ
åĢ Ł
oc us
å¾ ħ
est ic
åŁº æľ¬
n er
ĠS outh
è´· æ¬¾
è´£ ä»»
Ġp h
Ġch ang
y s
âĢĿ ï¼Į
èĦ ±
Ġ 5
ç»ĵ æŀĦ
ĠC omm
çı Ń
Ġreas on
¹ ģ
åı Į
Ġneed ed
Ġsim p
im in
æģĲæĢ ĸ
re ed
æĬ µ
Ġc a
Ġsp ending
è®¾ æĸ½
is hed
id ence
è¶ħ è¿ĩ
iv ity
ac y
t ed
ĠI n
Ġris e
Ġs ol
Ġg et
å°Ĩ ä¼ļ
i k
å¤§ éĥ¨åĪĨ
Ġcon d
éĩ Ĭ
è¿Ĳ åĬ¨
ch ange
Ġexp er
Ġremain s
Ġap pe
ä¸Ń ä¸ľ
A t
Ġes pecially
' s
çľŁ æŃ£
èµ¤ åŃĹ
åĩº çļĦ
Ġpl an
æī ¾
Ġr un
og n
Ġd oll
åıĳ è¾¾
éħ į
Ġf all
Ġf ocus
åĮĸ çļĦ
ĠAfric a
a z
Ġn on
as es
åıª æĺ¯
åĬ ŀ
åĲ ¸
æ´» åĬ¨
Ġc rit
Ġsh are
Ġadd ress
Ġneg oti
é¢Ĩ åŁŁ
ç¥ ŀ
ĠInt ern
Ġdemoc racy
Ġsignific ant
å° ¤
åĢ į
s p
ĠF ed
ä»Ĭ å¤©
æĿĥ åĬĽ
æł¹ æľ¬
Ġlong er
vent ion
Ġc ut
Ġwh y
Ġc ivil
æ¨¡ å¼ı
Ġt ar
se qu
åħ³ æ³¨
å·´ åĭĴ
åıĸ å¾Ĺ
å¡ ŀ
å·´åĭĴ æĸ¯åĿ¦
åĪ© çĶ¨
å¥½ çļĦ
äºĨ ä¸Ģ
å¯ »
Ġdom estic
é ¼
Ġcom e
Ġresp ons
åº ı
æŃ¦ åĻ¨
éĻĲ åĪ¶
Ġre se
ep end
Ġpo or
æ°ĳ æĹı
ĠKore a
ition al
Ġret urn
èµ· æĿ¥
åĪ Ŀ
iss ion
å¥ ĩ
Ġeduc ation
Ġpro s
Ġcitiz ens
åº ·
Ġde ep
Ġha pp
f or
it ive
Ġw ant
ç® Ģ
ir d
Ġsh ow
å® Ĺ
å¡ Ķ
Ġreform s
Ġemer ging
é£ Ł
ä¸ª äºº
Ġh im
çŁ¥ éģĵ
ur d
çī Ļ
Ġcost s
è¡ °
åĪ¶ å®ļ
Ġsu ff
åľ° ä½į
Ġc ol
Ġd uring
åĬ ±
å¹ ħ
om et
ĠR ep
èį £
Ġf urther
å®¶ åºŃ
Ġquest ion
Ġdec ades
è® ¨
åħ³ äºİ
Ġb ig
Ġm ass
æĿ¡ ä»¶
å½ĵ åīį
ĠT ur
at ors
Ġn at
å¹³ çŃī
Ġw omen
åľ¨ äºİ
Ġme ans
Ġvi ol
Ġeff orts
Ġen g
Ġal most
æķ° æį®
éĴ ±
è¿ĩ ç¨ĭ
çİ° å®ŀ
Ġhow ever
Ġg iven
åŁİ å¸Ĥ
åħ¬ æ°ĳ
çŁ³ æ²¹
Ġb al
anc ed
è¡¨ çİ°
p ite
ä¹ĭéĹ´ çļĦ
Ġke y
æ°ĳ ä¼Ĺ
Ġag o
æ¯ «
Ġrequ i
ĠD e
å¾Ī å¤ļ
å¤± ä¸ļ
æĸ¹ æ³ķ
Ġfin d
; &
l ing
åħ· æľī
Ġcontin ue
æĢ ¥
Ġother s
åĬª åĬĽ
Ġp at
æķ ĳ
æ³ķ å¾ĭ
éĢļ èĥĢ
åĪº æ¿Ģ
æĺ¯ ä¸Ģä¸ª
% ï¼Į
å ł
è° ĵ
Ġprog ress
è´« åĽ°
ar m
Ġser ious
Ġin n
Ġh and
oc k
éĺ ¶
èģĶ åĤ¨
æ½ ľ
Ġh al
æĪĲåĳĺ åĽ½
ç»ĵ æĿŁ
Ġse ctor
èĳ Ĺ
Ġ her
Ġg ain
t he
Ġor gan
æĻ º
æĶ¹ åĸĦ
åıĳå±ķ ä¸Ń
Ġbu ild
åį± éĻ©
Ġseem s
om es
ä¼ ´
w ay
æĸ° åħ´
ĠP alest
v ious
a ve
iz ing
W hen
çļĦ è¯Ŀ
é» İ
c ies
å® ¢
Ġb est
Ġcon st
form ation
p id
Ġd r
Ġse cond
Ġcl aim
l f
it her
ro p
è´ Ń
Ġme et
é¢Ħ ç®Ĺ
ç Į
Ġs ay
çĽ¸ å½ĵ
o pe
ç ¹ģ
ä¼ļ è®®
Ġpr ice
ä¼ł ç»Ł
æĶ¯ åĩº
m an
å¹ ¸
ç¾İ èģĶåĤ¨
Ġ er
Ġo cc
è¿ ½
Ġc amp
Ġe lection
ĠN orth
Ġh old
Ġl ib
Ġgrow ing
ĠFr ance
Ġst ud
Ġwith in
ess ion
æį ¢
Ġrec ogn
n ce
è Ń
ar n
èĢĮ æĺ¯
ç»´ æĮģ
Ġmod el
Ġy ou
Ġf am
ä¿¡ æģ¯
Ġagree ment
éĿ© åĳ½
é¦ĸ åħĪ
Ġpot ential
èŃ ¦
Ġbenef its
çķ Ļ
å°± ä¼ļ
Ġter ror
Ġdire ct
å¤§ éĩı
Ġy et
ä¸İ æŃ¤
Ġc oll
ud get
è¿ ŀ
ç½ ª
Ġincreas ingly
åħ± åĴĮ
Ġprov ide
C hin
he s
Ġth ink
Ġf ound
èĤ ¯
èĩ³ å°ĳ
æİ¨ åĬ¨
Ġm y
Ġen ough
Ġrequ ire
ĠP art
Ġpop ulation
Ġc are
id ed
ç§ģ äºº
å± ħ
Ġt reat
è½ ¦
t e
t ain
Ġpro ject
äºĭ ä»¶
çł´ åĿı
Ġunder stand
çļĦ å½±åĵį
Ġcurren cy
åĪ »
ä¹ĭ åĲİ
åºĶ å¯¹
å§ Ĩ
çĻ ½
r ime
åį İ
å ³
Ġit self
ĠW ar
Ġp ost
çļĦç ¤
a i
æ¸ ©
Ġt ru
o ol
ç½ ®
ä¸¤ ä¸ª
çĪ Ĩ
å· ŀ
sel ves
Ġl ower
è ĵ
Ġparticular ly
Ġe vent
ä¹ ±
ke y
ĠM iddle
l im
çļĦ æĶ¿çŃĸ
l us
è Ĵ
Ġgreat er
i qu
en ces
å°¼ äºļ
æľĿ é²ľ
Ġca us
Ġcomp le
çĬ ¯
Ġadm inist
åĽ º
æĹ¶ ä»£
Ġch o
w h
Ġsu g
Ġterm s
T O
b e
Ġs low
ress ion
Ġpre vent
éĩįè¦ģ çļĦ
Ġregion al
åħ ī
è® ²
è¶ ĭ
çĽ¸ åħ³
Ġres ources
ren g
åĮ» çĸĹ
Ġs he
Ġwork ers
Y et
ä¸Ĭ è¿°
æĿ ¾
Ġreg ime
al e
èµ ĸ
Ġright s
æ°ĶåĢĻ åıĺåĮĸ
åģ¥ åº·
r ate
ent ion
On e
é¼ ĵ
u g
Ġinterest s
Ġreg ul
Ġlif e
æķ´ ä¸ª
ip l
å· ¦
æĪĲ äºĨ
åħ¨ ä¸ĸçķĮ
æĪĳä»¬ çļĦ
Ġus ed
y n
ä¹ ı
Ġcons ider
Ġrecent ly
å½ Ĵ
em pt
å® Ī
å¯ Ł
ä¸Ĭ åįĩ
åĪĽ æĸ°
Ġtar get
Wh ile
è¯ķ åĽ¾
n ers
æ³ Ľ
Ġth us
Ġst reng
çĽ´ æİ¥
ivid ual
çļĦ æĸ°
ic ient
Ġm ult
èĥ Į
Ġb udget
c il
åı¯èĥ½ ä¼ļ
200 8
éĢ Ĳ
åĶ ¯
p ris
æĺ¾ çĦ¶
çĥ Ī
é ¥
Ġfor ce
åıĳ çİ°
æľĢ åĲİ
Ġint eg
ç¢ į
B y
Ġde al
Ġe ach
Ġle ft
Ġcomm on
ie f
æ¸ Ĳ
ren ch
è§Ħ åĪĻ
é º
Ġserv ices
Ġinn ov
åĢº åĪ¸
åı ³
h aps
om p
åħĭ åħ°
èī ¯
ç± ³
éĶĻ è¯¯
l ike
Ġc ertain
rast ructure
ç« ¥
Ġen c
Ġpl ace
Âł Âł
Ġsug gest
Ġin it
Ġimp act
Ġne ver
åıĬ åħ¶
ç¨İ æĶ¶
Ġfor mer
Ġredu ce
ç ĵ
æĺ¯ åľ¨
ver age
Ġfa ce
Ġinfl u
åİĭ åĬĽ
A n
Ġd est
iv ed
çĭ¬ ç«ĭ
Ġnum ber
c ome
ä¹Į åħĭåħ°
i er
Ġopp os
å·¨ å¤§çļĦ
Ġt al
æĶ¿ æĿĥ
æĭ Ĵ
æĬ¥ åĳĬ
Ġ ur
ĠR e
Ġg r
Ġcont rib
èĢĮ è¨Ģ
ä»£ è¡¨
Ġrel ative
at eral
ç« Ł
Ġind ividual
ä¹ ł
Ġwe ak
ç»ıæµİ å¢ŀéķ¿
çĽ¸ å¯¹
Ġacc ess
A fter
ä¿ ®
Ġref lect
ĠRep ublic
æľº åĪ¶
Ġra pid
Ġchild ren
in ation
äº ¡
Ġm in
Ġde b
Ġun em
19 9
åŁºç¡Ģ è®¾æĸ½
å°¤ åħ¶
en ing
å¼ Ĥ
éĤ ¦
Ġsh if
è¢ Ń
å¹³ è¡¡
åħ¬ ä¼Ĺ
Ġpolit ics
ord ing
Ġo per
ä¹ Ĳ
Ġre n
om ing
çĸ ¾
æł¹ æį®
æ ¦
æĿ Ĥ
Ġch ar
ç¡® å®ļ
ĠL e
Ġhist ory
äºº ç±»
å·´ åŁº
è£ ħ
Ġac cept
æŀģ ç«¯
en ed
è® Ń
æĹ¥ çĽĬ
Ġconflic t
Chin a
åĢ Ĵ
çĶ¨ äºİ
Ġsim il
åŁĥ åıĬ
ie ld
w here
Ġb road
ä¹ĭ åīį
å·´åŁº æĸ¯åĿ¦
Ġb l
Ġloc al
Ġbe gin
The se
åı¯ æĮģç»Ń
æĪ ·
çģ ¾
Ġposs ible
æĪĸ è®¸
ron t
Ġrep ort
i od
ou ra
å¿ħ è¦ģ
ĠGree ce
Ġu nt
ç© ·
Ġp red
ç ĳ
åį ĥ
ag ed
Wh at
åı ĭ
æīĢ è°ĵ
åĪ¶ éĢł
æīį èĥ½
Ġst ability
éĻ· åħ¥
Ġindust r
Ġd ang
ä¼ ¤
Ġstrate g
end s
Ġs pe
Ġse c
ä¸į åĨį
ä¸İæŃ¤ åĲĮæĹ¶
è ı
Ġf ear
Ġl a
ak istan
Ġval ue
a ign
æĬķèµĦ èĢħ
å ª
è¯ģ æĺİ
k ra
Ġex change
ce ed
æĸ¯ æŀĹ
æłĩ åĩĨ
ĠPalest in
ut in
ak ers
çļĦæĥħåĨµ ä¸ĭ
Ġthem selves
Ġhe ad
éĢī æ°ĳ
Ġsociet y
Ġne cess
at ives
Ġris ks
ç¢ ³
Ġs omet
Ġfor ces
æĦı å¤§
o id
æĸ Ĺ
Ġf l
as ed
Ġon ce
çº ½
è¡° éĢĢ
è¯Ĩ åĪ°
Ġcre ate
Ġr u
if ied
Ġ19 9
ç´ ¢
æĦıå¤§ åĪ©
Ġh ome
æ¸ ¸
å®ĺ åĳĺ
Ġchallen ges
æĽ´ ä¸º
Ġind epend
åģļ åĩº
å¾ ģ
äº¤ æĺĵ
Ġfund a
Ġcamp aign
ard s
Ġinf rastructure
ç§ĳ åŃ¦
is ed
Ġext rem
on al
Ġs av
Ġcon sequ
åĲİ æŀľ
Ġco op
Ġhal f
å¼ ¹
Ġme an
Ġc he
Ġimp lement
å¤± è´¥
Ġ200 8
æĸĩ åĮĸ
b an
l ation
çļĦ æĹ¶åĢĻ
Ġs ense
Ġe ver
æµģ åĬ¨
i ation
at s
æ¬§æ´² å¤®è¡Į
è¿Ļä¸Ģ çĤ¹
gy pt
Ġstrate gy
Ġc ult
Ġl ack
åģ ĩ
èµ ¢
çľ ¼
w ays
ä¹ ¦
Ġiss ues
ä¸į åı¯èĥ½
è¾¾ åĪ°
Ġmem ber
åĵ ª
æĺİ ç¡®
è¿Ľ æŃ¥
å¸ĥ ä»Ģ
æī© å¤§
Ġjob s
ĠU N
çİ° ä»£
æĢ» çĲĨ
ĠWest ern
åĶ¯ ä¸Ģ
at a
æĭħ å¿ĥ
Ġb or
Ġl ed
conom ic
äº§ åĵģ
æŁ ĵ
c ent
å® ª
æĦı ä¹ī
Ġinvest ors
èĬ Ĥ
U n
éļ¾ ä»¥
å¼ ĥ
è§£ éĩĬ
Ġb ond
ch ool
Ġa ction
Ġrep res
ĠSyr ia
Ġst ep
ä¸» æĿĥ
ĠM inister
æģ °
ä¾Ŀ çĦ¶
ar ian
ĠTur key
ä½ Ļ
æŀ ¶
æ´ ĭ
ç² ¹
o h
éĩĳèŀį åį±æľº
é¢Ħ æµĭ
ab il
çĽ¸ ä¿¡
éļ¾ æ°ĳ
us lim
çĲĨ è§£
éļ ľ
åķĨ åĵģ
å´ ©
å¿ §
éŁ ©
æĻ® äº¬
æĭĴ ç»Ŀ
Ġst ruct
æĿĥ åĪ©
Ġprog ram
Ġsa f
Ġh ouse
over ty
åķĨ ä¸ļ
Ġens ure
ä¸Ģ åľº
ist ic
åįģ åĪĨ
é» ĺ
er ve
Ġd ou
å¹¶ æ²¡æľī
il ateral
ç»ıæµİ åŃ¦å®¶
è£ Ĥ
èħ Ĳ
E ven
åĪĨ åŃĲ
Ġcommun ity
çļĦç¤ ¾ä¼ļ
Ġlevel s
è¢ ĸ
Ġdemoc ratic
ä»Ĭ å¹´
çĥ Ń
E urope
åħ »
éĹ »
Ġwe alth
åıį åºĶ
ç ¦ģ
ĠS p
çĬ¶ åĨµ
ç¹ģ èį£
in s
ä¼ Ļ
Ġde v
èĬ ±
å» ¶
è§ ī
Ġcomm it
Ġrese arch
ĩ ĥ
æ¯Ķ äºļ
åı ·
åª Ĵ
Ġto get
æ¬ ¢
Ġtoget her
ent ly
Ġpolit ic
Ġadminist ration
Ġleaders hip
çļĦ ä¸į
äº Ī
å¤§ è§Ħæ¨¡
Ġab le
Ġdis p
or al
Ġbel ieve
R I
t o
æĹ ¢
em oc
çĲĨ çĶ±
ĠS h
è· ¨
Ġem b
Ġf ight
Ġe arly
Ġn et
ĠF rench
ç»Ł æ²»
Ġbr ing
å¹¶ éĿŀ
è¿Ľ åħ¥
i um
æ ĵ
Ġmain tain
Ġimpro ve
å®Ĺ æķĻ
s ide
å¤§ å¤ļæķ°
èŀį èµĦ
ĠU kra
Ġexp l
æļ´ åĬĽ
Ġl and
ĠP akistan
Ġach ieve
Ġo ld
Ġke ep
Ġlo ok
Ġchallen ge
ĠA r
åĨħ éĥ¨
ac c
Ġris ing
Ġunem ployment
ä¸ª æľĪ
Ġfin ance
å¼ķ åıĳ
åĦ¿ ç«¥
å¹´ æĿ¥
Ġex ist
çĦ¶ èĢĮ
æł¸ å¿ĥ
ä¾Ŀ èµĸ
æ° ¸
ç¿ ¼
d ash
Ġb re
ĠT h
y ond
Ġmod ern
æĢ Ģ
ir st
æīĭ æ®µ
äº ²
Ġrul es
Ġm et
H e
m dash
åĬ³åĬ¨ åĬĽ
d om
l t
Ġg ra
è¯ ī
å¾ ®
ac ks
ç¬¬ äºĮ
e e
Ġt imes
éĩį å¤§
èĵ Ħ
å¹´ åīį
Ġv ict
1 60
Ġc r
èĭ ¦
Ġdec ision
éĴĪ å¯¹
ĠPart y
Ġcom b
ä¾ µ
æĮĩ åĩº
Ġpop ul
è¾¾ æĪĲ
é¢Ĩ è¢ĸ
Ġper iod
Ġpur s
å¤ĸ åĽ½
æ¬§æ´² çļĦ
ç ĩĥ
æįŁ å¤±
Ġdoll ar
çĪ ±
o int
è½ ¯
åħ¨çĲĥ ç»ıæµİ
çĪĨ åıĳ
Ġp overty
å® ¡
æ¯ı å¹´
Ġmeas ures
Ġm aking
ĠC ent
æī¿ è®¤
Ġiss ue
m akers
Ġs it
æİĴ æĶ¾
Ġsimp ly
ra w
Ġy oun
Ġclo se
u ation
ĠM uslim
Ġincreas ed
A l
Ġsimil ar
Ġf ive
éģ ĩ
æ± Ĺ
Ġcent ury
åīĬ åĩı
ç» ľ
èİ «
Ġf uel
æľī çļĦ
æĶ¿åºľ çļĦ
ro du
æľī æīĢ
è°ĥ æķ´
è¡Į çļĦ
è· Į
çħ §
åĲ Ĺ
Ġst at
Ġcon stit
å·¥ ä¸ļ
Ġbo ost
ä¸»ä¹ī èĢħ
Ġac ross
l er
y p
ä¸į è¶³
1 1
b on
æ¯ Ĵ
çļĦç ł
æģ ©
Ġrec over
è®¨ è®º
è¯ Ń
æŃ£ ç¡®
Ġf our
Ġh ope
Ġru le
t hen
Ġb lo
ĠI MF
å·¥ èµĦ
ution al
Ġdang er
O f
c ial
is ions
ol it
æĽ ¼
Ġful l
ĠâĢ Ŀ
æķ £
ĠE gypt
æ¯ ķ
Ġcor por
çĵ ¦
åªĴ ä½ĵ
ĠN ew
Ġal ways
Ġant i
å¹´ è½»
ĠI tal
Ġf ood
Ġwe ap
åĩĨ å¤ĩ
èĮĥ åĽ´
Ġto p
ĠBrit ish
ä¸į ç®¡
iss ions
æĦ¿ æĦı
å¹² é¢Ħ
Ġs l
åħ ģ
æķ° åŃĹ
åıª èĥ½
Ġbas ed
inc ip
th ough
åĬł åħ¥
Ġestabl ish
iv al
å± ŀ
ipl om
Ġem ployment
Ġd ata
Ġl oss
æĹ¶ æľŁ
Ġdec ade
çĳ ŀ
ä¸į åĪ°
Ġbal ance
a ud
ç» Ĩ
å¹¿ æ³Ľ
Ġ ident
ï¼Į âĢľ
æľŁ éĹ´
4 0
æŃ£ å¦Ĥ
è§Ĩ ä¸º
Ġ 6
ä¼Ļ ä¼´
æ±ĩ çİĩ
åº ĵ
Ġun c
è¢Ń åĩ»
Ġp ract
Ġbe h
Ġse lf
ç½ĳ ç»ľ
Ġenc oura
j ust
å® ½
ĠB ush
æķ° éĩı
Ġs ing
åĲ ¬
Ġsystem s
æĽ´å¤ļ çļĦ
ç©Ĩ æĸ¯æŀĹ
Ġlib eral
å®¹ æĺĵ
åħģ è®¸
éĹ®é¢ĺ çļĦ
S ome
è®® ä¼ļ
å¤į èĭı
C B
åı ¤
ä½Ĩ åľ¨
éĺ» æŃ¢
è¶ĭ åĬ¿
å¢ ¨
1 2
åĤ¨ èĵĦ
m m
æĿ¥ çļĦ
åºĶ å½ĵ
æĹł è®º
å¤į æĿĤ
ç¼º ä¹ı
ct ions
è¿Ľ ç¨ĭ
éĿ¢ å¯¹
éĺ¿ å¯Į
Ġtechnolog y
åıĳå±ķä¸Ń åĽ½å®¶
å¤§ åŃ¦
ç§¯ æŀģ
éĺ¿å¯Į æ±Ĺ
1 5
Ġb ord
ive ly
æĿ¡ çº¦
æ¯« æĹł
on se
n e
åĲ ī
Ġel se
èĩª çĦ¶
å² Ľ
I MF
m ing
æķ ¦
çģ «
Ġin formation
æĶ¿çŃĸ çļĦ
è´¢ å¯Į
åįı å®ļ
å½¢ æĪĲ
Ġpart ies
Ġrel ig
Ġpr incip
Ġcond itions
Ġa im
Ġsu re
Ġtru e
qu ality
Ġav oid
è¿ ª
Ġso vere
b y
end ed
è¿ ħ
é ¾
å¤§ å¹ħ
are nt
ĠIntern ational
ar ing
æľī åħ³
çŃ ¾
w ise
åľ¨ ä¸Ģ
å½ĵ æĹ¶
Ġman age
ç»ı åİĨ
Ġab s
å»º è®¾
Ġb ar
Ġd iplom
åľ¨ ç¾İåĽ½
å®£ å¸ĥ
Ġopportun ity
Ġinv ol
å¸¦æĿ¥ çļĦ
ï¿½ï¿½ ï¿½
Ġpos ition
ol ic
ä¹Ł ä¸į
ast er
Ġdes pite
Ġpart y
ä»ħ ä»ħ
ä¸Ń å¤®
åĲİ çļĦ
åħ±åĴĮ åħļ
l ia
ac ity
Ġadv anced
oun cil
å¼Ģ åıĳ
æ£ ®
ru pt
Ġfir ms
Ġdis e
æĥ Ĭ
Ġreg ard
r ing
ä»£ ä»·
Ġref uge
éĽĨ åĽ¢
ĠC on
Ġse ver
çļĦç ¬
Ġent ire
äºĨ ä¸Ģä¸ª
ill ions
åİŁ åĪĻ
ĠRuss ian
åħħ åĪĨ
åĲ¸ å¼ķ
ĠC ouncil
Ġresp onse
Ġt re
åĨ ·
e an
åģ ¿
çĽ Ľ
our ce
Ġdevelop ed
å·¨ å¤§
è¿ĩ åº¦
é«ĺ çļĦ
åİ» å¹´
Ġam ount
çģ Ń
æĺ ł
Ġsa id
Ġs chool
åĪ ļ
gh an
å·´ è¥¿
ĠGerm an
Ġre ce
ä¸Ģ ä½į
æĹ ¦
ä¸ĭ çļĦ
Ġhist or
Ġpress ure
is ing
Ġd am
Ġd one
åľ¨ è¿Ļ
Ġb ad
ç« Ļ
æĮ ¯
é¡ ¾
Ġconsum ption
k ing
Ġ 7
Ġdefic it
2 5
è´ Ŀ
Ġad op
Ġstreng then
u ing
Ġprom ot
åĳ ¢
Ġs k
è¿ Ŀ
å°Ĩ åľ¨
ĠP utin
éģĵ å¾·
Ġcall ed
äº «
å¿« éĢŁ
Ġsing le
Ġgroup s
Ġyoun g
æĭ ¿
ä¸»ä¹ī çļĦ
Ġeff ort
èĦ ĳ
Ġare as
igh b
iven ess
ä¸Ģ èĩ´
å¦ ĩ
å¥³ æĢ§
Ġt aken
ra g
æģ ¢
r ated
æī ĺ
ä¿ĥ è¿Ľ
Ġeffect s
æ²Ļ çī¹
Ġasse ts
re g
Ġn orm
åıį æĺł
åľ°åĮº çļĦ
è°ĥ æŁ¥
é» ĳ
Ġofficial s
åĲĪ æ³ķ
å®ŀéĻħ ä¸Ĭ
åħ ¸
Ġv is
æģ¢ å¤į
ra ms
è¿ħ éĢŁ
Ġc reat
Ġm ar
ent ed
å¼Ģ æĶ¾
ä¿Ŀ è¯ģ
å³ °
ç½ ²
Ġlead ing
pp ed
èģĶ ç³»
Ġwho se
å¤± åİ»
Ġprodu ction
å¾Ģ å¾Ģ
Ġunt il
Ġrequi res
ĠUkra ine
æĽ ¿
ç¾İåĽ½ åĴĮ
æĸ¹éĿ¢ çļĦ
æħ ¢
ir c
Ġpolitic ians
Ġv ar
ĠBrit ain
n ed
åĲ «
if y
çº½ çº¦
O N
åĳ ¼
åĬŀ æ³ķ
Ġconsequ ences
çļĦç¬ ¬
ç»ıæµİ çļĦ
æĬķ ç¥¨
åĽ° éļ¾
éĤ »
çļĦç ľ
å¹³ åĿĩ
Ġexp ort
å¥½ å¤Ħ
Ġa verage
it ing
ç»ı å¸¸
Ġsupp ly
æī¿ æĭħ
å¿ ½
æİ Į
å¹¶ ä¸įæĺ¯
ĠF und
y a
ra z
ä½Ĩ è¿Ļ
æ¯ ģ
Ġun like
èħĲ è´¥
Ġsever al
c hed
ä¸į è¿ĩ
éĢļ å¸¸
Ġproduct ivity
æº ĥ
Ġk ind
m ber
åĶ ®
ä¸» å¸Ń
ru ption
æĦŁ åĪ°
ĠAf ghan
A meric
ĠA l
ĠU K
ure d
éľ ²
åĲ ¯
åĲĪ çĲĨ
æŀ Ĳ
è¡Į ä¸ļ
è¶³ å¤Ł
å¢¨ è¥¿
æīĢ ä»¥
æ²» çĲĨ
ä¹ĭ å¤ĸ
Ġweap ons
å¢¨è¥¿ åĵ¥
éŁ© åĽ½
Ġ ill
Ġ ess
æŃ£ æĺ¯
çļĦç Ł
æĺ¾ ç¤º
Ġc ause
ç¾İåĽ½ äºº
èģĶ éĤ¦
Ġmonth s
m ed
æľĢ å¤§çļĦ
çļĦ åħ¨çĲĥ
çļĦ æĶ¯æĮģ
å®ª æ³ķ
Ġass um
ä¸Ģ é¡¹
å·¥ äºº
Ġlar gest
Ġinit i
le v
Ġdem on
æŁĲ ç§į
Ġann ual
æĮ ¥
æıĲ åĩº
å½¢ å¼ı
æ¢ ħ
ç®Ģ åįķ
Ġ Q
æķ ħ
åĬ© äºİ
lia ment
Ġco al
Ġfail ed
Ġoppos ition
Ġhouse hold
æ Ĳ
éĽ ·
rad e
ore d
å·¥ åħ·
Ġcre ated
æľī åĪ©
Ġsuccess ful
è¿ İ
Ġd rug
ĠAmeric ans
Ġpop ular
Ġd ay
è´Ń ä¹°
éĥ¨ éķ¿
çĬ ¹
Ġlarge ly
Ġcoop eration
Ġstruct ural
Ġre ach
Ġde ath
æĶ¿ åħļ
Ġw ater
åĨĽ éĺŁ
åį« çĶŁ
Ġres pect
é¢Ħ æľŁ
Ġpower ful
çŁŃ æľŁ
Ġt est
æŃ» äº¡
w ide
re c
ist ance
Ġwork ing
ĠC ong
æĮ ī
Ġchang es
èµ¢ å¾Ĺ
S uch
re en
ut ed
ag ing
Ġcount er
Ġpolicy makers
Ġbor row
Ġex cess
r ong
Ġto tal
od ay
æĶ¯ ä»ĺ
ç¡® å®ŀ
Ġinflu ence
æ ¥
im ul
çĽ® çļĦ
æĶ¶ çĽĬ
æ½ľ åľ¨
d own
Ġfa v
ç¤ ¾
è¥¿ çıŃ
ens ive
Ġcl ass
Ġem issions
è¥¿çıŃ çīĻ
Ġd on
om b
Ġne ighb
ĠK ing
Ġvot ers
Ġnat ural
Ġatt empt
Ġway s
Ġprog rams
éĻ¤ äºĨ
ivers ity
æ¦ Ĥ
å´© æºĥ
m b
ç¼ ĺ
m arket
id ing
ĠP rime
åŁº äºİ
éĽ ¶
ç´§ ç¼©
d s
éĻ Ĩ
Ġlead er
M any
th ing
Ġal one
åį³ ä¾¿
æĢĿ æĥ³
ĠIslam ic
Ġfunda mental
Ġbe yond
Ġpro b
å®ĥä»¬ çļĦ
Ġpartic ip
Ġf low
ĠCent ral
ä¸Ń å¿ĥ
æĽ¾ ç»ı
ĠB ar
ç«ĭ åľº
Ġper form
Ġdemon st
t on
Ġag g
Ġsc ient
æĢ İ
Ġpre c
Ġcap acity
Ġob ject
raz il
åŃ ©
Ġbank ing
Ġmass ive
åĽ½ ä¼ļ
ĠC l
å¼ķ èµ·
å¤ļ çļĦ
ru ction
Ġl ive
ä¸º ä»Ģä¹Ī
åĬł å¼º
ä¸¤ åĽ½
Ġfund s
æī¹ è¯Ħ
Ġviol ence
Ġnecess ary
at ory
ä¸į å¹³çŃī
Ġha ving
d e
å® ¤
ĠN ations
Ġindust ry
Ġl ives
Ġst imul
Ġdeb ate
ar ily
è¯ ļ
åģ ı
æķĪ æŀľ
Ġk ill
åĨį æ¬¡
ig r
åħ¬ å¼Ģ
çĲĨ è®º
Ġtrans p
æĢģ åº¦
Ġper haps
ĠAs ian
G iven
h ood
Ġag end
å¸Ĥåľº çļĦ
ç¨ĭåº¦ ä¸Ĭ
èı ²
en e
Ġan al
é¼ĵ åĬ±
Ġbeh av
è§Ĵ èī²
Ġp ass
çĽ ĸ
ä¼ ĳ
Ġo pt
ver se
Ġpro per
ç»ı éªĮ
em ber
åĤ¨ å¤ĩ
Ġenviron ment
reed om
å½ ķ
èį ¡
ex ic
çģ¾ éļ¾
T oday
ĠE n
ï¼ļ âĢľ
% .
Ġ Z
Ġ rad
å¿ Ĺ
æ¶ ¨
ortun ately
Ġpart ners
itt ed
Ġfail ure
i ate
å®ĥ çļĦ
è¯Ħ ä¼°
Ġrelations hip
Ġa way
f er
s id
éģ į
or ies
åį ļ
è´ ´
N E
Ġm akes
Ġg ive
ig ration
Ġpr im
å¤Ħ äºİ
Ġde term
åĪĨ æŀĲ
èİ ±
åĽ½éĻħ è´§å¸ģ
Ġaff ect
è´§å¸ģ æĶ¿çŃĸ
æĹ §
è¿Ļ åľº
è¯ ¸
ä¹Ł ä¼ļ
ĠP ar
éģ ı
ov iet
c l
ä»» åĬ¡
Ġnegoti ations
å¯» æ±Ĥ
Ġshif t
åľ¨ è¿ĩåİ»
Ġg as
all ed
çĶŁäº§ çİĩ
çļĦ ä¸»è¦ģ
ĠR es
ç Ĩ
Ġexp orts
è½¬ ç§»
Ġgood s
Ġbe gan
Ġdecl ine
Ġh uge
æľī äºº
ĠE CB
ous ly
èī ¾
Ġexpect ed
ĠG e
åı¦ ä¸Ģä¸ª
Ġsustain able
è Ĩ
é ½
åħ¶ å®ŀ
Ġso on
æī§ è¡Į
Ġstrateg ic
Ġm ov
è´ ¬
Ġexp and
å¸ Ī
å»º è®®
i en
Ġc y
éĶ Ģ
Ġqu ick
Ġmajor ity
Ġmed ia
æŃ §
éĢ ı
çŃ Ķ
åħ¶ä»ĸ åĽ½å®¶
201 0
æĳ Ĩ
åŁºéĩĳ ç»Ħç»ĩ
çĿ £
Ġbre ak
at t
åľ £
ç»ıæµİ åŃ¦
g ent
å® ı
Ġa id
çĶŁ çī©
Ġse en
velop ment
Ġs an
st ead
Ġwill ing
éģ Ĺ
æ¶ ī
æīĵ åĩ»
Ġde l
Ġprop os
å «
ĠJapan ese
Ġu lt
çľĭ åĪ°
ĠComm ission
Ġund erm
Ġ201 0
Ġt en
çļĦ æĸ¹å¼ı
Ġe th
ow ers
Ġun ion
ç¬¬ ä¸ī
éĢŁ åº¦
èĭı èģĶ
åıĳè¾¾ åĽ½å®¶
Ġab ility
ç³ Ł
æ· ·
æī© å¼ł
Ġide a
Ġenviron mental
Ġnew s
åĨľ ä¸ļ
æ¯ķ ç«Ł
Ġm is
Ġleg it
Ġleg al
4 5
åħ¨çĲĥ åĮĸ
éģı åĪ¶
å¼º è°ĥ
led ge
Ġ 8
or ing
æľ¬ èº«
hin d
åĿļ æĮģ
å¦ĩ å¥³
g o
Ġun p
è¿½ æ±Ĥ
Ġpred ict
çļĦ ä¿¡
å¤ º
Ġre ven
Ġr ich
Ġgovern ance
éĽĨ ä¸Ń
Ġeconom ists
åıª è¦ģ
æĶ »
Ġl ost
æľī åĬ©äºİ
se t
äºĭ æĥħ
Ġj ud
æ¡ Ĩ
Ġdes ign
Ġsub st
æ ¹
æł ¡
Ġarg u
ä¼¦ æķ¦
Ġev idence
Ġw in
ly ing
Ġl ater
Ġbenef it
GDP çļĦ
Ġfe el
èĤ¯ å®ļ
Ġp erm
è¾ ©
Ġinc ent
Ġ19 90
Ġsur pris
ä¼ĺ åĬ¿
ĠD emoc
è· Ŀ
Ġact iv
Ġclo s
Ġc and
éĢ Ĭ
I s
ĠS aud
ĠP ro
Ġdisc uss
çĸ¾ çĹħ
èµ «
Ġpr ior
Ġelect ions
Ġine quality
Ġm om
æ´ Ľ
Ġs olution
Ġauthor ities
åĨ³çŃĸ èĢħ
è® ¿
Ġal tern
Ġdo ing
ä¸ľ è¥¿
l ies
it arian
æĪĲ ç«ĭ
åħ¬ å¹³
Ġow ing
æ¡Ĩ æŀ¶
çĶŁ åĳ½
çĹ ĩ
Ġpros per
Ġagend a
l in
p ut
æĺİ æĺ¾
æĥ³ è¦ģ
200 9
Ġinnov ation
äºº éĥ½
äºº åĳĺ
æ² ĥ
Ġe ither
ch an
æķ Į
å®Į æĪĲ
a pe
Ġex c
ä¾ĭ åŃĲ
è¾ ĵ
ç» ª
Ġ1 0
Ġam b
Ġresp ond
% ,
l ine
åħ¨ éĿ¢
æł¸ æŃ¦åĻ¨
Ġocc ur
re am
Ġf ram
è¿Ļ æĦıåĳ³çĿĢ
ĠM exic
å½ĵ å±Ģ
å¤ĸ éĥ¨
å´ Ľ
In stead
Ġdep end
ç¾¤ ä½ĵ
ĠAfghan istan
Ġincreas ing
Ġprotect ion
ĠItal y
è´¬ åĢ¼
Ġcand id
u f
Ġt aking
æľī äºĽ
å®ŀ åĬĽ
Ġv ol
å´Ľ èµ·
Ã ©
Ġc irc
Ġne arly
Ġwe e
åĲĮ æĦı
åĽ½éĻħ ç¤¾ä¼ļ
Ġexper ience
Ġp ath
Ġsu per
rug g
s w
Ġw ide
ap se
æī§ æĶ¿
åħ± äº§
åı¦ ä¸Ģ
Ġe ar
æķĪ çİĩ
Ġtax es
æīĢè°ĵ çļĦ
Ġbec ame
å¾Ī å¤§
Ġob s
æĢ ķ
Ġimm ed
Ġrepres ent
æĵ į
Ġrecover y
åĽ½ æ°ĳ
Ġrev olution
é½ Ĳ
ç´ ¯
è½¬ åıĺ
æĭħ å¿§
éĺ² æŃ¢
ĠPalestin ian
æ²» çĸĹ
ç¬ ¦
Ġre ally
æĥħ ç»ª
Ġglobal ization
çŁ¥ è¯Ĩ
çļĦ æĶ¿åºľ
Ġg round
æ°ĳ ç²¹
Ġcont rast
Ġpros pect
Ġsomet hing
1 00
çļĦ ä¸Ģä¸ª
åĨ Ļ
ust er
N ow
Ġc ru
åħ Ń
Ġre ad
Ġbe hind
Ġst rugg
Ġval ues
he t
ç¾İåĽ½ æĢ»ç»Ł
ric ult
Ġp owers
Ġins ur
Ġvot e
çĮ ®
S t
çļĦ é£İéĻ©
äºº æĿĥ
çĽ Ī
éĹ®é¢ĺ ä¸Ĭ
è¡¨ ç¤º
çĻ¾ ä¸ĩ
m in
Ġs w
is es
Ġth ird
Ġl ate
od y
ä¿Ŀ éĻ©
ie ved
ä½¿ å¾Ĺ
Ġgo al
è ª
çļĦ ç»ĵæŀľ
åĴĮ ç»ıæµİ
ĠSt ate
rough t
Ġest im
æĤ ²
ĠS oviet
åĬ¨ èį¡
åĢĻ éĢī
Ġgen eral
è´Ł åĢº
Ġ 30
Ġd i
Ġv ir
Ġtr illion
è®¤ è¯ĨåĪ°
å¤Ħ çĲĨ
tern al
ĠCong ress
L ike
å¤§ çº¦
ac ed
æ¯Ķ ä¾ĭ
Ġdom in
Ġnot hing
Ġind ic
Ġbond s
ĠKing dom
H ow
âĢĿ ï¼Ī
Ġal ong
Ġbehav ior
Ġem ploy
æ»¡ è¶³
Ġla un
D G
çļĦ çĽ®æłĩ
ç§į æĹı
Ġhigh ly
æĢĢ çĸĳ
b ased
Ġl iving
Ġatt ack
z er
çļĦ å¢ŀéķ¿
Ġindustr ial
Ġprob ably
Ġf reedom
Ġm iddle
Ġsh ar
å¤© çĦ¶
ç¿ »
A cc
n b
Ġrec ession
ä¾Ľ åºĶ
çļĦ æ¬§æ´²
iz ations
ä¸ĵ å®¶
åĪĨ éħį
Ġtre nd
Ġth ings
Ġg e
Ġst ock
ĠM on
éĽ ĩ
æĶ¾ å¼ĥ
ä¿Ħ åĽ½
è¯ģ æį®
åīĬ å¼±
Ġinteg ration
å¸ Ŀ
ä¸ ¹
Ġcom es
æĽ´ å¤§çļĦ
Ġw rong
çº ·
ç»Ł ä¸Ģ
Ġdefic its
åŁº åĽł
erv es
ar ant
ç§ ©
Ġcoll apse
Ġextrem e
çī ĩ
ight s
ç§© åºı
a id
è ĸ
æĹ ¨
he ad
Ġs ide
Ġr at
ĠB razil
ç»Ħ æĪĲ
201 5
olog y
Ġpresident ial
è½ ®
è¯¥ åĽ½
Ġmat ter
Ġopportun ities
Ġcomple x
èĨ ¨
å½ »
éĢĲ æ¸Ĳ
èĨ¨ èĥĢ
å° ļ
ä¿Ŀ å®Ī
Ġinvest ments
ä¾ĭ å¦Ĥ
Ġd en
Ġwor se
éĥ½ ä¼ļ
è° ģ
æ¶ ¦
Ġtrad itional
Ġmom ent
n ect
åı ¶
æİ Ī
åĮº åŁŁ
Ġpre vious
è½¬ åŀĭ
å° Ĭ
Ġsit uation
A ll
æ¸ ¯
å°ĳ æķ°
av ing
ĠSe curity
Ġsk ill
S e
Ġsub sid
Ġprot est
uf act
çģ µ
Ġfollow ing
æĺ Ł
Ġle arn
o y
un g
Ġadv ant
Ġsubst ant
ä¸Ģ åĪĩ
ç³ ķ
ens ion
æĤ £
O R
è¿Ľ åı£
æĦı è¯Ĩ
imate ly
Ġter rit
NE W
ĠA b
çĽ¸ æ¯Ķ
çŃĸ çķ¥
Ġlim ited
èĴ Ĥ
olic y
Ġm inister
et s
Ġres ol
Ġrec ord
å¸¸ å¸¸
æī¾ åĪ°
Ġt em
Ġh ost
åĩ ¯
èµ Ľ
ç§ ĺ
è¿Ļæł· åģļ
i ance
æĺ¯ åĽłä¸º
åģļ æ³ķ
èĥľ åĪ©
åĽ½éĻħè´§å¸ģ åŁºéĩĳç»Ħç»ĩ
chan ism
å¼º åĮĸ
Ġact ually
æ¥ ļ
l s
Ġl at
åĪ© æ¶¦
åı¯èĥ½ æĢ§
çĹ Ľ
æ» ŀ
for ce
m p
Ġm en
Ġas k
ä¹Ł åľ¨
é©¬ æĸ¯
åĪ¶ è£ģ
ç¡ ¬
Ġar r
æ°ĳä¸» åħļ
Ġc ases
ç³» åĪĹ
ĠO r
éĢĢ åĩº
ĠDe velopment
ct ors
wh ile
èĢĮ åľ¨
åīį æĻ¯
Ġset t
Ġshar p
å¾Ī éļ¾
åĸ ľ
Ġinclud e
ä¸Ģ å®ļ
åĴĮ æĶ¿æ²»
åıĳ èĩª
ĠN A
Ġreal ity
ĠGe or
l ig
å°Ĩ æĺ¯
;& #
Ġ 50
ä½ ³
å¼ Ĺ
Ġcon v
ag n
Ġus ing
Ġatt ention
Ġgu arant
1 8
ç²¾ ç¥ŀ
Ġre in
ĠL ib
Ġcol lect
Ġrelig ious
at in
ä¹Ł æľī
Ġrelative ly
åį ¢
æī İ
èµ ŀ
å·´ é»İ
Ġconcern s
C A
åĢ ¾
åŁ ¹
å² ģ
nb sp
m y
Ġpre p
åĲĦ ç§į
Ġm ob
å½ĵ ä»Ĭ
Ġlar ger
Ġcorpor ate
Ġ 9
çİ° è±¡
æĻ® éģį
Ġunc ertain
Ġad just
Ġind eed
Ġman ufact
Ġstand ards
çĩĥ æĸĻ
çļĦ éĩįè¦ģ
æĢ ª
ĠA n
ĠH e
ific ation
i red
æĶ¿ å®¢
iqu id
éº ¦
Ġto ok
è¡ Ģ
olog ical
Ġcor ruption
Ġeas y
Acc ording
le g
å°± åĥı
åĬł åī§
æŃ£ å¼ı
è¡¥ è´´
å¤±ä¸ļ çİĩ
ce ption
ul ner
è§£åĨ³ æĸ¹æ¡Ī
Ġ ign
çĸ «
è§Ħ å®ļ
åĢ¼ å¾Ĺ
ç¦ı åĪ©
å¯¹ æŃ¤
é© ±
åĨ² åĩ»
Ġkn own
çļĦ åħ³éĶ®
æ³ ¡
åĪĨ è£Ĥ
è´Ł æĭħ
å ©
Ġhe ld
æ± ½
çľŁæŃ£ çļĦ
ä¹Ł æ²¡æľī
Ġcom ing
Ġoff er
pl us
Ġ X
å¤§ éĢī
æĸ¹ åĲĳ
Ġleg is
æĸĹ äºī
è®¾ è®¡
ĠSaud i
ä¸į å¾Ĺ
æģ¶ åĮĸ
Ġc at
Ġm iss
Ġinter vention
Ġstat us
å³° ä¼ļ
Ġm ist
Ġm ere
äºº å£«
Ġex ternal
éĢļ è´§
Ġav ail
çļĦ ä¸ĸçķĮ
on es
Ġp ush
åĩł åįģå¹´
ĠAfric an
ï¼ ħ
Ġf ed
æ¯ į
ä½ĵ åĪ¶
çļĦç ¡
ç«ĭ æ³ķ
ens us
Ġresult s
Ġcompet ition
Ġmove ment
Ġcommit ment
Ġexpl ain
æ¹ ¾
v est
äºĨ è§£
è· Ł
201 1
201 2
Ġrefuge es
ä¸ §
ar ter
un ction
äºĭ åĬ¡
Ġj o
F irst
Ġa ir
Ġan sw
os ing
c alled
è¯ į
Ġwor ds
è§Ĥ å¯Ł
Ġconf idence
åĮĹ çº¦
u se
Ġc ities
è¿ Ī
æĿ ĳ
æľĢ é«ĺ
Ġdec isions
å®½ æĿ¾
Ġfram ew
P P
Ġde li
Ġne ar
Ġrep l
ĠIsrael i
è¿« ä½¿
æ¸ħ æ¥ļ
äººæ°ĳ å¸ģ
Ġunlike ly
Ġb urd
éĢ Ķ
æĬ ĳ
Ġann oun
Ġatt acks
Ġpur ch
æ¶Īè´¹ èĢħ
Ġasse t
è¿Ľ å±ķ
çļĦ ç¾İåĽ½
å¹´ ä¸Ń
Ġ1 5
åħĭ éĩĮ
Ġout come
åħ· ä½ĵ
ex t
æ³¢ åħ°
Ġfav or
a f
çļĦ åİŁåĽł
çļĦç ©
æıĲä¾Ľ äºĨ
y ear
ä¸į å¹¸
åĽŀ æĬ¥
at or
Ġd iv
Ġre b
Ġv ulner
Ġatt ract
éĢłæĪĲ çļĦ
èĪ ¬
Ġquick ly
è¿ Ł
le x
Ġst op
Ġag ricult
æ¬§çĽŁ çļĦ
Ġprodu ce
å± ±
ĠN ational
igr ants
i ated
äºī è®º
19 8
a ult
Ġ rough
èĢĮ è¿Ļ
Ġsur plus
Ġob vious
Ġsu c
Ġcurrent ly
Ġtechnolog ies
Ġc ame
è´Ł è´£
uster ity
M ost
å¾ Ħ
ä¹Ł å°±æĺ¯
è§Ĵ åº¦
Ġrespons ibility
çļĦçł Ķç©¶
Ġsuc ceed
åħ «
éĢ ĥ
Ġfinanc ing
åĬ¿ åĬĽ
ç³Ł ç³ķ
k n
å¼º å¤§çļĦ
éľĢè¦ģ çļĦ
Ġar t
Ġcontin ued
æ³¨ æĦı
Ġcaus ed
Ġcertain ly
å®ı è§Ĥ
Ġworld wide
å·¥ ç¨ĭ
èī °
æĴ Ń
A N
F in
å¥ ĸ
ĠL atin
Ġdef ense
Ġsur v
æĴ Ĵ
å¾Ĺ å¤ļ
un e
ĠBar ack
èĢĮ éĿŀ
å¥ Ĺ
åĪĻ æĺ¯
Ġredu cing
Ġbegin ning
Ġc al
çĶ ·
Ġestabl ished
å¤©çĦ¶ æ°Ķ
Ġn ar
ot s
æĢ Ĵ
æ³ °
ç¬ Ķ
ough t
åį³ å°Ĩ
è¿ľ è¿ľ
ç«ŀ éĢī
Ġmeet ing
æ°¸ è¿ľ
Ġcreat ing
çĬ¹ å¤ª
r ist
Ġre ject
Ġexp ans
Ġcrit ical
he st
æ² «
èģ ļ
Ġme chanism
Ġ201 5
æĬĢ èĥ½
Ġres erves
oh n
ĠA g
Ġun ivers
Ġab ove
åĢº æĿĥ
å² Ĺ
éļľ ç¢į
Ġelse where
æ³¡ æ²«
r ary
Ġ ir
éĺ µ
çĻ »
Ġdanger ous
a ul
r ies
v al
çļĦ éĤ£æł·
æĺ Ĥ
Ġh ous
Ġl ine
çİ ĭ
Ġle t
æıĲ åįĩ
Ġbec oming
éģĵ è·¯
Ġdou bt
Ġm ind
ĠP ol
å¢ŀéķ¿ çļĦ
äºĮ åįģ
æ® ĭ
Ġneg ative
äºº åĴĮ
å®ĺ æĸ¹
Ġcut s
a ction
e ch
è´ ¡
æĸ° éĹ»
èĥ ¡
å¢ŀéķ¿ çİĩ
e es
Ġ ve
Ġf ig
å±Ģ éĿ¢
å·¦ åı³
Ġm illions
ress ed
a pp
s h
çļĦ åĽ½éĻħ
æĢ» æĺ¯
Ġreas ons
Ġproject s
S im
Ġa ge
it able
æĬ ĺ
çī Ī
ac hed
æı ¡
æĴ ¤
æ½ ®
Ġproduct s
ret ary
åįİ çĽĽ
ç¬¦ åĲĪ
åįİçĽĽ é¡¿
b o
æľ «
è¿ ¹
ent ially
åıĳ æĮ¥
ä¸ĭ è·Į
èĭ ¥
èĦ Ĩ
Ġs ent
Ġc le
Ġl iquid
æľī çĿĢ
ä¸į ä½Ĩ
æŃ¦ è£ħ
t ers
å¾Ī å¿«
Ġsovere ign
li er
åıĮ æĸ¹
éº »
è§ ¦
b i
Ġ ä½Ĩ
or n
ä¸ª åĽ½å®¶
å¹¶ æľª
anc ing
Ġbas ic
ä¸¥éĩį çļĦ
ĠSp ain
c rib
åĪ ĳ
ä¸º æŃ¢
æĬķ åħ¥
åĭ ĥ
æ¿Ģ åĬ±
Ġsan ctions
¦ Ĩ
è ¦Ĩ
an e
æ° §
æŃ£ å¸¸
åŃ¦ çĶŁ
ĠGree k
Ġcar bon
è¿ ·
Ġd yn
201 3
éļ Ĳ
çĽ¸ äºĴ
Ġhelp ed
è´¨ éĩı
Ġrecogn ize
çļĦ å¯¹
Ġto ol
ĠI I
åħ± è¯Ĩ
inc ome
Ġd ram
å¹´ ä»¥æĿ¥
èĩ³ åħ³
Ġ -
he m
og ra
æĥ³ è±¡
çľĭ æĿ¥
Ġ201 1
åĽ¢ ç»ĵ
ic i
åĴĮ ç¤¾ä¼ļ
ra in
Ġsu mm
am as
Ġhe av
Ġun f
éľ ĩ
Ġfa ir
æĳ ©
Ġs ix
è´ ¦
æ² ī
Ġ201 2
ĠMexic o
Ġrough ly
å¾ Ĵ
ä¾Ŀ éĿł
d d
Ġm ess
Ġd ays
ut es
Ġfor ced
act er
æĸ°åħ´ å¸Ĥåľº
ar ies
Ġbe low
ac ro
and s
ç« ł
Ġref ere
Ġent er
éĺ¶ çº§
Ġindepend ence
å½ĵ åľ°
éĩĳèŀį å¸Ĥåľº
è´¡ çĮ®
æµ ª
åĨħ çļĦ
æĺ¾ èĳĹ
æļ Ĺ
ĠIntern et
Ġorgan izations
Ġb rought
Ġre d
éĹ Ń
æĢ» ä½ĵ
ä¿¡ å¿ĥ
æļ ĸ
ä¸įåĲĮ çļĦ
in a
re x
Ġb i
el s
ç«ŀäºī åĬĽ
Ġgra du
çļĦçľ Ł
å²Ĺ ä½į
p art
er c
Ġw on
å¤ļ å°ĳ
ä¸ĸçķĮ éĵ¶è¡Į
Ġ19 8
ord in
Ġclear ly
Ġpar liament
é£Ł åĵģ
Ġaltern ative
çļĦç¡ ®
çļĦ é«ĺ
åĴĮ ç¾İåĽ½
è¯ ·
äº§ ä¸ļ
ä»İ æľª
æķĪ åºĶ
éĩįè¦ģ çļĦæĺ¯
Ġbas is
Ġexpans ion
çļĦ èĥ½åĬĽ
âĢ ¦
an n
ut h
ä¹Ł å°Ĩ
ä¹ĭ ä¸Ń
åľŁ åľ°
Ġm oral
åŃ £
op h
Ġevery one
èª ī
Ġl ink
ä¸º ä½ķ
åģľ æ»ŀ
e qu
n ces
é Ń
Ġt end
Ġt yp
is on
æľ¬ åĽ½
ens ions
Ġ200 9
åĢĻéĢī äºº
& #
he l
å°Ķ å¾·
éĿ¢ä¸´ çĿĢ
s y
åľ¨ æľªæĿ¥
èĢĮ ä¸į
ĠG reat
Ġexp ert
201 4
Ġs ource
å® «
Ġsp read
å² ¸
Ġdise ase
æĽ´ å¤§
Ġcre ation
èĦĨ å¼±
Ġa usterity
åĲ ģ
ress ive
æĥħåĨµ ä¸ĭ
Ġperform ance
I N
re p
æľĢ å¤§
Ġint rodu
Ġimp lic
è¯¥ åľ°åĮº
åıĸ åĨ³
éĢĢ ä¼ĳ
olit ical
at ure
Ġth ing
éĩ İ
ad d
çļĦç Ĭ
å« ©
it er
Ġw rit
ä¸Ģ ä½ĵ
æĽ´ å¥½
æı ı
Ġvict ory
åıĸåĨ³ äºİ
Ġre pe
ĠS c
Ġwe aken
Ġun s
Ġren ew
Ġse vere
Ġout put
æ¶Ī æģ¯
Ġcris es
äºĴ èģĶ
é¾ Ħ
å½ĵ éĢī
ĠF in
Ġout side
ä¿¡ çĶ¨
ĠArab ia
æ¬¢ è¿İ
åŃ© åŃĲ
å½» åºķ
en eral
éĵ ģ
æķĻ è®Ń
Ġra ise
èĢĥèĻĳ åĪ°
åģľ æŃ¢
Ġrequi red
p ro
r ats
åħ µ
ĠM ay
çĽŁ åıĭ
Ġcontin ues
Ġpers onal
çĨ Ł
ĠNA TO
S ince
å±Ģ åĬ¿
Ġcompet it
Ġknow ledge
Ġspec ial
ĠFed eral
åĳ¼ åĲģ
Ġess ential
åı ¥
æİ ī
Ġthere by
ç¬¬ ä¸Ģ
Ġel imin
Ġcho ice
Al though
çļĦç ĭ
ä¸įä»ħ ä»ħ
éĺ¶ æ®µ
ogra ph
é ī
Ġm al
lo c
æ± ¡
200 7
ç¦ģ æŃ¢
éī ´
e conomic
o ff
Ġc e
Ġde g
æ³ķ éĻ¢
å·´ å«©
Ġbuild ing
Ġrad ical
çļĦ æľºä¼ļ
ot t
Ġde t
ĠP e
è¿ĺ è¦ģ
æİ¥ è¿ĳ
è£ ķ
Ġtw ent
åĲ¦ åĪĻ
Ġpos itive
é»İ å·´å«©
æµģåĬ¨ æĢ§
Ġprosper ity
Ġframew ork
o ber
æĸ¹ éĴĪ
åıĺ éĿ©
Ġ201 3
è§ģ çļĦ
Ġpers on
Ġdist rib
å°¤åħ¶ æĺ¯
çļĦç ´
çĽ´ åĪ°
Ġadd itional
Ġthough t
Ġcomm od
å¯¹ åħ¶
è¦ģ ä¹Ī
us ed
åĲİ èĢħ
åı¯ä»¥ åľ¨
æħ İ
åĵĪ é©¬æĸ¯
Ġprop osed
Ġfam ily
Ġstimul us
N o
o f
è° ĭ
èį ī
éģŃ åĪ°
Ġfed eral
è¿Ļ ç±»
åĪ© æ¯Ķäºļ
ort ion
os p
Ġag reed
é¢Ĩ åľŁ
é£ ŀ
é¢Ħ è®¡
ç»ĵæŀĦ æĢ§
Ġsimp le
c er
â Ĥ
ap er
Ġcomp any
Ġcent er
èĴ Ļ
Ġindepend ent
at ically
è´ µ
æĭ ĸ
Ġv ision
éĥ½ åľ¨
Ġexist ing
ä¸ ģ
it es
è®¡ ç®Ĺ
æīĢæľī è¿ĻäºĽ
Ġarg ue
å¤ĸäº¤ æĶ¿çŃĸ
å¡ŀ å°Ķ
éĢı æĺİ
Ġavail able
r ust
è ¸
è Ĺ
ä¸Ģ æĹ¦
und red
Ġass oc
Ġinstit utional
çĬ¶ æĢģ
Ġallow ed
å¿½ è§Ĩ
âĤ ¬
on y
ll ing
æľīæķĪ çļĦ
èº« ä»½
Ġfact ors
ç±»ä¼¼ çļĦ
Ġgain s
ean while
Ġansw er
E C
il t
Ġacc ording
Ġsc ience
Ġsc ale
è®¸å¤ļ äºº
Ġindividual s
Ġrapid ly
æ°§ åĮĸ
Ġg reen
æī °
Ġfor ward
åĪĨ ä¹ĭä¸Ģ
Ġ1 8
ĠEurope ans
19 7
Ġintern al
Ġtrans form
ient s
o x
Ġre con
ä¹ Ŀ
il i
å» ·
çĭ¬ è£ģ
Ġmin or
Ġdam age
er b
pt ember
ä¿¡ ä»»
Ġgen eration
onal d
æĽ¿ ä»£
rex it
o ot
im ent
åī ©
ash ing
Ġsub ject
ç§° ä¸º
ä¼° è®¡
ä¼¤ å®³
åı ¬
åħĭ æŀĹ
æ£ Ģ
æĳĨ èĦ±
éĢļè´§ èĨ¨èĥĢ
r ight
é Ĩ
ä½Ĩ å¦Ĥæŀľ
è¢« è¿«
ä¸ĸçķĮ ä¸Ĭ
Ġcons erv
åįı è°ĥ
æ» ĭ
åįķ ä¸Ģ
æĶ» åĩ»
u nt
åĥ ļ
ĠRepublic an
æ±½ è½¦
p ar
om in
il ities
åº ŀ
æĽ´ å¥½çļĦ
Ġsociet ies
Ġincent ives
Ġdyn am
M eanwhile
åľ° äº§
èĩª æĪĳ
èĲ §
Ġ201 4
ä¸Ńå¤® éĵ¶è¡Į
m aking
Ġm ot
æľī éĻĲ
ä¸» å¯¼
é¡ ¶
Ġall ies
Ġ200 7
éŁ ³
ĠMon etary
Ġadvant age
çļĦ åŁºç¡Ģ
åŃ ¤
un n
åħħ æ»¡
Ġful ly
æľī ä¸Ģ
ä½Ĩ åį´
æĻ® éĢļ
æĮĩ è´£
Ġvir t
è¿Ļ é¡¹
ä»¥ ä¸Ĭ
du ct
åŃ¦ æł¡
Ġ19 80
ph as
ll ed
æ¿Ģ è¿Ľ
éĻ¤ éĿŀ
Ġquest ions
Ġeffective ly
u k
Ġh arm
Ġtr ust
å¼º çĥĪ
Ġprov ided
ĠAs s
en cies
Ġp ain
å¤§ åĽ½
çº µ
æĪĳä»¬ å¿ħé¡»
ä¸ī ä¸ª
Ġext ra
ç²¾ èĭ±
æī¹ åĩĨ
Ġnet w
èĲ§ æĿ¡
é¦ĸ çĽ¸
Ġide as
æģĲæĢĸ ä¸»ä¹ī
lus ion
Ġlegit im
æĺ¯ å¯¹
Ġ19 7
å¡ ĳ
ä¸ĩ äº¿ç¾İåħĥ
åĩºçİ° äºĨ
Ġbusiness es
Ġaff ord
Ġevent ually
å¹´è½» äºº
ä¸įå¹¸ çļĦæĺ¯
ib ly
Ġexp lo
çľŁ çļĦ
ell ig
æĹ¨ åľ¨
m ers
åľ¨ åħ¶
Ġle ave
å°± èĥ½
Ġimp oss
ĠD ep
Ġfund ing
Ġinst ead
zer o
Se cond
å¾ ª
åľ° çĲĥ
ĠSe ptember
Ġdoll ars
Ġtal ks
Ġmanage ment
Ġhousehold s
N A
a ff
Ġc over
éĩį ç»Ħ
Ġcont ain
Ġoffic e
è¿ĩç¨ĭ ä¸Ń
æ ¤
è¶ £
Ġlo ans
Ġstrong er
Ġine v
Ġt rou
Ġm acro
è¡ Ĺ
ĠS ec
æļ Ĥ
éĩĩ çĶ¨
èŃ¦ åĳĬ
Ġprec ise
1 7
f ortunately
æ ¾
er ate
es pite
çĶ ³
ä¹Ł åı¯ä»¥
Ġor ig
æį ķ
çĤ ¸
æİ¨ è¿Ľ
éĿ Ĵ
em ic
Ġsav ings
Ġ 0
ä»¥ åīį
ĠS w
ust ain
éĤ£ éĩĮ
Ġem p
ĠInd ian
å¤§ å¤§
åĪĨ æŃ§
Ġimp er
Ġa head
å·® å¼Ĥ
Ġaim ed
Ġw orth
ol id
æīĢ éĿ¢ä¸´
çİ° æľī
å®ī åĢį
iet y
æľĢè¿ĳ çļĦ
æ°ĳæĹı ä¸»ä¹ī
ĠRe v
äºĴèģĶ ç½ĳ
r ied
Ġb ub
æĥ §
éģ µ
èĤ¡ ç¥¨
Ġsol utions
Un fortunately
Ġloss es
æĢİ æł·
I S
g ence
Ġth ous
Ġsh ared
ç½ ļ
Ġtrans ition
vention al
Ġclaim s
S E
Ġv ast
Ġsupp osed
Ġprov iding
Ġterror ism
Ġflow s
è Ķ
Ġm ark
Ġh undred
è® ¢
å¦ ¥
ĠF or
Ġro ad
Ġtechnolog ical
åı³ ç¿¼
Ġdiplom atic
Ġdeli ver
è¿ĻäºĽ åĽ½å®¶
çº¦ æĿŁ
Ġem phas
Ġappe ars
ĠLe ban
c are
Ġw ages
Ġm ort
éĢ Ĩ
åıĳ åĬ¨
åıĳ è¡¨
ĠJ ew
Ġ2 5
ater ial
Ġfac ing
éģŃ åıĹ
æ°ĳç²¹ ä¸»ä¹ī
o ks
s c
re w
Ġcons ensus
è´¨ çĸĳ
ãĢĭ ï¼Ī
Ġinsur ance
Ġhous ing
Ġe arn
åī ¯
æľĢ ä¸º
el lect
Ġbu y
Ġeng age
Ġwide ly
çļĦ æĹ¶éĹ´
on ents
as k
æĦ ¤
çĶŁ åŃĺ
çļĦä¸Ģ éĥ¨åĪĨ
Ġredu ced
å¯» æī¾
Ġcru cial
æĺ¯ ä¸Ģ
å¢ŀ å¼º
éĽ Ħ
Ġeng ine
s ive
® é£Ł
Ġd raw
om an
çº ł
è½¬ åĲĳ
Ġcult ure
Ġbord ers
re st
Ġd ict
æĭ ľ
å¹¶ åľ¨
Ġch ance
Ġcont ract
Ġass ess
éŁ ¦
æ¦Ĥ å¿µ
Ġn or
å¸¦æĿ¥ äºĨ
Ġsee k
èį¯ çī©
Ġthink ing
Ġs al
æī Ń
åĩº æĿ¥
éĤ£ å°±æĺ¯
Ġeconomic s
åĳ¨ æľŁ
Ġnorm al
ĠRes erve
çļĦ æĮĳæĪĺ
çļĦ è¡Įä¸º
çļĦ è§ĤçĤ¹
åħ ĳ
ĠA ust
æľª èĥ½
ä¸¾ è¡Į
éĽĨ ä½ĵ
1 4
O ther
Ġse ctors
å¾Ĺ ä»¥
ĠM ar
åħĭ å°Ķ
Ġbo om
Ġserv ice
5 00
Ġcom mer
è¯´ æ³ķ
äºĮ æ°§åĮĸ
Ġpoint s
éĺ» ç¢į
ÂłÂł ÂłÂł
C ons
èĢĮ æĺĵ
Ġex ec
Ġare a
con t
ĠG lobal
Ġover all
d o
å¼Ģ æĶ¯
éĽ ħ
int on
Ġseem ed
æ³¢ åĬ¨
Ġauthor ity
Ġconst ra
èĸ ª
Ġh op
åľ¨ æ¬§æ´²
Ġst able
å¤ļ æł·
æ¯Ķ è¾ĥ
äºī è®®
Ġb ro
Ġg ap
ver t
Ġincreas es
ä¸ĢçĽ´ åľ¨
Ġfollow ed
Ġindustr ies
æ·· ä¹±
Like wise
Sim il
Ġliquid ity
Ġimposs ible
w are
en g
ä¸į ç¡®å®ļ
çĽ ¾
æĿ¥ æºĲ
Ġwho le
Ġqu ality
è¨Ģ è®º
Ġrest ric
Ġnat ure
Ġburd en
è¯ »
æĬ ¼
å®ŀ è¡Į
æıĲ æĮ¯
Ġcrit ic
ce ler
Ġde ter
éķ ĩ
ĠM ed
el t
ä½İ äºİ
ç¨ĭ åºı
ä¾Ľ ç»Ļ
Ġro b
çĸĳ éĹ®
Ġlim it
åıĮ è¾¹
Ġchar acter
åı Ľ
Ġf ix
å°Ĩ åħ¶
æı Ń
æł¼ åħ°
Ġconsum er
Ġph ys
Ġdirect ly
Ġsuggest s
çŃ¾ ç½²
æľīåĪ© äºİ
ä¸įå¾Ĺ ä¸į
c her
Ġre ached
um b
Ġreg ulation
Ġpolitical ly
äºĮ æĪĺ
çĽ¸å½ĵ äºİ
it ud
ç» ¿
Ġl ist
åĨ Ĵ
æĢ§ åĴĮ
å±Ĥ éĿ¢
æĿ Ĩ
Ġcou p
ä¸Ĭ æ¶¨
å¼º å¤§
åıĸ ä»£
Ġcons ist
èį ·
åĽ¢ ä½ĵ
Ġevent s
go ing
OR K
ĠSec retary
Ġs ound
pp ing
ish ing
èĻ ļ
Ġ4 0
Ġer a
Ġstud y
æī ®
ä¸İ åħ¶
éĥ¨ éĺŁ
åıĸ æ¶Ī
è¡¡ éĩı
ĠY ORK
èĩªèº« çļĦ
æŃ£ç¡® çļĦ
Ġencoura ge
å¹´ åĲİ
æĪĲ å°±
æİ ¢
Ġpart s
æ¸ ¡
Ġpl ans
æ¶Ī éĻ¤
èĩªçĶ± è´¸æĺĵ
Ġgo als
ĠComm un
abil ities
äºĮæ°§åĮĸ ç¢³
Ġn ation
å¯¹ æīĭ
Ġcon nect
ĠG az
ful ly
èĪ ŀ
Ġbord er
p r
Ġs ides
Ġm aterial
åĩ Ģ
ç¾İåĽ½ åľ¨
Ġhe art
çľ ģ
ä¿Ŀ éļľ
è®© æĪĳä»¬
Ġcommun ities
re hen
çļĦ æĬķèµĦ
Ġc ross
ar ity
Ġd ivid
æĺ¯ ä¸į
as ion
èĢ Ĺ
è¾¹ å¢ĥ
Ġur ban
D espite
re l
å° Ħ
Ġpol l
å¾Ĺ åĪ°äºĨ
éĩį å»º
Ġint ellect
é¦ Ļ
Ġthrough out
Ġelect ed
Ġdire ction
Ġmat ters
Ġf ast
se ctor
çĦ ¦
åıĺ æļĸ
åŃ¦ ä¹ł
éĺ¿ æł¹
èİ·å¾Ĺ äºĨ
Ġprim ary
Ġf ri
æ² ³
å¤ļ è¾¹
ĠH amas
Ġconf ront
å¢ŀåĬł äºĨ
éļı åĲİ
åı¦ å¤ĸ
Ġult imately
Ġactiv ities
Fin ally
Ġw ants
èĢ ¶
åıĹ çĽĬ
Ġwar ming
åıĳçĶŁ çļĦ
æĳ ĩ
éĢĤ åºĶ
æľī æĹ¶
ul ated
ä¸ĸçķĮ çļĦ
Ġdes crib
ä¼Ĭæĸ¯åħ° æķĻ
Ġconsum ers
Ġturn ed
Ġsignificant ly
Ġrespons ible
Ġmin im
acc ount
éĺ¿æł¹ å»·
w ar
åĩł ä¸ª
ä¸¥ æł¼
éĢłæĪĲ äºĨ
Ġdiffere nce
Ġequ ity
Ġocc up
çļĦ åıį
ï¼ī ãĢģ
Ġtr ying
c le
çļĦ åīį
ac es
Ġy ield
å°Ķ åħ°
æĮĩ æłĩ
Ġagree ments
Ġappe ar
Ġdest ro
çŃĶ æ¡Ī
Ġc ity
Ġb ilateral
se c
åĮħ å®¹
æĮĩ æķ°
çľŁ å®ŀ
æĬ¥ éģĵ
æ¤ į
Ġj our
Ġcomm itted
Ġpo ore
å¯Į è£ķ
åĲĮæł· çļĦ
Ġcompet itive
åł ª
éĤ» åĽ½
åľ¨ ä¸Ģä¸ª
ä¼ Ł
åº Ł
ç¾İ æ´²
æĽ ²
æĺİ çĻ½
Ġsc en
min bi
åĩ¯ æģ©
Ġw at
é¢ ĩ
oc ks
Ġreg ions
air s
Ġtreat ment
Ġneighb ors
Ġargu ment
çĽĪ ä½Ļ
å¸Ŀ åĽ½
Ġs ize
åį ĸ
Ġso ft
å½±åĵį åĬĽ
re ct
åº §
æĦı è¯ĨåĪ°
çĶ± æŃ¤
åĨħ å®¹
åĽ° å¢ĥ
å·® è·Ŀ
ä¹Ĳ è§Ĥ
éī´ äºİ
çļĦ è´¢æĶ¿
Ġf lo
çļĦç ¼
200 5
æĭħ ä»»
ç§ĳ æĬĢ
çĽĳ çĿ£
æĪ¿ åľ°äº§
ĠPalestin ians
ä½ Ľ
Ġwith d
åŁº åľ°
éĩĳèŀį æľºæŀĦ
æĶ¾ ç¼ĵ
ĠPar is
Ġimmed iate
Ġsumm it
T r
Ġm id
ust om
èĭ Ĺ
Th ough
Ġexper ien
Ġunderstand ing
Ġcomple te
åħĭæŀĹ é¡¿
åı¯ éĿł
au gh
åı¸ æ³ķ
çł´ äº§
land s
hold ers
ĠSyr ian
Ġskill s
Ġmanufact uring
P er
ç ¯
Ġob lig
Ġpur p
Ġarg ued
æ¸© åĴĮ
Ġtarget s
ici ency
æī® æ¼Ķ
nd er
ä¸į åºĶè¯¥
åĬĽ äºİ
oc ial
Ġy our
åĿ Ľ
ove mber
æ¢ ¦
cent ury
l ight
Ġt ro
Ġst e
è¿ĩ äºİ
Ġv ital
anc ial
iqu e
Ġrefere nd
Ġlegitim acy
Ġn ame
ant ic
end er
å·¦ ç¿¼
Ġb ail
è¿Ļ æ¬¡
å¿ į
èĢħ ä»¬
çĲĨ ä¼ļ
åı¯ä»¥ éĢļè¿ĩ
ĠW h
åıįå¯¹ æ´¾
ĠKore an
Ġsuff icient
l if
Ġs ources
Ġf re
åħ¶ å®ĥ
20 00
ĠE conomic
Ġen orm
éĩı åĮĸ
Ġtr ig
åįĩ åĢ¼
Ġdemand s
Ġsee king
èĥĮ æĻ¯
Ġstep s
çļĦç´ §
n ic
åľ¨ æŃ¤
éĥ½ æľī
çĦ¶ åĲİ
Ġqu ant
On ly
ç¼º å°ĳ
Ġsa ve
Ġsaf e
C on
N ot
her n
if f
Ġint ellig
æĦı æĦ¿
au c
ä¼Ĺ å¤ļ
Ġprov ides
Ġlaw s
çĪ± å°Ķåħ°
åĢ¾ åĲĳ
er ia
Ġcont rary
Ġpr ime
çł Ķ
ang u
Ġeas ily
åıĸå¾Ĺ äºĨ
è¾© è®º
m en
o z
å® ¾
æĪ ı
å¤§ éĻĨ
ill ing
éĩį çĤ¹
æĪĳä»¬ éľĢè¦ģ
ĠN ovember
Ġact ions
Ġredu ction
æĬĹ è®®
ĠCl inton
Ã ¡
Ľ çĽ¾
ra cies
åħ¶ æ¬¡
åĬł éĢŁ
ç®¡ åĪ¶
ĠJ ohn
Ġimport ance
Ġdef ault
ä»Ĭå¤© çļĦ
Ġemb ra
å±ŀ äºİ
éĢĬ å°¼
p ay
Ġst ory
æĬ ±
åľ° ç¼ĺ
åıĳ å¸ĥ
æĪĳ çļĦ
çļĦç ģ
å®ī æİĴ
å½¢ æĢģ
ys is
Ġren minbi
Ġpurs ue
Ġpromot e
Ġintellect ual
ä¸ ĥ
çļ ®
åħ Ħ
Ġf aster
Ġcon duct
æĪĲ æŀľ
å®ļ ä¹ī
æĮģ æľī
éľ į
åı¯èĥ½ æĺ¯
æıĲ åĩºäºĨ
å¯¼èĩ´ äºĨ
æģĲ æĥ§
Ġexcess ive
çļĦ åĲĮæĹ¶
æīĢ å¸¦æĿ¥çļĦ
èĢħ åĴĮ
Ġen h
å¾· éĩĮ
èĩ´ åĬĽäºİ
å®£ ç§°
æ¯«æĹł çĸĳéĹ®
Ġscient ific
ç ŀ
Ġf ront
st ate
ate ver
ä»ĸ åľ¨
Ġse par
çĲĨ å¿µ
Ġ20 00
å®ĺ åĥļ
æĦŁ è§ī
Ġstand ard
Ġshow s
Ġsec ure
Ġvulner able
le ments
Ġre ve
id ency
ĠS en
çļĦç ²
Ġ1 2
ĠN et
Ġapp rec
ç»Ļ äºĪ
é ¸
Ġc ore
ä¿ Ĺ
çĽ¸ åĲĮ
Ġany thing
Ġwar s
Ġreflect s
Ġorig in
ł æĿĨ
çļĦ åı¯èĥ½æĢ§
Ġm inist
æĿ °
æĹ¶ åĪ»
ç©º éĹ´
Americ a
M B
i ra
ed ly
åĽ½ æľī
ent h
å¼ Ł
åİ Ĥ
Th us
æĺ¾ èĢĮæĺĵ
æ» ĳ
Ġac celer
è¶³ ä»¥
åıĳçĶŁ äºĨ
Ġext ent
por ary
Ġsubstant ial
r ich
Ġl ending
et y
é¢ ĳ
çī ²
Ġim ag
Ġtr y
ord er
Ġregul atory
Ġsav ing
ç¤¾ åĮº
Ġcirc um
e v
l ar
Ġt akes
ur s
çº ¢
ä¹ĭ ä¸ĭ
ĠP l
Ġcomp ar
å¾Ī å°ĳ
ç»´ äºļ
åĳĬ è¯ī
ç±»ä¼¼ åľ°
Ġmean ing
åģĩ è®¾
å¦¥ åįı
ĠC ol
æľº åĻ¨
Ġdef e
Ġgo ing
è´« ç©·
Ġstud ents
S h
è Ľ
ä¸į ä¹ħ
å± Ĭ
å± ł
éĺ ³
çĲĨ æĥ³
ff icient
Ġpat tern
Ġhistor ical
Ġproper ty
Ġlat est
ustain able
1 6
R uss
Ġ 60
en n
æĿ łæĿĨ
Ġne ither
åħ¨ éĥ¨
Ġeff icient
uc k
lus ive
i j
ä»Ģ åı¶
é» Ħ
Ġcontin ent
è®° å½ķ
Ġfall ing
Ġterror ist
æ±¡ æŁĵ
Ġ zero
çļĦ åıĳå±ķ
çļĦ æĶ¹éĿ©
Ġp ort
Ġl og
æĹ ħ
åĬł æ²Ļ
è¿ĺ æ²¡æľī
Ġop in
Ġcall s
Ġthreat s
Europe an
æ»ĭ çĹħ
Ġ èĢĮ
çļĦ æ°ĳä¸»
it a
Ġf rag
æ³ķ æ¡Ī
ac ific
æ¬§æ´² äºº
æį į
æĹ¥ ç¨ĭ
èĩ³ äºİ
æĢĿ ç»´
Ġbel ief
Ġmult ilateral
åı¯æĮģç»Ń åıĳå±ķ
Ġcompetit iveness
n al
Ġt ell
çļĦ è®¡åĪĴ
Ġo ption
å¹ ķ
âĢĿ âĢĶâĢĶ
å°± å¿ħé¡»
op s
ä¸ŃåĽ½ åĴĮ
å®ī çĲĨä¼ļ
Ġprodu ced
Ġsomet imes
çļĦçĭ ¬
éĨ Ĵ
Ġf ield
Ġd ig
ce mber
Ġhe re
éĥ½ ä¸į
Ġ200 5
çĥ Ł
æī© æķ£
ĠCh rist
1 3
Ġp aid
ä¼ļ åľ¨
è¦ģ æĥ³
ĠS unn
os es
é¡ º
éĩı çļĦ
ä»·åĢ¼ è§Ĥ
èĹ ı
Ġwithd raw
æįį åį«
æīĢ æľª
and on
æīį æĺ¯
Ġperm an
2 1
ä¹ Ķ
éĢ ģ
am b
reat y
Ġtr uth
ä¿¡ è´·
åħļ æ´¾
Ġass istance
ĠY ork
èµ° åĲĳ
èī¾ æ»ĭçĹħ
Simil arly
Ġthe ory
ä» ¿
us es
é«ĺ è¾¾
Ġcomp ared
åį±æľº çļĦ
Ġadv oc
çĶµ è§Ĩ
Ġfocus ed
ĠDe cember
è¿Ŀ çº¦
Ġprospect s
Ġcommer cial
Ġscen ar
åħĭ æľį
è®® éĻ¢
å» ī
Ġthere fore
åĥ µ
Ġac qu
åıĳè¾¾ ç»ıæµİä½ĵ
Ġmodel s
Ġcult ural
åľ¨ è¿Ļä¸ª
Ġst ructure
è¾ ŀ
Ġdis pl
Ġmar gin
æİĮ æı¡
Ġwee k
C h
Ġs ens
ä¸ĭ åİ»
æĢĿ èĢĥ
Ġsubsid ies
Ġthous ands
c ast
g ency
æī ¬
å¯¹ ç¾İåĽ½
å¯¹ æĬĹ
éĻ Ħ
iz es
æĶ¿åºľ åĴĮ
å±ķ å¼Ģ
Ġapp arent
Ġbo ok
Ġprincip les
Ġcoal ition
ĠLeban on
Ġreferend um
éĢĬå°¼ æ´¾
Ġm ut
çī Į
çĸ ²
è®¿ éĹ®
æĦıè¯Ĩ å½¢æĢģ
Per haps
åľ°ç¼ĺ æĶ¿æ²»
Ġm and
è¿Ļ ä¸¤
æĥ ł
row th
Ġach ieved
åĨ· æĪĺ
Ġadop ted
Ġmere ly
F rom
Ġm er
ur m
äºĭ ä¼ļ
è° ·
å°Ķ å¤ļ
æįŁ å®³
Ġcredit ors
æ²Ļçī¹ éĺ¿æĭīä¼¯
D S
e b
åħ¨ åĽ½
æĺİ æĻº
Ġbec omes
ĠK h
Ġexpect ations
éģŃ éģĩ
ä»Ģåı¶ æ´¾
il es
Ġis ol
Ġst abil
æĭ ¯
ä¹ĭ å¤Ħ
è¾ ĳ
Ġ1 1
Ġab andon
åħ· å¤ĩ
Ġconc lud
Ġdrug s
Ġprecise ly
E R
è®¤ è¯Ĩ
è¡¨ è¾¾
ond on
æ¯« ä¸į
rehen sive
p read
Ġ åľ¨
ï¼ į
Ġl ose
è¯ ±
è¡Į éķ¿
çī¹ å¾ģ
ĠK e
éĵ¶è¡Į çļĦ
Ġpres idency
æĬµ åĪ¶
è´¦ æĪ·
J apan
Ġ âĤ¬
è¿Ļ ä¹Ī
çĽ ĺ
nt y
Ġsh own
Ġpart ly
Ġrem ark
æ·± åĪ»
Ġprof ession
ides pread
Ġprincip le
æĭ¯ æķĳ
re et
çļĦ æł¸å¿ĥ
ä» °
ä»¥ åĲİ
å¹´ éĹ´
ĠM al
ä¸ĸçķĮ ç»ıæµİ
æ® ĸ
Ġsur ve
ec ause
Ġprof its
Ġlim its
Ġspec ific
Ġbig gest
Ġear lier
è¯ ¾
æ² ¿
æĬ Ľ
Ġcomp rom
æ²¹ ä»·
Ġfac es
Ġvict im
G erm
O ver
p olicy
Ġb ound
ĠT reaty
ç»Ł è®¡
æĮī çħ§
Ġenter pris
or ks
Ġb att
ä¸Ģ ä»£
ig nty
ä¸» å¼ł
å¤ĸ æ±ĩ
è¯´ æĺİ
ĠH ouse
åįł é¢Ĩ
åİĨåı² ä¸Ĭ
Ġser ve
çī¹åĪ«æĺ¯ åľ¨
åĸľ æ¬¢
çļĦ å¨ģèĥģ
ä» ĭ
Ġf lex
å° Ŀ
ĠA t
ort hern
th ird
æīĢ éľĢè¦ģçļĦ
Ġcont ext
Ġfin ally
æŀĦ å»º
æ¡ ĳ
Ġchang ed
èĳĹ åĲį
èį· åħ°
C C
º çī²
Ġ "
çļĦ ä½ľçĶ¨
Ġs ou
Ġre le
Ġg ame
çī ºçī²
ç»ĵ è®º
èĮ ¨
æıı è¿°
ĠRev olution
H is
c om
u ct
è¿Ļ å°±æĺ¯
ul ate
å®ŀ éªĮ
æıĲ åĩºçļĦ
åıĹ å®³
Wh y
ä¸ĵ ä¸ļ
çĶŁæ´» åľ¨
çħ ¤
Ġaccount s
Ġhim self
Ġtreat y
Ġspe ech
ĠEn g
c o
ä¸ °
çļĦ éķ¿æľŁ
ä¸į åıĹ
æľī ä¸Ģä¸ª
å¾ ¡
Ġst agn
Ġwh om
ie ving
åĨħ æĪĺ
èĥ ŀ
çľĭ èµ·æĿ¥
Ġelect ric
èĪ ª
Ġmembers hip
é¾ Ļ
åıįæĺł äºĨ
Ġvar ious
åĲ¯ åĬ¨
Ġtool s
Ã §
Ġ round
al ed
Ġst em
ä½Ĩ å®ĥ
am es
Ġim bal
åĬł ä¸Ĭ
çĶ¨ æĿ¥
éĹ®é¢ĺ æĺ¯
å¿ĥ çĲĨ
Ġper cent
æ¡ ¥
åįł æį®
å®£ ä¼ł
ĠGeor ge
Ġcommod ity
Ġ vers
çļĦ æľªæĿ¥
çļĦ å·¥ä½ľ
æĺ¯ ä¸Ģç§į
çĶ ¸
æĿ¥ çľĭ
Ġen j
ĠB rexit
ĠG u
Ġdis m
Ġsp end
Ġtrad ing
äº§çĶŁ çļĦ
å±ł æĿĢ
Ġde ad
ul l
æ³ķ åºŃ
åĨħ çĳŀ
é¢Ħ éĺ²
èĦ ļ
å§Ķ åĨħçĳŀ
åĨľ æ°ĳ
Ġuncertain ty
Ġmacro economic
é¦Ļ æ¸¯
Ġenorm ous
åħĦ å¼Ł
å§ĶåĨħçĳŀ æĭī
ħ çĶ¸
Ġw idespread
è¯ Ĭ
å®ŀ ä½ĵ
éļ Ķ
è¯´ æľį
åĽłä¸º å®ĥ
itt ee
Ġdef lation
ĠLib ya
Ġannoun ced
Cons ider
I V
ir ing
å½ ¼
çŃ ĳ
Ġpolic e
oss il
Ġaut om
Ġstart ed
å¥ĩ æĢª
Ġhapp en
Ġeth nic
æĬĳ åĪ¶
å®ıè§Ĥ ç»ıæµİ
åı¥ è¯Ŀ
ĠGaz a
U S
Ġp an
å°± åı¯ä»¥
Ġen able
åīį çļĦ
æ® Ĭ
Ġtra ining
ä¹ł è¿ĳ
Ġstrugg le
åħ ¹
Ġf unction
åĬ £
ĠG eneral
ç¨İ çİĩ
ä¼ł æŁĵ
ä¼ł æĴŃ
gan ization
èĲ¨ å¾·
TO N
åĪ¶éĢł ä¸ļ
Ġsaf ety
ç»ıåİĨ äºĨ
å°Ĭ éĩį
ä¹łè¿ĳ å¹³
B oth
i able
m ar
an i
ic ro
Ġl ot
Ġv acc
Ġab road
ĠJ an
ĠJ une
çļĦäºº åı£
å½¢ åĬ¿
Ġposs ibility
ç¼ĵ æħ¢
Ġblo ck
Ġarr ange
åĩ¯æģ© æĸ¯
if ying
å®ļ çļĦ
åħ¥ ä¾µ
ä¼Ĭæĸ¯åħ° åĽ½
yn es
åŃ¤ ç«ĭ
in ary
æľī äºĨ
ub l
Ġconf ere
çĻ Į
Ġpers ist
Ġimm igration
ä¿ĥ ä½¿
Ġge op
æĦ¤ æĢĴ
a it
g ain
u gh
er ke
Ġw age
Ġh our
åľ¨ åħ¨çĲĥ
æĺ¯ ä¸ª
ä½ĵ çİ°
æŀģ å¤§
æİ¨ ç¿»
åħ¬åı¸ çļĦ
Ġhapp ened
åį±éĻ© çļĦ
Ġdise ases
Ġmess age
ä¸Ģä½ĵ åĮĸ
æĽ´ æľī
Ġinc omes
Ġtr ied
Ġqu arter
åĩł å¹´
æīĢæľī çļĦ
Ġresult ing
fere nce
Ġins ist
Ġestim ated
èĩ³åħ³ éĩįè¦ģ
p ri
u ild
v ail
© åĽº
åľ¨ ç»ıæµİ
å· ©åĽº
åĿ Ĳ
èµ· åĪ°
Ġcar ry
Ġcaus es
Ġlaun ched
. )
Ġf ell
åĬ ²
æ¸ ´
itt ing
Ġconc ent
èµĦæľ¬ ä¸»ä¹ī
Ġbu ilt
åĨľ æĿĳ
æģ° æģ°
è·¨ åĽ½
kn ow
çļĦçĬ ¶
ä½Ĩ æĪĳä»¬
ac hes
åĬ¨ åĬĽ
ä½İ çļĦ
Ġar my
ç©¶ ç«Ł
Ġdiffere nces
ĠEast ern
Ġsovere ignty
it ig
ra y
Ġwor ry
æĥ ©
ĠG o
ĠL ondon
Ġman aged
Ġprom ise
Ġfight ing
ĠAr gent
åĪļ åĪļ
Ġiniti ative
æķħ äºĭ
ç»¿ èī²
A S
g n
ä¸Ģ èĪ¬
ä¸Ń äº§
Ġr ange
ĠJ u
Ġpres ent
Ġbroad er
æ¾ ³
å°Ŀ è¯ķ
çº ¸
æīĢ éľĢ
çī Ľ
um an
Ġpre m
æ¨¡ åŀĭ
å°½ç®¡ å¦ĤæŃ¤
Ġbank ers
Ġoper ations
Ġbar ri
Ġcandid ates
åŁ¹ è®Ń
re ced
Ġb omb
ar ia
åĽ½ éĺ²
il ies
ä¸Ģ èµ·
èĥ½ åĲ¦
æĸ¯ ç§ĳ
ç« Ń
It s
æĿ¡ æ¬¾
Ġsupport ed
æĳ §
het or
çĸ« èĭĹ
Ġhundred s
h ib
çļĦ éĩĳèŀį
Ġc ustom
Ġg old
æīĢ åľ¨
æĽ´ é«ĺçļĦ
Ġun able
ĠT rade
Ġ200 1
ç§ĳ åŃ¦å®¶
Ġmeas ure
åĲĪæ³ķ æĢ§
Ġcircum st
T w
ä¼ Ĳ
ä¹ĭ è·¯
ther n
ä¹ī åĬ¡
è®® åĳĺ
Ġsp ace
åĽŀ å½Ĵ
å·¨ é¢Ŀ
ĠRepublic ans
Ġrece ived
Ġadop t
Ġvol at
Ġcollect ive
Ġs en
ut ing
èµ ĭ
å¯¹ è¯Ŀ
us ion
æĦ Ī
æĥħ æĬ¥
åĲĦ åľ°
Ġfir m
çĬ¯ ç½ª
Ġabs ence
Ġopt im
IN G
i h
r ative
Ġt ask
Ġc ash
Ġb ase
åĽ½ å¤ĸ
æĪ ª
æĪ Ī
åĴĮ éĩĳèŀį
æĿ Ĳ
è¿Ļ å°Ĩ
äºĨ è¿Ļä¸Ģ
Ġcommun ic
Ġsol id
lev ant
Ġreven ues
reced ented
C E
Ã ¥
é ±
Ġw ind
Ġb ill
Ġf ossil
Ġr hetor
Ġwe lf
é«ĺ äºİ
çĽ¸ ä¼¼
æķ´ ä½ĵ
Ġappro pri
æ£® æŀĹ
æĵį çºµ
ĠOr ganization
al ing
Ġpro ve
ĠC an
Ġwor st
Ġ19 70
Ġsp ent
Ġsp ir
çĪ ¶
Ġfac ilit
æĹ© æľŁ
Ġhand s
æ½ľ åĬĽ
sy ch
Ġopin ion
L ON
f ect
or b
æĿ ľ
åį ·
æĽ´ é«ĺ
Ġ1 00
Ġad ap
æī¿ åıĹ
å¼ķ åħ¥
çĭ Ĥ
ä¿Ħç½Ĺæĸ¯ çļĦ
Ġdemoc racies
çº³ ç¨İ
è¡¨çİ° åĩº
è¯¸ å¤ļ
éĩıåĮĸ å®½æĿ¾
Ġintellig ence
Ġwelf are
ch ing
Ġle aving
ĠB e
ĠB ro
Ġdis s
æŀģ ä¸º
200 1
200 6
Ġte am
Ġhig hest
åĲĦåĽ½ æĶ¿åºľ
Ġunp recedented
å¾Īå¤§ ç¨ĭåº¦ä¸Ĭ
åĢºæĿĥ äºº
r imin
in et
Ġw ent
å¹ »
è¢« è®¤ä¸º
ç¼ ħçĶ¸
æ¬§çĽŁ å§Ķåĳĺä¼ļ
ä¼ĬæľĹ çļĦ
èĤ¡ å¸Ĥ
Ġimpro ved
Ġconst ruction
Ġweak ness
Ġask ed
i ers
i os
t ime
y an
Ġp ubl
åĮĸ çŁ³
äº§ éĩı
çī¹ æ®Ĭ
å·´ æĭīåħĭ
éĺ¿ èĲ¨å¾·
åĩł ä¸ªæľĪ
åįĹ éĿŀ
ĠIran ian
ç´§ å¼ł
Ġdr ive
åħ±äº§ ä¸»ä¹ī
Ġlegis lation
é± ¼
B ecause
ç» ĥ
æĪ ´
et ic
åĩº äºİ
çº ¯
Ġse x
Ġse cur
çļĦç ĸ
Ġme ant
ç»Ħç»ĩ çļĦ
åĽŀ åĪ°
è¿Ľè¡Į äºĨ
è¾¹ çķĮ
å¥¹ ä»¬
Ġsustain ed
Ġcle an
ashing ton
D ON
Ġh it
å¿ ĺ
æĥ ¯
åħ¬ æŃ£
Ġres istance
åıĺ æĪĲ
åĮħ åĲ«
åľ¨è¿Ļ æĸ¹éĿ¢
Ġreven ue
I I
l ied
ä» ĩ
æĸ ¥
Ġr ural
æĥ ĳ
æĦı è§ģ
Ġtr ial
ç¬¬ ä¸Ģæ¬¡
æĪĲåĬŁ çļĦ
æµĭ è¯ķ
åĢŁ è´·
åľ¨ä¸Ģ èµ·
ĠX i
erke l
æ¾³ å¤§
LON DON
h ouse
Ġt y
Ġb ure
ä¸Ģ ç³»åĪĹ
Ġl angu
The ir
åĬ¨ çī©
çļĦç Ĺ
æĿĥ çļĦ
Ġfin al
Ġout c
éĺ¿ å°Ķ
æĸ°åħ´ ç»ıæµİä½ĵ
Ġstreng th
Ġschool s
Ġdesign ed
l antic
Ġp ack
Ġg iving
ĠC old
ĠM a
æľĪ ä»½
æĶ¯æĮģ èĢħ
Ġcap t
Ġ200 6
Ġadd ition
Ġeas ing
w an
z uel
ä¸Ģ çĤ¹
Ġl ies
Ġst ake
ĠB ut
Ġfar mers
Ġfam ilies
ç§ģäºº éĥ¨éĹ¨
ene zuel
ä¸Ńäº§ éĺ¶çº§
Ġcircumst ances
u ary
å® Ŀ
ĠI t
çŃ ¹
æĽ´ ä¸į
Ġeff iciency
æł¼ é²ģ
Ġmost ly
Ġra ised
è¿Ļä¸ª éĹ®é¢ĺ
Ġprom ises
Ġconflic ts
Ġconsider able
vest ment
ä»¥ æŃ¤
ad a
äºİ æĺ¯
åī Ĥ
ä»» æľŁ
ide red
è¥¿ æ´ĭ
act ions
Ġact ivity
è¯ķ éªĮ
Ġcurren cies
ĠDemoc ratic
æ¾³å¤§ åĪ©äºļ
ä¸į æĦ¿
Ġcomp rehensive
æį Ĳ
ĠUn iversity
av es
çļĦ åİĨåı²
å¤ ı
ä¸į å¤ª
ĠC our
ĠE uro
åīį æīĢæľª
åħ¬ æĬķ
æĹł çĸĳ
æĶ¿æ²» å®¶
ä¸¾ æİª
åıĤ åĬł
Ġens uring
Americ an
ĠPol and
è ļ
ä½ ©
Ġpre vail
Ġcons idered
Ġper ce
19 6
åĲĮæĹ¶ ä¹Ł
Ġac know
Ġevery thing
ä¼Ļä¼´ åħ³ç³»
å¯¹ å¾ħ
ä¹Ł æĹłæ³ķ
æľĢ æĸ°
äº§ åĩº
æĪĳä»¬ åı¯ä»¥
ĠH ar
Ġjust ice
Ġfact or
ç¨³å®ļ çļĦ
Ġdecl ared
ä¸įåı¯ éģ¿åħį
Ġdr iven
é»ĺ åħĭå°Ķ
Ġpopul ist
I nt
O r
in ent
Ġin form
ä¸Ń æīĢ
å¤§ åŀĭ
Ġdis aster
Ġcap ita
Ġwork ed
èµĦäº§ è´ŁåĢº
Ġdeep ly
Ġmult ip
åĬ³åĬ¨åĬĽ å¸Ĥåľº
Ġinvol ved
è´Ŀ å°Ķ
è¶³å¤Ł çļĦ
Ġassoc iated
g overn
åħ ¼
ä½Ĩ è¿Ļä¸Ģ
åĨ³ å¿ĥ
æłĩ å¿Ĺ
ç»´ æĬ¤
çĽ®åīį ä¸ºæŃ¢
Ġgener ally
Ġcol le
Ġclos er
åĮĸçŁ³ çĩĥæĸĻ
äºº åľ¨
æĬ ĵ
çİ° çĬ¶
ĠB l
è§£ æĶ¾
åıĺå¾Ĺ æĽ´åĬł
Ġborrow ing
çĹĽ èĭ¦
Ġmort g
Ġfre qu
u ine
Ġs old
Ġd er
ç² ®é£Ł
Ġadv ance
Ġemer ged
An other
Ġtal k
Ġdestro y
Ġbure auc
m ark
Ġl ight
å¯¼ å¼¹
Ġra ising
Ġass ert
éĩĩåıĸ è¡ĮåĬ¨
åĮ» çĶŁ
Ġident ity
Ġtransp ort
Ġrat io
Ġjour nal
Ġperman ent
n am
Ġh or
ut ive
æĿ ¿
Ġad equ
ç»ĵ åĲĪ
Ġhelp ing
è¾¹ ç¼ĺ
ä¹Łæĺ¯ å¦ĤæŃ¤
äº¿ç¾İåħĥ çļĦ
stand ing
Ġinst ru
Ġsmall er
æ¶ī åıĬ
Ġrestric t
w hel
Ġt ight
Ġb an
Ġb ody
æĺ ¥
Ġon going
ĠC O
Ġsu m
æĭī ä¸ģ
Ġany one
Ġequ al
Ġmed ical
éĶĻè¯¯ çļĦ
åºĵ å°Ķå¾·
èµĦäº§è´ŁåĢº è¡¨
Ġex ception
ĠB o
Ġun w
Ġcomp ens
æĥ³ æ³ķ
ä»į åľ¨
Ġob st
Ġgener ate
éĩĬ æĶ¾
Ġrun ning
Ġconstit ution
Ġre vers
éĢ »
Ġex ceed
éķ¿ çļĦ
Ġres ist
å¼º ç¡¬
Ġsuff ering
ĠMuslim s
Ġvis it
z e
Ġh y
å¤§ è¥¿æ´ĭ
Ġan im
è¿ĩ æ¸¡
Ġeconom ist
çŁ ĽçĽ¾
Ġcons olid
æ» ¥
ok ing
çĥ ¦
è¯Ħ è®º
æ¸ħ æ´
Ġcontrol s
Ġconfere nce
çļĦ åľ°åĮº
et he
Th ose
ĠD onald
Ġinf ect
çĭ ±
æħ Į
Ġdep ends
ä»ĺ åĩº
åĵ¥ ä¼¦
A R
b ack
g en
r us
ä¸į æ»¡
Ġcon cept
è° ¨
Ġchang ing
Ġmet h
3 5
D R
çļ ĩ
ra ft
ä»ĸä»¬ åľ¨
å¾Ī åı¯èĥ½
Ġremain ed
æĹ© å·²
Ġauthor itarian
b les
Ġs ought
Ġm igration
ra ction
Ġwe l
æľŁ æľĽ
ag ue
Ġgreat est
Ġallow ing
Ġreturn s
Is rael
Ġrepe ated
ä¸įä»ħä»ħ æĺ¯
ĠSunn i
Ġoutc omes
ĠCour t
åĵ¥ä¼¦ æ¯Ķäºļ
å ĺ
çļĦ ä¸ŃåĽ½
it ative
Ġd ue
èµ ¶
å¥ ĳ
ä¸İ ç¾İåĽ½
Ġag encies
ĠW ashington
é© »
ris is
å¼º åĪ¶
Ġpre fer
æµģ åħ¥
è¿Ļæĺ¯ ä¸Ģä¸ª
rem lin
Ġproduct ive
Ġinst ability
Ġcr imin
Ġentire ly
æ¸´ æľĽ
çļĦ æİªæĸ½
çļĦ éľĢæ±Ĥ
åĽ Ń
Ġm ention
ä¸Ń éĹ´
éĿ Ļ
æĸ¯ çī¹
Ġimp lies
è° ¢
é«ĺ åº¦
å¹³ æ°ĳ
ä½į äºİ
è± ª
èģĮ ä¸ļ
Ġplay ed
Ġget ting
Ġagricult ural
å¾ª çİ¯
ĠAust ral
ĠKe ynes
èĢ Ĳ
å¥ ĭ
Ġen ab
æģ ¨
åıĹ åĪ°äºĨ
éĿŀ æ³ķ
è¾¾ åĪ°äºĨ
èĲ İ
åįĩ çº§
æĹ¥æľ¬ çļĦ
Ġoff ered
ç¤º å¨ģ
ç¿ °
èĲ¥ åħ»
å¹¸ è¿Ĳ
è¿ ģ
Ġe ight
Ġg l
ä¸į åĪ©
se e
æ³ ½
æľĢ éĩįè¦ģçļĦ
æŀĦ æĪĲ
é©¬ åħĭ
åĩı ç¨İ
cal e
Ġfac ed
Ġbarri ers
o il
y le
çļĦ çİ¯å¢ĥ
çļĦ æī¿è¯º
it ter
ic ip
è´ ¾
ĠC o
åŃ Ł
ĠA be
èµĦ æł¼
Ġcomp ut
Ġpl aces
reas ury
ä¸¤ å¤§
200 4
201 6
Ġgen uine
åĳ½ è¿Ĳ
ç»Ŀ å¯¹
ĠV enezuel
Ġhard ly
Ġorgan ization
ai wan
çļĦ åĬªåĬĽ
at is
ur t
Ġfor ms
Ġsu sp
ç¾İåĽ½ ç»ıæµİ
æĥ ¨
è¢« è§Ĩä¸º
éĵ ¾
Ġover whel
ren e
åĲĦ æĸ¹
è´§å¸ģ èģĶçĽŁ
æ°ĳä¸» åĽ½å®¶
ef ense
Ġanal y
Ġwee ks
u pp
Ġ âĢĶâĢĶ
çļĦ è¡ĮåĬ¨
å° ģ
as ing
Ġst age
ul f
æ´ ŀ
Ġse ll
ĠP h
Ġun less
æ¯Ķ çİĩ
ĠK remlin
çº¦ ç¿°
åĲĦ èĩª
Ġimport s
Ġstand s
ä½ı æĪ¿
Ġslow down
Ġpartners hip
é©± åĬ¨
Ġtro ops
Ġpercent age
ethe less
P A
ä¸ Ŀ
æŀ ª
æ¯ Ľ
ä¹ĭ ä¸Ĭ
ä¹ĭ æĹ¶
ä½ľ åĩº
éĥ½ æ²¡æľī
æķ° çĻ¾ä¸ĩ
Ġover come
æŁ ı
åĽŀ åºĶ
Ġcapital ism
Ġcred ibility
Ġimpro ving
Ġregul ations
Ġrhetor ic
E N
s cale
ç ĺ
Ġp sych
le y
Ġbe g
å¸ ķ
and a
èĩª åĬ¨
æĮģ ä¹ħ
Ġup on
int s
Ġro ot
stit ute
è¶ħ è¶Ĭ
ç¼º éĻ·
Ġgeop olitical
E L
Ġt ensions
ä¸į å¤Ł
æĭ Ľ
çİ° éĩĳ
ä¹ĭ æīĢä»¥
od e
Ġsupport ers
Ġless on
Ġview s
Ġcho ose
è¯Ń è¨Ģ
Ġanal ysis
æĥ© ç½ļ
atis f
c he
e enth
al y
ul a
Ġsh ock
çĶ¨ çļĦ
è¿ĺ ä¼ļ
Ġdec ided
è· µ
æ¶Ī å¤±
Ġra re
éĻĲ äºİ
Ġinclud es
æ¼ «
æ¼ ı
å£° ç§°
Ġp ace
ap ital
è¾ Ľ
Ġch ann
é¦ĸ æ¬¡
Ġrest ore
åı° æ¹¾
Ġparticip ation
å°ļ æľª
Ġlearn ed
æĳ§ æ¯ģ
P ro
r at
ç £
çļĦ çĶŁæ´»
å® ľ
Ġe y
Ġn ations
åľ¨ æĶ¿æ²»
ur ies
Ġreg imes
Ġ200 4
Ġ201 6
æĴ ĳ
å±ħ æ°ĳ
rep rene
l a
Ġex act
åħ¨çĲĥ åıĺæļĸ
ĠK en
ç»Ļ äºĨ
Ġdebt s
ä¸ĩ äºº
éħ ¬
Ġelect oral
åİŁåĽł æĺ¯
Ġwant ed
Ġfear s
Ġinvol ve
Ġexpert s
Tr ump
F r
Ġ ï¼ī
Ġm ount
æ¬ ²
å·²ç»ı å¼Ģå§ĭ
çº¦ æĹ¦
Ġqu ite
åıĳçĶŁ åľ¨
çĽ®åīį çļĦ
éħ ·
Ġpers pect
ik es
wh ich
Ġfunda ment
Ġobject ives
Ġkill ed
Russ ia
Ġb ott
éĢļ ç¼©
ĠD C
åĨį çĶŁ
æ¿Ģ çĥĪ
åħ´ è¶£
éĢīä¸¾ ä¸Ń
Ġaff airs
Ġpot entially
ĠSe a
çļĦçł ´
Ġrece ive
çģµ æ´»
Ġnar row
bo ok
ĠA d
Ġ19 6
æĶ¹éĿ© çļĦ
Ġdep os
Ġmain ly
Ġpay ments
Ġcontrib ute
Ġmov ing
çļĦ ä¸ľè¥¿
Ġp en
è¿Ļ ä¹Łæĺ¯
ot e
æł ĳ
å¤ļ åħĥ
ĠM erkel
åħ¬ çº¦
ä¸ŃåĽ½ åľ¨
æµ· æ´ĭ
é¥ ¥
Ġopt ions
éĢ» è¾ĳ
re land
çļĦ å®īåħ¨
Ġm igrants
æŃ Į
å· §
Ġr ational
åī ¥
å°± åľ¨
è¿ĺ éľĢè¦ģ
iet h
äº¿ æ¬§åħĥ
Ġgo es
Ġplan et
å§Ĩ æŀĹ
Ġsec ular
éķĩ åİĭ
Ġscenar io
å°Ķå¤ļ å®ī
R e
al ib
Ġm or
æķ ¢
è¦ģ æ¯Ķ
ain s
åĪ© çıŃ
æŃ£ ä¹ī
åĳĺ å·¥
Ġus ually
æīĵ çł´
Ġimplic ations
ĠJan uary
he rent
æĺ¯ å¦ĤæŃ¤
Ġl ines
ĠC ons
ĠB er
éģ ¥
ak s
ĠT aiwan
og ue
è§Ĥ å¿µ
ä¸ľ çĽŁ
Ġtrans fer
ä¾ĭ å¤ĸ
Ġrecogn ized
Ġcandid ate
Ġestim ates
ĠBro ther
çļĦ åľ°æĸ¹
Ġs qu
æľ ĭ
Ġf allen
ä¸Ģ å¼Ģå§ĭ
æĹ¶ çļĦ
ĠK ong
å¼º åĬ²
è§Ħ åĪĴ
Ġacc omp
Ġar ms
äº¤ éĢļ
å°¼ æĹ¥
äººä»¬ å¯¹
åĮĹ äº¬
ç¦» å¼Ģ
ĠIslam ist
æ¼Ķ è®²
Ġterrit ory
Ġconserv ative
Ġdig ital
Ġp un
ant ly
ast ro
é©¬ éĩĮ
Ġsuff er
RI DG
Ġdeath s
Ġagg reg
CA MB
ĠJu ly
RIDG E
CAMB RIDGE
D uring
J ust
N or
çļĦ åĨĽäºĭ
çļĦ æĸ¹æ³ķ
at form
ar bon
Ġg ave
äºº çī©
The n
æĻ ļ
ç»Ħ åĲĪ
ach ing
Ġpos itions
Ġdou ble
Ġestablish ment
å¿½ çķ¥
æĢİ ä¹Ī
Ġpropos al
Ġprior ity
Ġmeth od
B e
E x
Ġt ies
is c
ist ics
ke pt
oc u
åŁº çĿ£
are n
èĩ³ ä»Ĭ
åģļ çļĦ
19 90
æİ¨ è¡Į
æį¢ åı¥è¯Ŀ
Ġimplement ed
Ġiniti atives
oz y
æĭīä¸ģ ç¾İæ´²
l ad
l ong
çļĦ éĵ¶è¡Į
Ġto ld
è¿Ļ å°±
ä»¥ ä¸ĭ
ĠS ch
Ġcan cer
oll ah
å°¼ æĸ¯
Ġnational ism
æĪĲåĬŁ åľ°
æģĲ æħĮ
Ġins p
Ġview ed
å·´åĭĴæĸ¯åĿ¦ äºº
Ġpat ients
itud e
çļĦç² ¾
ĠArgent ina
ĠE x
ä¸ĭ æĿ¥
è®® ç¨ĭ
æ¶ Į
èĤ Ĩ
å»º çŃĳ
èį Ĵ
Ġrem ov
èĩªçĶ± åĮĸ
è¶ħ çº§
Ġnum bers
Ġpract ices
ç¯ ĩ
c oming
k ish
r ia
çļĦ åĪ©çĽĬ
çļĦ æĪĺçķ¥
çļĦ æĿĥåĪ©
âĢ ¢
çİ Ľ
ĠD av
å®ŀçİ° äºĨ
è¨Ģ ä¹ĭ
Ġend ed
å¤ª å¹³
äº§çĶŁ äºĨ
åŁĥ å°Ķå¤ļå®ī
Ġmove ments
Ġform al
åł ¡
Ġmechanism s
åı¬ å¼Ģ
r un
or ial
æĺ¯ ç¾İåĽ½
è¿Ļ ä¸¤ä¸ª
èĥ½ åľ¨
ant ed
ark ozy
ĠK urd
Ġrul ing
å¿ħè¦ģ çļĦ
éĻ·åħ¥ äºĨ
ç»Ĩ èĥŀ
Ġdiplom acy
Ġresol ve
Ġjo in
èī° éļ¾
a res
çļĦ é¢Ĩå¯¼
Ġs il
Ġh on
ĠC al
ĠS ing
ä¹Ł ä¸įä¼ļ
è¿ĩ æĿ¥
Ġimp ed
å¹³ åı°
çĽ® çļĦæĺ¯
ä¿Ŀ çķĻ
æĭī ç¾İ
ä»» åĳ½
å¿ħ çĦ¶
éļı ä¹ĭ
çº³ å¾·
Ġcomb ined
Ġprotest s
Ġguarant ee
2 4
L ast
Ä Ł
Ġm ach
åĴĮ ä¸ŃåĽ½
åıĳ è¡Į
Ġle verage
åĮº åĪ«
èº« ä¸Ĭ
æ°ĳä¸» çļĦ
Ġtrans formation
Ġcommit ments
Ġconstit utional
Ġscient ists
åı¦ä¸Ģ æĸ¹éĿ¢
Ġh ar
æĺ¯ ä¸ºäºĨ
ä¸Ģ å¹´
ä¸Ģ ä¸ĭ
åĲ ĥ
ä¸º æŃ¤
Ġwor ks
ä¸ŃåĽ½ æĶ¿åºľ
æľĪ çļĦ
å£ ģ
è®¡åĪĴ çļĦ
è¯ģ åĪ¸
Ġent reprene
éĩĩåıĸ äºĨ
Ġpract ice
Ġdemonst r
è¯ļ çĦ¶
Ġsharp ly
è¿¹ è±¡
p ower
ä¸į è¦ģ
åĨ °
è¿Ļä¸Ģ çĽ®æłĩ
Ġcomp lic
ĠK im
ä½İ æĶ¶åħ¥
Ġfore cast
Ġevery where
æļ´ éľ²
Ġdecl ining
Ġmed ium
Ġeas ier
çļĦç© º
Ġappropri ate
c ers
m ore
o ke
en h
æĺ¯ æľī
åĴĮ æĬķèµĦ
Ġex erc
Ġv o
Ġother wise
è®© äºº
ç½Ĺ é©¬
æ¶Ī çģŃ
æīĢæľī äºº
Ġcor rect
Ġord inary
é¢Ŀ å¤ĸ
äºĴ çĽ¸
åĢŁ æ¬¾
æģĲæĢĸ åĪĨåŃĲ
å¡Ķ åĪ©çıŃ
å½ĵåīį çļĦ
Ġpopul ations
Ġunderm ine
Ġunivers al
éĺµ èĲ¥
éģµ å®Ī
Ġimbal ances
Ġs pect
st s
ä¸Ģ éĥ¨åĪĨ
Ġcon ventional
å¿ Ĩ
å°Ĩ ç»§ç»Ń
æ³ķ æ²»
åĪĨ ä¹ĭ
ç½ ķ
ä¸ŃåĽ½ ç»ıæµİ
ä½¿ åħ¶
è¥¿ äºļ
è´¹ çĶ¨
åŀ Ĵ
åħ±åĴĮ åĽ½
Ġamount s
Ġpoore st
I C
è ¹
Ġ 70
Ġon es
ç»ı èĲ¥
Ġas p
åħ¨ æ°ĳ
ĠM arch
èĥ Ĩ
è®© ä»ĸä»¬
å·²ç»ı åľ¨
èİ· çĽĬ
Ġph il
ä¿® æŃ£
æĤ£ èĢħ
aren cy
R ather
p in
p ret
åı «
äºº åĿĩ
æ² ¦
Ġal loc
ĠE r
ĠG overn
çĲĨ æĢ§
Ġimp osed
Ġ1 7
åĿ ¡
è®º åĿĽ
Ġprov ed
ade qu
ä»½ é¢Ŀ
Ġdr iving
çĳŀ åħ¸
SE AN
Â ¾
Ġa ware
çļĦ åĶ¯ä¸Ģ
Ġw ast
Ġm urd
Ġst ay
ĠE conom
åĪ° çļĦ
Ġint ens
ä»İ æĿ¥
row n
Ġall iance
è¿Ļä¸Ģ éĹ®é¢ĺ
Ġcomp l
ĠN ig
Ġdis rupt
ident s
Ġsp ur
çļĦäºº ä»¬
Ġdef end
æµ· å¤ĸ
æ®µ æĹ¶éĹ´
Ġtru ly
Ġcorpor ations
lif eration
å¤ªå¹³ æ´ĭ
A b
G overn
Ġd rop
äºº æķ°
ra f
ra ge
ä½Ĩ è¿ĻäºĽ
åİ ī
åĬł æĭ¿
Ġexp end
åŃĺ æ¬¾
low s
å»ºç«ĭ ä¸Ģä¸ª
rem e
Ġstrateg ies
åħĭéĩĮ å§ĨæŀĹ
Ġdistrib ution
Ġsou thern
Ġelectric ity
Ġre ly
å¼ ¥
å¿ ł
åħ³ ç¨İ
æ¯Ķ æĸ¹
Ġpl ed
Ġacc um
åįı åĬ©
æ°Ķ ä½ĵ
Ġdes ire
é¥ ±
ival ent
Ġaggreg ate
s k
w ing
Ġd imin
st er
å¤§ ä¼ļ
æķ ı
ä½Ĩ ä»ĸä»¬
ä¸Ĭ åİ»
åĪ° çĽ®åīįä¸ºæŃ¢
Ġse ven
ust r
ĠM an
éľ ¸
è° ´
æĶ¯æĮģ çļĦ
Ġsy mb
ä¸ľ äºļ
ict ion
Ġcontin uing
Ġdep rec
Ġuse ful
Ġprep ared
Ġrob ust
2 7
Ġm itig
lo s
am er
æĢ§ åĪ«
åº¦ çļĦ
Ġres olution
Ġpr ison
æ²¡æľī ä»»ä½ķ
æ¸ ł
å·²ç»ı æĪĲä¸º
åıª ä¼ļ
é© ¾
Ġar med
è®¸å¤ļ åĽ½å®¶
ç´§ å¯Ĩ
Ġregul ators
Ġreflect ed
rodu ct
ne y
Ġpropos als
äºĮåįģ ä¸ĸçºª
Ġinev itable
Ġexperien ced
Ġenj oy
è°¨ æħİ
è°´ è´£
i ately
åľ¨ ä¸ŃåĽ½
Ġg ir
åı¯ ä¿¡
ĠA ll
us hed
å¦Ĥæŀľ æĪĳä»¬
ĠH ong
Ġapp oint
Ġro om
åĤ ¬
åĲ¦ è®¤
å¾·åĽ½ çļĦ
Ġman ip
Ġtoward s
ä¼ĺ åħĪ
èĦ± ç¦»
èī¯ å¥½
Ġbl ame
Ġmot iv
Ġsen ior
æŁı æŀĹ
o es
Ġc ell
Ġe p
äºº éģĵ
ä¸ª ä½ĵ
Ġ1 6
ä»¥åıĬ åħ¶ä»ĸ
Ġunder lying
è¿Ļä¸ª åĽ½å®¶
èĦ± æ¬§
Ġviol ent
éĢĲ æŃ¥
å¤±åİ» äºĨ
ĠHe alth
Ġcal c
ĠAss ad
æľĭ åıĭ
çļĦ åĨ³å®ļ
at ures
ä¸į å¦Ĥ
å¹´ é¾Ħ
ĠS ocial
åĢ ¡
åıĳ èµ·
ï¼ī âĢĶâĢĶ
éĺ ´
åĬł æĭī
è¿ĺ èĥ½
æĹ¥ æ¸Ĳ
å¸ĥ é²ģ
Ġmon it
æ¯ı å¤©
Ġbel ieved
Ġcomb ination
å© ļ
Ġagricult ure
Ġdeg ree
éĢĨ è½¬
Ġbail out
çłĶ åıĳ
alib an
Ġw ond
le t
æĢ ¨
ĠP r
åĮĸ åĴĮ
çļĦç Ī
ru d
Ġexp ensive
Ġpl atform
çĸ Ł
è· ĥ
ail s
Ġcaus ing
Ġcho ices
åĵª äºĽ
åĲī äºļ
Ġtwent ieth
Ġexpend it
æ¸ł éģĵ
Ħ æĸŃ
it ation
ed a
est ern
ä¹ĭ ä¸º
Ġen em
åŀ ĦæĸŃ
æķ´ åĲĪ
åĪ¤ æĸŃ
G lobal
O ur
i pe
ic le
è¡ ·
ä»¥ å¾Ģ
ĠI reland
ç»ıæµİ åıĳå±ķ
ä¸ļ åĬ¡
æĭī å¤«
åĲį ä¹ī
çļĦç»ıæµİ å¢ŀéķ¿
Ġgener ations
äºĶ å¹´
é¡¾ éĹ®
Ġrepl ace
do ÄŁ
Ġfri ends
Ġenterpris es
æł¼é²ģ åĲīäºļ
doÄŁ an
i ant
åľ¨ è¿Ļä¸Ģ
è´ ¯
ill ed
ĠS um
ia gn
ä¸ĸ ä¿Ĺ
Ġun ique
å¤± è¡¡
æĮĩ å¯¼
Ġact ors
å¤ª éĺ³
ç»ĵæŀľ æĺ¯
èĤ¡ ä¸ľ
çļĦæľĢ ä½³
éĺ¶ å±Ĥ
Ġvirt ually
Ġhop es
Ġdefe at
æį¢åı¥è¯Ŀ è¯´
3 00
çļĦ çĲĨçĶ±
Ġf oot
æĺ¯ çĶ±
ä¹Ł åºĶè¯¥
åĩº åĶ®
Ġcom pe
å¥ ī
é¢Ĩå¯¼ çļĦ
200 3
èİ· èĥľ
åĩĨ ç¡®
æĸĩ ç«ł
Ġcour t
Ġaccept ed
Ġdev ast
Ġadjust ment
ä¸§ å¤±
t ies
v is
çļĦ éĢīæĭ©
it ious
Ġb ul
åı¯ åĨįçĶŁ
è¦ģ ç´ł
æĢ§ è´¨
åĮĸ ä¸º
ib eral
Ġrel ief
æ¯ı ä¸ª
Ġcred ible
æĬµ æ¶Ī
æĻº åĪ©
èŃ¦ å¯Ł
è¿Ŀ åıį
çļĦ åħ¬åħ±
ä¸Ģ æĿ¡
ä¸Ģ åįĬ
çĶŁ æĢģ
Ġres ource
Ġimp ose
ä¿¡ åı·
å¸¸ è§Ħ
èĩ´ åĳ½
Ġinvest ig
åĩı è½»
Ġsc hem
åį°åº¦ çļĦ
ron ic
Ġes c
Ġprof ound
Ġcut ting
åģ¿ è¿ĺ
æĤ² åī§
Ġmist ake
Ġfig ure
éº» çĥ¦
Ġdynam ic
Ġp ension
Ġin adequ
åĽ½ åĬ¡
ä¸Ģ åĲį
ä»¥ ä¾¿
å± ¥
éĥ½ èĥ½
ĠR o
æĪĺ æĸĹ
åĭ ĩ
åįģå¹´ ä»£
GDP å¢ŀéķ¿
çŁŃ ç¼º
åįĬ å²Ľ
Ġliberal ization
Ġimmed iately
Ġtrend s
Ġlegis l
ĠCommun ist
U nder
f all
g round
Ġ ut
çļĦ ä¾ĭåŃĲ
éĻ Ī
ä¹Ł éĹ¨
res p
ä¸» æµģ
è¿ĺ åľ¨
æĶ¯ æĴĳ
Ġconf ron
ruct uring
ĠInd ones
ç»Ŀ éĿŀ
ç»Ŀ å¤§å¤ļæķ°
Ġtra ck
Ġimm igrants
Ġhold ing
Ġstrengthen ing
çļĦçŁ ³
ĠDemoc rats
Ġoccur red
çļĦçľŁ æŃ£
çĸ² è½¯
Ġbatt le
R ec
Ġf ire
ut r
ä¸º åŁºç¡Ģ
æİ ©
æľĢ ä½İ
éĥ½ å°Ĩ
éĢī ç¥¨
Ġdec is
Ġopp onents
è´Ł éĿ¢
Ġful f
å£° æĺİ
Ġrefuge e
åħ±äº§ åħļ
Ġobs er
Ġnetw orks
Ġpurp ose
Ġvictim s
a eda
f uel
g ia
çļĦ å¸Ĥåľº
Ġm ent
Ġd ro
ct ober
äºĨ å¯¹
con s
æŃ¤ åīį
Ġen force
ag ers
Ġtrad ition
æľºæŀĦ çļĦ
Ġtax pay
Ind ia
Ġinstit ution
åįĹ äºļ
Ġprom ised
Ġprof it
æ¸© å®¤
rel ated
Ġobst ac
I P
çļĦ æĬĢæľ¯
åĲ ¹
Ġbe ar
ur b
Ġcon ver
çļĦç ¥
ĠT aliban
æķ° åįģ
è¿Ĳ ä½ľ
ruct ive
åĶ Ĳ
Ġel ites
Ġturn ing
ç¼ĵ è§£
é¢Ħç®Ĺ èµ¤åŃĹ
åħ» èĢģ
æ°¸ ä¹ħ
ĠPar liament
Ġheav ily
dd en
å»ī ä»·
T PP
m ad
çļĦ åģļæ³ķ
ou d
å° ĸ
Ġst ra
ç»ı è¿ĩ
æĹł åĬĽ
ip her
ĠW e
Ġ19 30
Ġacc ord
å½¢ è±¡
ç»Ī ç»ĵ
Ġsub sequ
æ²Ļ å°Ķ
Ġmed ic
Ġserious ly
ug ust
Ġobject ive
Ġminor ity
åĬłæĭ¿ å¤§
Ã ¦
çļĦ åĢºåĬ¡
Ġwh atever
èµĦ åĬ©
Ġeconom ically
éĥ½ è¦ģ
é«ĺ çº§
ĠT reasury
Ġrec omm
ä¿¡ ä»°
æĶ¾ åľ¨
Ġ200 3
æ· ¡
Ġact ive
Ġoff ers
çĶµ åĬĽ
çº³ åħ¥
Ġtra vel
ĠTr ans
çī¹æľĹæĻ® çļĦ
åį³ä½¿ æĺ¯
Ġcond ition
çķĻ åľ¨
Ġdest ruction
æ¦ ľ
Ġche ap
ä»ħä»ħ æĺ¯
Ġcounter part
Ġmob il
Ġign ore
C S
f in
Ġ 80
or por
å® °
Ġg ot
ä¸į èī¯
æĮ ¤
ĠP aul
èĤ ¥
å¼ı çļĦ
Ġpeace ful
Ġche m
Ġmaintain ing
Ġcy cle
Ġread y
æ³¨æĦı åĬĽ
Ġperce ived
N ew
c ount
o ly
u ous
åľ¨ åĨħçļĦ
Ġg one
ä¸į äºĨ
æĽ´ å¿«
è¿ĳ æľŁ
æĮĩ æİ§
ç§ģ æľī
With out
å¯Ĩ åĪĩ
Ġfig ures
Ġadap t
å°¼æĹ¥ åĪ©äºļ
æ¯Ķæĸ¹ è¯´
b re
çļĦ æĪĲæľ¬
è® ½
å¦ Ļ
Ġinc lusive
æĭī æĸ¯
Ġdec ide
Ġrel ated
ĠO ctober
ç¬¬ ä¸Ģä¸ª
Ġdes per
ç»Ī äºİ
åĬŁ èĥ½
Ġben e
Ġann ually
è®° èĢħ
Ġsol ve
Ġbring ing
ç»ıå¸¸ é¡¹çĽ®
éĶĢ åĶ®
Ġtem porary
augh t
Ġexact ly
Ġperspect ive
çļĦçŁ³ æ²¹
Ġa ris
äº ¦
st ood
ä½Ĩ åħ¶
Ġsu dden
ff ect
æĪĳä»¬ åºĶè¯¥
å·¥ ä¼ļ
Ġdevelop ments
Ġrem ind
ploy ed
Ġiss ued
éĻįä½İ äºĨ
Ġfl aw
b led
y stem
in ks
in ian
on om
er ous
ion al
åĴĮ æľįåĬ¡
ä¸Ń æľŁ
äº§ æĿĥ
Ġun con
Ġres c
æĻ °
Ġj oint
æĸ½ åĬł
ä¸¤ ç§į
Ġunder t
è£ Ķ
ang ing
own ed
lud ing
å¤į åħ´
Ġsupport ing
æĶ¶åħ¥ çļĦ
Ġown ers
Ġconcern ed
éĽĨä¸Ń åľ¨
Ġtyp ically
Ġminist ers
åıĹå®³ èĢħ
Ġty pe
Ġlangu age
Ġe c
st ream
åī ĳ
Ġy outh
Ġwhe reas
iet nam
Ġco ordin
æľªæĿ¥ çļĦ
åŃĺåľ¨ çļĦ
ä»¥èī²åĪĹ çļĦ
Ġbr ut
æĬµ æĬ¼
Ġcontrib uted
åĲĪçĲĨ çļĦ
è·Ŀ ç¦»
lad im
f ers
u ations
he ast
çļĦ èĩªçĶ±
Ġw is
Ġp arent
Ġd ial
ä¸Ģ ä»½
Ġl osing
ig or
Ġon line
å¤ļ å¹´
åĬł ä»¥
éª ¤
å¾Īå¤ļ äºº
ç©· äºº
Ġexpl an
ä¸įç®¡ æĺ¯
Ġbub ble
Ġdict ators
çļĦç¼ º
æ®ĸ æ°ĳ
ladim ir
Ġb old
Ġf il
ç» ¼
Ġl i
äºī åıĸ
Ġlead s
æ´» åĬĽ
ä¸ľ æ¬§
æīĭ ä¸Ń
æĸĩ æĺİ
ink ing
Ġequ ivalent
åĽº å®ļ
Ġassum e
æīŃ æĽ²
çĸŁ çĸ¾
I ran
P e
W he
½ åĬ¨
Ġre act
Ġl end
ä¸į è®º
ra ck
æ¬ º
å¤ļ ä¹Ī
ac erb
Ġsh ape
åĬ¨ æľº
äºĭ ä¸ļ
lic it
åĩı éĢŁ
Ġac ad
Ġbank rupt
ç´§ æĢ¥
Ġequ ally
Ġrev iew
Ġstart ing
Ġcr imes
mb ly
Ġwilling ness
æĵį ä½ľ
Ġtrou ble
cont ro
in y
çļĦ åĲİæŀľ
ad ays
ĠA nd
ä¹Ł å¿ħé¡»
ç³ Ĭ
åį´ æĺ¯
Ġless ons
æİĴ éĻ¤
Ġaffect ed
Ġdram atically
ĠJew ish
é»Ħ éĩĳ
åħĭéĩĮå§ĨæŀĹ å®«
æ¸©å®¤ æ°Ķä½ĵ
Ã ¤
çļĦ åıĺåĮĸ
æĶ¿ åıĺ
ir th
åı¯ æĢķ
if t
éĹ®é¢ĺ åľ¨äºİ
æł¹ æºĲ
æŀĹ æĸ¯
æŁĲ ä¸ª
Ġtechn ical
Ġhealth y
Ġpers u
åĿļ å®ļ
Ġstud ies
ners hip
çļĦçŁ ¥
Ġsurpris e
ĠPro t
Ġrein for
Ġheav y
b ank
d ed
s on
Ġn orthern
æĹ Ĺ
Ġex acerb
em en
åİ Į
æľ¬ è´¨
åı¯èĥ½ å¯¼èĩ´
æİ¥ çĿĢ
è®¾ å¤ĩ
åĽ° æī°
Ġret ire
ä¸ĵ åĪ¶
Ġpurs uing
Ġdiscuss ion
ĠFin ancial
ĠSw ed
æĿĲ æĸĻ
çļĦ ä»»åĬ¡
è¿ Ķ
åĽ½ åĢº
ç» ķ
è¯ ŀ
ĠA ct
us al
Ġ1 3
æĢ» åĢ¼
èī º
ren ce
Ġper ipher
äººä»¬ çļĦ
ç§° ä¹ĭä¸º
åĮ» åŃ¦
èģĮ ä½į
å®¢ æĪ·
Ġfuel s
Ġdemonst rated
ä¸įç¡®å®ļ æĢ§
Ġphys ical
i as
i res
çļĦ èµĦéĩĳ
Ġre levant
æŃ¤ æ¬¡
çķ ª
ä½İ ä¼°
åģļ å¥½
Ġprodu cers
éª Ĺ
Ġknow s
äººåı£ çļĦ
Ġplay ers
çİ°ä»£ åĮĸ
éĿĴ å¹´
Ġdivid ed
çļĦ ä»·æł¼
al k
Ġd ream
Ġst ead
åĮ Ī
lo ok
æ¬§æ´² åĽ½å®¶
çī© è´¨
åĽŀ çŃĶ
çļĦä¸Ģ äºĽ
çº³ ç²¹
å®³ æĢķ
ä¸ĢçĽ´ æĺ¯
Ġposs ibly
è¶ħè¿ĩ äºĨ
Ġaddress ing
ĠTur kish
Ġexpand ing
Ġdel ay
ograph ic
Ġbeg un
T A
g u
n s
n ational
Ġt act
an a
Ġf eed
åħ¶ åľ¨
ĠA ugust
ĠS arkozy
Ġsh ocks
æľ¬ äºº
å½ĵ ä¸Ń
è½ ¨
ag er
Ġtr ip
æīĢæľī äººéĥ½
çªģ çĦ¶
Ġke pt
éĺ» æĮ
Ġrecogn ition
Ġnecess arily
ĠSh ia
Ġdeterm ined
éĢĶ å¾Ħ
æµª è´¹
Ġdescrib ed
D e
E very
Ġb illions
ä¸Ģ å®¶
ä¹Ł èĥ½
æľĢ åĪĿ
éĩį å¡ĳ
è¾ ±
ib ilities
ĠN ob
Ġpre ced
ä¼ģä¸ļ çļĦ
è¯º è´Ŀå°Ķ
Ġcivil ian
Ġtransp arency
è¸ ª
Germ any
çļĦçĬ¶ åĨµ
¡ èĲ
çļĦ è´§å¸ģ
è¿Ļ éĩĮ
éĢ Ĵ
Ġr ic
å®ŀ è´¨
çļĦç ¦
anc y
å·´ æ²Ļå°Ķ
çĹħ æ¯Ĵ
Ġel ite
èĳ ¡èĲ
Ġpres ence
è¶ĬæĿ¥è¶Ĭ å¤ļ
Ġcoll abor
cl ass
Ġhour s
å£ģ åŀĴ
èĳ¡èĲ Ħ
2 2
I DS
Ġs ays
ut y
å¤§ èĲ§æĿ¡
ad ing
åĳ Ī
Ġres il
Ġgrow n
è®¤ çľŁ
æķĻèĤ² åĴĮ
èĳ £
åı¤ å·´
Ġrelig ion
ĠPe ople
Ġcomprom ise
H ere
N on
f ort
r id
çļĦ æīĢæľī
ar ning
ore ign
Ġsh r
æ²¡æľī äºº
Ġinter ven
ä½į ç½®
Ġrest ructuring
Ġdist in
çĻ¾ åĪĨ
Ġreport ed
Ġrepres ents
èĮĥåĽ´ åĨħ
Ġdeterm ine
ober t
ĠDep ression
åħĳ çİ°
ĠVenezuel a
f irst
Ġ il
çļĦ äºĭå®ŀ
çļĦ æĢģåº¦
Ġn one
ur ch
ä»¥ å¤ĸ
æ¬ ł
å¹´ åº¦
å®ŀ è·µ
ap pe
çĶ¨ è¯´
åĨ³ è®®
æ²¡ èĥ½
Ġtr ib
å®Į ç¾İ
è´¢æĶ¿ æĶ¿çŃĸ
Ġmod est
è´Ł è´£ä»»
çĶµ åŃĲ
éĥ¨éĹ¨ çļĦ
å±Ĥ æ¬¡
Ġplay ing
èī¯ å¥½çļĦ
Ġclose ly
æŁĲç§į ç¨ĭåº¦ä¸Ĭ
Ġsum mer
æ ĩ
on ent
ï¼Į âĢĿ
Ġd ocu
æľī èĥ½åĬĽ
ä¸Ń æľī
æīĢ å¾Ĺ
ç¾İåĽ½ æĶ¿åºľ
å¢ Ļ
ĠP ort
ä»İ äºĭ
è¿ĻäºĽ éĹ®é¢ĺ
æĥħ å½¢
åĽłä¸º ä»ĸä»¬
æĶ¾ æĿ¾
çī© ä»·
åİŁ æľ¬
Ġlo oks
Ġhuman itarian
ars h
å¥¹ çļĦ
Ġdeep er
å¡Ķ å°¼äºļ
ä¸»æĿĥ åĢºåĬ¡
å¹¿æ³Ľ çļĦ
Ġpromot ing
Ġgir ls
çļĦ åħ³ç³»
çļĦ éĢŁåº¦
Ġs aw
Ġle arning
æĪĳ åľ¨
åıį è¿ĩæĿ¥
æį ·
å·´ æĸ¯
è®¤ å®ļ
çŁ ¿
çĤ Ń
Ġcomm and
Ġdef ined
Ġnational ist
åį¡ æ¢ħ
ç§¯ ç´¯
Ġrequire ments
Ġoppos ite
å¼ķåıĳ äºĨ
ĠCl imate
Ġlaun ch
Ġextreme ly
è¦Ĩ çĽĸ
Ġdram atic
èĶ ĵ
Ġquant itative
æĬĵ ä½ı
Ġbott om
G O
f lation
w ith
Ġf al
Ġto ler
Ġd iagn
Ġg ender
ä¸į å°ĳ
å¯¹ å¤ĸ
åĪ° åºķ
ä¸ĭ æ»ĳ
åºĶ çĶ¨
æ¯Ķ éĩį
å¯¼ åĲĳ
æĿĥ å¨ģ
ä¸ĸçķĮ åĲĦåľ°
å¾· æĭī
Ġinter pret
è¿Ļæł· ä¸Ģä¸ª
èĪ ¹
ĠV ietnam
Ġopen ing
ĠComm ittee
ä¼ļè®® ä¸Ĭ
ä¸įè¿ĩ æĺ¯
Ġunivers ities
Ġtwent y
Ġgreen house
Ġflo od
l ines
ent y
Ġe ast
et h
æĬ «
æ´ ¥
Ġex it
æ³ķ å®ĺ
ĠG ulf
çļĦç ĥ
éĤ£ ç§į
ree ment
ĠH IV
åį° å°¼
æ³¨ åħ¥
æĦ¿ æĻ¯
Ġprom ising
ä¸ĵ æ³¨
Ġgr and
è§ī å¾Ĺ
Ġblo od
Ġamb itious
Ġear th
æĽ´ä¸į çĶ¨è¯´
ĠIndones ia
ĠNob el
èĶĵ å»¶
Ġt ack
çļĦ æĪĺäºī
le b
le vel
ç»ıæµİ åĴĮ
æĦı æĸĻ
ç«ĭ åĪ»
è¶Ĭ åįĹ
Ġconf ir
åįĹ éĥ¨
li hood
èĲ½ åĲİ
Ġterror ists
ĠPart nership
ä¸įè¶³ ä»¥
Ġprior ities
Ġsurv ival
Ġconstra ints
Ġcritic ism
Ġpoll ution
æ Ĩ
Ġh omes
ä¹ ĥ
ot ic
Ġst o
å¯¹ ä¸ŃåĽ½
ĠM c
åĬł åĿ¡
çĲĨ äºĭä¼ļ
éļ Ĩ
æ²¡ äºº
æĬķ æľº
ll or
éĩĳèŀį ä½ĵç³»
Ġ19 60
vent ions
åĲ¦ åĨ³
Ġoff set
æ·± è¿ľ
ĠV ladimir
åį³ä½¿ åľ¨
åĬŀ åħ¬
ç±³ å°Ķ
Ġspe ak
æŃ§ è§Ĩ
Ġterrit orial
Ġtem per
Ġsett lement
cher s
pr il
ĠCol omb
uild ing
m it
èµ Į
ä¼ļ å¯¼èĩ´
ä¸Ĭ äºĨ
ä¹Ł åı¯èĥ½
åİ ļ
åĮĸ åŃ¦
Ġinc omp
ç© ¿
æµģ è¡Į
ç¾İåħĥ çļĦ
ä¸¥ åİī
ä¸ĵ åĪ©
æľįåĬ¡ ä¸ļ
ç¾¤ ä¼Ĺ
çīĻ åĪ©
Ġencoura ging
Ġtrig ger
ĠAustral ia
å¹¸è¿Ĳ çļĦæĺ¯
amer on
åĮĪ çīĻåĪ©
2 3
P acific
W AS
c omm
r s
Ġf ate
ä¸Ģ è½®
æīĢ éĢłæĪĲçļĦ
åĽ½å®¶ åĴĮ
è¿ĩ åī©
æľ¬ åľ°
éĿ¢ åīį
Ġreg ular
Ġar rest
Ġunder stood
çļĦäºº æ°ĳ
èĭ±åĽ½ çļĦ
äºĮ åįģå¹´
ove red
ĠCh ile
Ġgain ed
ĠPalest ine
Ġcoll aps
å¸ĥä»Ģ æĶ¿åºľ
éľĩ æĥĬ
Ġparliament ary
Ġmand ate
Ġcrimin al
F ortunately
é ¥¿
ä¸ ĳ
om s
as c
æµ ®
è¡Į æĶ¿
éĥ½ å¿ħé¡»
ä¸ŃåĽ½ é¢Ĩå¯¼äºº
ud d
æĿĥ åĬĽçļĦ
è§£ ä½ĵ
Ġpart ner
èŀį åĲĪ
ail y
ä¸´ æĹ¶
Ġsign s
å¹² æ¶ī
Ġach ieving
Ġput ting
å³ »
Ġfuel ed
Ġarrange ments
åı¯åĨįçĶŁ èĥ½æºĲ
Ġil leg
B ER
p et
t rade
y l
çļĦ ä¿¡æģ¯
er a
Ġs atisf
Ġg rew
Ġal though
ĠA SEAN
å± Ī
art ment
Ġch ief
è¿« åĪĩ
æ½ ĺ
ah u
æĢ¥ åī§
çĮ Ľ
Ġlegit imate
çļĦéĩįè¦ģ æĢ§
Tw o
ING TON
é¥± åıĹ
Ġobser vers
çļĦ æĪĲåĬŁ
å¤ ¸
om pl
åº Ĭ
äº§ èĥ½
Ġra ce
ä¿ĿæĬ¤ ä¸»ä¹ī
åıªæľī åľ¨
Ġprocess es
çļĦæľĢ å¤§
Ġshow ed
èı Į
åĲ¸å¼ķ åĬĽ
äº« åıĹ
å½¢å¼ı çļĦ
æĲ ľ
Ġemploy ees
çĶ· æĢ§
EC D
æļĤ æĹ¶
Ġbro k
Ġpubl ished
è®½ åĪº
å¡Ķå°¼äºļ èĥ¡
W ill
y al
Ġ è¿Ļ
Ġs ort
an ish
Ġp aper
ing u
ä¿ ±
Ġex cept
ĠM od
åĿ Ĺ
åĨħ å¡Ķå°¼äºļèĥ¡
are ly
ä¸¤ å¹´
ace book
19 4
æ¸ħ æĻ°
ä¹Łè®¸ æĺ¯
åıĤä¸İ èĢħ
åľ£ æĪĺ
How ever
Ġimag ine
Ġremark able
è¯Ĭ æĸŃ
Ġinadequ ate
c ks
Ġm ix
if e
çī ¢
Ġfa ith
æĪĸ æĺ¯
åĬ© éķ¿
æİ¥ è§¦
è®¾ ç«ĭ
èİ· åıĸ
Ġstart ers
çĽ¸å¯¹ è¾ĥ
ĠCon stit
Ġsal es
Ġembra ce
Ġadequ ate
count ry
i ences
çļĦ è´£ä»»
Ġs ac
Ġc rop
Ġm other
Ġm ission
Ġd ri
ä½Ĩ ä»ĸ
Ġsu s
ĠA pril
åĬ¨ ä½ľ
ä¸İ åħ¶ä»ĸ
Ġint ended
Ġcomp ris
Ġ( $
èµ· äºĨ
å¾Ī å®¹æĺĵ
å¸ĥ èİ±
å»ºç«ĭ åľ¨
ç´§ è¿«
çļĦæľĢ æĸ°
Ġplan ning
Ġcrit ics
Ġur gent
Ġfix ed
åĨĴ éĻ©
èĥĮæĻ¯ ä¸ĭ
åĥµ å±Ģ
ih ad
ĠEr doÄŁan
åīĳ æ¡¥
N P
çļĦ åį±éĻ©
çļĦ åİĭåĬĽ
ä¸į éľĢè¦ģ
åıĳ çĶµ
åĬł å¤§
any ahu
æĶ¹ è¿Ľ
ä½ķ ç§į
Ġrel uct
Ġremain ing
ä»įçĦ¶ æĺ¯
è®Ń ç»ĥ
Ġprim arily
åŃ£ åº¦
èĳ¡èĲĦ çīĻ
H INGTON
b as
g ic
çļĦ æ³ķå¾ĭ
ou bt
åĴĮ å°±ä¸ļ
æĪĲ çĨŁ
ĠM e
æ¬§æ´² åĴĮ
æĪĺ åĲİ
ail ed
Ġret ain
Ġser ies
Ġfew er
Ġpar al
Ġhapp ens
ç®Ģ è¨Ģä¹ĭ
åł Ĥ
Ġkeep ing
æķĮ äºº
å¥ĳ çº¦
it ably
è® ¯
æµ ĵ
çī µ
å®ļ å±ħ
od ies
Ġ1 4
æĬķèµĦ äºİ
ç¤¾ä¼ļ çļĦ
é¦ Ĩ
Ġmon op
Ġcent uries
åįĩ é«ĺ
Ġmod erate
ä¸ĢäºĽ äºº
çĽĳç®¡ èĢħ
å£° éŁ³
Ġsuff ered
å·¥ä¸ļ åĮĸ
Ġhistor ic
çĬ¹å¤ª äºº
Ġreject ed
Ġgradu ally
osp ital
æ¸ħæ´ ģ
or ient
Ġto ugh
ç» ©
ment ed
æ² Ł
æķ ¬
Ġse arch
ĠB ang
ire ct
ord ination
çªģ çł´
Ġrisk y
Ġset ting
Ġpar ad
ä¿® æĶ¹
æ¸¸ æĪı
åķĨåĵģ ä»·æł¼
Ġmov ed
Ġuns ustainable
Ġelimin ate
Ġnetw ork
éĽĦ å¿ĥ
ĠPl an
ä¸° å¯Į
A f
çļĦ è´¸æĺĵ
it ness
Ġf ost
Ġn omin
åĴĮ æ¬§æ´²
ä½Ĩ ä¹Ł
Ġsh ap
æĸ° åĬłåĿ¡
Ġch a
Ġgen etic
ä¸¥ å³»
Ġsign ed
Ġfail ing
æŃ¦ åĬĽ
Ġemer ge
Ġev ol
ĠIraq i
Ġaddress ed
èĤ¯ å°¼äºļ
æĹ¶ä»£ çļĦ
Ġstruct ures
Ġincent ive
Ġpurch ases
æĺĤ è´µ
åŃŁ åĬłæĭī
æ²¦ ä¸º
S A
m on
o le
w ork
çļĦ åĬĽéĩı
Ġf rust
Ġst ance
ç»ı åĲĪ
æ° ı
åĩº çĶŁ
ä¸» å®°
åħ¨ åĬĽ
Ġen act
åĲİ æĿ¥
Ġres erve
éĥ¨ ç½²
ord an
Ġunder pin
æĭħ ä¿Ŀ
å¡ «
Ġdisc ipl
è¡¥ åģ¿
Ġeng aged
Ġestablish ing
Ġmargin al
èµĭ äºĪ
ustr ial
å¸ĥé²ģ å¡ŀå°Ķ
WAS HINGTON
Ġt empt
er y
ic ious
il ing
äºĨ åħ¶
åĩ Ń
å°Ĩ æĪĲä¸º
å°± è¿ŀ
ä¸¤ ä½į
èĭ± æł¼åħ°
åºĶè¯¥ æĺ¯
èĻ Ĳ
Ġapp ly
ä¸¾ è¡ĮçļĦ
æĦŁ æŁĵ
Ġadd ed
Ġcost ly
Ġemer gence
èį¯ åĵģ
Ġimplement ation
æİĪ æĿĥ
ij ing
Ġre ward
se curity
ad ow
å°Ĩ åĨĽ
å¤ļ å¹´æĿ¥
åħ¨çĲĥ éĩĳèŀįåį±æľº
Ġdis ag
éĽ ¨
è¿Ĳ è½¬
Ġinclud ed
ä¸»è¦ģ æĺ¯
æ·± åħ¥
çĶļèĩ³ æĺ¯
èĢĥ éªĮ
çħ ½åĬ¨
An y
Ġdev al
æĽ´å¥½ åľ°
æĬĽ å¼ĥ
çļĦçŁ¥ è¯Ĩ
O bama
c arbon
p ort
çļĦ æĿĥåĬĽ
Ġp ushed
åĴĮ è§£
ä¸º åħ¶
Ġse a
æĶ¿åºľ åľ¨
Ġexp licit
ç¤ ¼
Ġpl ants
èĤ ī
å¾Ī æľīåı¯èĥ½
çĤ¹ æĺ¯
ä¸¤ èĢħ
åĲĦ ä¸ª
200 2
æĺ¾ å¾Ĺ
Ġrep orts
Ġsc ope
é¦ĸ è¦ģ
åİĭ åĢĴ
Ġcontro vers
Ġallow s
æĢ¥ éľĢ
Ġident ify
Ġneighb or
æķı æĦŁ
Ġtaxpay ers
F urther
I A
çļĦ æĸ¹æ¡Ī
an ied
ar i
est ed
Ġsu p
åĪ© æģ¯
ĠP er
éķ¿ æĹ¶éĹ´
ĠB en
ĠR om
pt ed
èĤ ĥ
ç¬ ĳ
åĨĽ æĸ¹
Ġhigh light
å¯¼èĩ´ çļĦ
Ġopp osed
ind ing
æ³¢ æĸ¯
Ġide al
Ġrev ol
ä¸įåı¯ æĮģç»Ń
Ġagg ressive
çļĦç© Ĩ
C omp
çļĦ è¦ģæ±Ĥ
Ġw oman
è¿Ļ ä½į
äºº ç¾¤
åĪ° æĿ¥
th rough
Ġwe ight
os n
ç¨ Ģ
du c
éģĵ çĲĨ
Ġper fect
è§Ħ èĮĥ
cess ion
ount ries
ä¸ī åĪĨä¹ĭä¸Ģ
å½¢ æĪĲäºĨ
æ·± åº¦
éħ Ĵ
å¾ĭ å®¾
Ġeduc ational
èı² å¾ĭå®¾
çº· çº·
ç§ĺ å¯Ĩ
Ġmut ual
çº³ç¨İ äºº
I T
çļĦ åıįåºĶ
or se
Ġpro hib
çİ ©
éĿ ¡
Ġas pect
æ´ ª
æĮ ½
Ġv ia
ä½ľ çī©
ä¸ĭ äºĨ
åħĭ æĸ¯
æ¬§çĽŁ æĪĲåĳĺåĽ½
çł ĸ
Ġar ch
å¯Į æľī
çºª å¿µ
æħ ¨
ĠY emen
Ġide ological
å®¡ åĪ¤
Ġess entially
æ¯į äº²
å¤ĸæ±ĩ åĤ¨å¤ĩ
Ġvolat ility
åīįæīĢæľª æľīçļĦ
ar ak
åľ¨ å¾Īå¤§ç¨ĭåº¦ä¸Ĭ
ä¸Ģ åĽ½
ol a
ce an
Ġex am
åĩº åı°
un is
æĹł äºº
å¤ĸ åĽ´
ult ane
æĺİ å¹´
ĠK y
å¼º åĬ¿
ç½Ĺ å§Ĩ
å¼ķ å¯¼
æīį ä¼ļ
çĶŁäº§ æĢ»åĢ¼
åĮĹ éĥ¨
ç§ģ èĲ¥
éĺ² å¾¡
Ġcond em
Ġsurpris ing
Ġintrodu ced
Ġchem ical
A m
N ever
a ment
u ff
et her
åĽ½å®¶ å®īåħ¨
é¡ µ
åħ³ å¿ĥ
Ġcont ent
çī¹ å®ļ
éĤ£ ä¸ª
è¿ĻäºĽ äºº
ĠJ ust
ä½İ åĪ©çİĩ
å¤± æľĽ
Ġ19 4
Ġqu al
ĠO ECD
ax im
å®Į æķ´
Ġadv is
éķ¿æľŁ ä»¥æĿ¥
ĠCh ance
èĭı ä¸¹
Ġpay ing
be ing
Ġtarget ed
åŁºç¡Ģè®¾æĸ½ æĬķèµĦ
Ġrestrict ions
çļĦ åŁºæľ¬
Ġw ider
ro te
Ġl ob
åĮ ¹
Ġpro sec
20 20
ac ing
å± ĭ
éĺ ģ
