{
  "version": "1.0",
  "truncation": null,
  "padding": null,
  "added_tokens": [
    {
      "id": 0,
      "content": "<s>",
      "single_word": false,
      "lstrip": false,
      "rstrip": false,
      "normalized": true,
      "special": true
    },
    {
      "id": 1,
      "content": "<pad>",
      "single_word": false,
      "lstrip": false,
      "rstrip": false,
      "normalized": true,
      "special": true
    },
    {
      "id": 2,
      "content": "</s>",
      "single_word": false,
      "lstrip": false,
      "rstrip": false,
      "normalized": true,
      "special": true
    },
    {
      "id": 3,
      "content": "<unk>",
      "single_word": false,
      "lstrip": false,
      "rstrip": false,
      "normalized": true,
      "special": true
    },
    {
      "id": 4,
      "content": "<mask>",
      "single_word": false,
      "lstrip": true,
      "rstrip": false,
      "normalized": false,
      "special": true
    }
  ],
  "normalizer": null,
  "pre_tokenizer": {
    "type": "ByteLevel",
    "add_prefix_space": false,
    "trim_offsets": true,
    "use_regex": true
  },
  "post_processor": {
    "type": "RobertaProcessing",
    "sep": [
      "</s>",
      2
    ],
    "cls": [
      "<s>",
      0
    ],
    "trim_offsets": true,
    "add_prefix_space": false
  },
  "decoder": {
    "type": "ByteLevel",
    "add_prefix_space": true,
    "trim_offsets": true,
    "use_regex": true
  },
  "model": {
    "type": "BPE",
    "dropout": null,
    "unk_token": null,
    "continuing_subword_prefix": "",
    "end_of_word_suffix": "",
    "fuse_unk": false,
    "byte_fallback": false,
    "ignore_merges": false,
    "vocab": {
      "<s>": 0,
      "<pad>": 1,
      "</s>": 2,
      "<unk>": 3,
      "<mask>": 4,
      "!": 5,
      "\"": 6,
      "#": 7,
      "$": 8,
      "%": 9,
      "&": 10,
      "'": 11,
      "(": 12,
      ")": 13,
      "*": 14,
      "+": 15,
      ",": 16,
      "-": 17,
      ".": 18,
      "/": 19,
      "0": 20,
      "1": 21,
      "2": 22,
      "3": 23,
      "4": 24,
      "5": 25,
      "6": 26,
      "7": 27,
      "8": 28,
      "9": 29,
      ":": 30,
      ";": 31,
      "<": 32,
      "=": 33,
      ">": 34,
      "?": 35,
      "@": 36,
      "A": 37,
      "B": 38,
      "C": 39,
      "D": 40,
      "E": 41,
      "F": 42,
      "G": 43,
      "H": 44,
      "I": 45,
      "J": 46,
      "K": 47,
      "L": 48,
      "M": 49,
      "N": 50,
      "O": 51,
      "P": 52,
      "Q": 53,
      "R": 54,
      "S": 55,
      "T": 56,
      "U": 57,
      "V": 58,
      "W": 59,
      "X": 60,
      "Y": 61,
      "Z": 62,
      "[": 63,
      "\\": 64,
      "]": 65,
      "^": 66,
      "_": 67,
      "`": 68,
      "a": 69,
      "b": 70,
      "c": 71,
      "d": 72,
      "e": 73,
      "f": 74,
      "g": 75,
      "h": 76,
      "i": 77,
      "j": 78,
      "k": 79,
      "l": 80,
      "m": 81,
      "n": 82,
      "o": 83,
      "p": 84,
      "q": 85,
      "r": 86,
      "s": 87,
      "t": 88,
      "u": 89,
      "v": 90,
      "w": 91,
      "x": 92,
      "y": 93,
      "z": 94,
      "{": 95,
      "|": 96,
      "}": 97,
      "~": 98,
      "¡": 99,
      "¢": 100,
      "£": 101,
      "¤": 102,
      "¥": 103,
      "¦": 104,
      "§": 105,
      "¨": 106,
      "©": 107,
      "ª": 108,
      "«": 109,
      "¬": 110,
      "®": 111,
      "¯": 112,
      "°": 113,
      "±": 114,
      "²": 115,
      "³": 116,
      "´": 117,
      "µ": 118,
      "¶": 119,
      "·": 120,
      "¸": 121,
      "¹": 122,
      "º": 123,
      "»": 124,
      "¼": 125,
      "½": 126,
      "¾": 127,
      "¿": 128,
      "À": 129,
      "Á": 130,
      "Â": 131,
      "Ã": 132,
      "Ä": 133,
      "Å": 134,
      "Æ": 135,
      "Ç": 136,
      "È": 137,
      "É": 138,
      "Ê": 139,
      "Ë": 140,
      "Ì": 141,
      "Í": 142,
      "Î": 143,
      "Ï": 144,
      "Ð": 145,
      "Ñ": 146,
      "Ò": 147,
      "Ó": 148,
      "Ô": 149,
      "Õ": 150,
      "Ö": 151,
      "×": 152,
      "Ø": 153,
      "Ù": 154,
      "Ú": 155,
      "Û": 156,
      "Ü": 157,
      "Ý": 158,
      "Þ": 159,
      "ß": 160,
      "à": 161,
      "á": 162,
      "â": 163,
      "ã": 164,
      "ä": 165,
      "å": 166,
      "æ": 167,
      "ç": 168,
      "è": 169,
      "é": 170,
      "ê": 171,
      "ë": 172,
      "ì": 173,
      "í": 174,
      "î": 175,
      "ï": 176,
      "ð": 177,
      "ñ": 178,
      "ò": 179,
      "ó": 180,
      "ô": 181,
      "õ": 182,
      "ö": 183,
      "÷": 184,
      "ø": 185,
      "ù": 186,
      "ú": 187,
      "û": 188,
      "ü": 189,
      "ý": 190,
      "þ": 191,
      "ÿ": 192,
      "Ā": 193,
      "ā": 194,
      "Ă": 195,
      "ă": 196,
      "Ą": 197,
      "ą": 198,
      "Ć": 199,
      "ć": 200,
      "Ĉ": 201,
      "ĉ": 202,
      "Ċ": 203,
      "ċ": 204,
      "Č": 205,
      "č": 206,
      "Ď": 207,
      "ď": 208,
      "Đ": 209,
      "đ": 210,
      "Ē": 211,
      "ē": 212,
      "Ĕ": 213,
      "ĕ": 214,
      "Ė": 215,
      "ė": 216,
      "Ę": 217,
      "ę": 218,
      "Ě": 219,
      "ě": 220,
      "Ĝ": 221,
      "ĝ": 222,
      "Ğ": 223,
      "ğ": 224,
      "Ġ": 225,
      "ġ": 226,
      "Ģ": 227,
      "ģ": 228,
      "Ĥ": 229,
      "ĥ": 230,
      "Ħ": 231,
      "ħ": 232,
      "Ĩ": 233,
      "ĩ": 234,
      "Ī": 235,
      "ī": 236,
      "Ĭ": 237,
      "ĭ": 238,
      "Į": 239,
      "į": 240,
      "İ": 241,
      "ı": 242,
      "Ĳ": 243,
      "ĳ": 244,
      "Ĵ": 245,
      "ĵ": 246,
      "Ķ": 247,
      "ķ": 248,
      "ĸ": 249,
      "Ĺ": 250,
      "ĺ": 251,
      "Ļ": 252,
      "ļ": 253,
      "Ľ": 254,
      "ľ": 255,
      "Ŀ": 256,
      "ŀ": 257,
      "Ł": 258,
      "ł": 259,
      "Ń": 260,
      "Ġt": 261,
      "in": 262,
      "Ġa": 263,
      "ä¸": 264,
      "he": 265,
      "re": 266,
      "çļ": 267,
      "çļĦ": 268,
      "on": 269,
      "Ġthe": 270,
      "ï¼": 271,
      "er": 272,
      "at": 273,
      "äº": 274,
      "en": 275,
      "ï¼Į": 276,
      "ãĢ": 277,
      "Ġs": 278,
      "Ġc": 279,
      "âĢ": 280,
      "Ġo": 281,
      "it": 282,
      "an": 283,
      "es": 284,
      "ä»": 285,
      "is": 286,
      "ãĢĤ": 287,
      "Ġw": 288,
      "al": 289,
      "Ġp": 290,
      "or": 291,
      "Ġb": 292,
      "Ġin": 293,
      "åħ": 294,
      "æľ": 295,
      "åı": 296,
      "ed": 297,
      "Ġf": 298,
      "nd": 299,
      "ing": 300,
      "åĽ": 301,
      "Ġto": 302,
      "ic": 303,
      "ar": 304,
      "Ġof": 305,
      "ion": 306,
      "Ġm": 307,
      "è¿": 308,
      "ro": 309,
      "åľ": 310,
      "å¤": 311,
      "åĪ": 312,
      "å®": 313,
      "Ġd": 314,
      "Ġand": 315,
      "ou": 316,
      "æĺ": 317,
      "Ġth": 318,
      "åĽ½": 319,
      "ent": 320,
      "ç»": 321,
      "le": 322,
      "Ġe": 323,
      "st": 324,
      "ä½": 325,
      "Ġh": 326,
      "Ġre": 327,
      "åĬ": 328,
      "om": 329,
      "Ġn": 330,
      "ä¹": 331,
      "å°": 332,
      "il": 333,
      "åľ¨": 334,
      "æĺ¯": 335,
      "ä¼": 336,
      "as": 337,
      "ä¸Ģ": 338,
      "æĶ": 339,
      "ly": 340,
      "æĸ": 341,
      "ve": 342,
      "åĲ": 343,
      "å¹": 344,
      "æĪ": 345,
      "Ġl": 346,
      "Ġbe": 347,
      "åĴ": 348,
      "åĴĮ": 349,
      "è®": 350,
      "Ġg": 351,
      "ct": 352,
      "ut": 353,
      "Ġis": 354,
      "ä¸į": 355,
      "èĢ": 356,
      "æĿ": 357,
      "åį": 358,
      "ol": 359,
      "å¯": 360,
      "ation": 361,
      "Ġthat": 362,
      "çĶ": 363,
      "æĹ": 364,
      "è¿Ļ": 365,
      "im": 366,
      "éĩ": 367,
      "æľī": 368,
      "åº": 369,
      "äºº": 370,
      "âĢĻ": 371,
      "çĽ": 372,
      "è¯": 373,
      "ce": 374,
      "ĥ½": 375,
      "æī": 376,
      "äºĨ": 377,
      "âĢĶ": 378,
      "se": 379,
      "ra": 380,
      "ot": 381,
      "æŃ": 382,
      "ĠâĢ": 383,
      "ver": 384,
      "å¾": 385,
      "Ġde": 386,
      "ur": 387,
      "åĨ": 388,
      "å¸": 389,
      "ä¸º": 390,
      "å·": 391,
      "id": 392,
      "Ġfor": 393,
      "åĩ": 394,
      "è´": 395,
      "ment": 396,
      "è¡": 397,
      "éĢ": 398,
      "ld": 399,
      "ig": 400,
      "ä¸Ń": 401,
      "ow": 402,
      "et": 403,
      "Ġit": 404,
      "æĢ": 405,
      "Ġon": 406,
      "æĶ¿": 407,
      "å¼": 408,
      "å¤§": 409,
      "Ġst": 410,
      "ä»¥": 411,
      "åĮ": 412,
      "ies": 413,
      "èµ": 414,
      "ä»¬": 415,
      "æł": 416,
      "ad": 417,
      "æ¬": 418,
      "ch": 419,
      "nt": 420,
      "ä¼ļ": 421,
      "Ġu": 422,
      "Ġpro": 423,
      "èĥ½": 424,
      "ç»ı": 425,
      "ir": 426,
      "å¯¹": 427,
      "ul": 428,
      "Ġcon": 429,
      "çİ": 430,
      "ill": 431,
      "ate": 432,
      "å¹´": 433,
      "æµ": 434,
      "èĩ": 435,
      "æ²": 436,
      "æķ": 437,
      "æŀ": 438,
      "¦ģ": 439,
      "éĻ": 440,
      "é¢": 441,
      "ç¾": 442,
      "æ°": 443,
      "æĬ": 444,
      "The": 445,
      "éĿ": 446,
      "Ġas": 447,
      "ä¸ª": 448,
      "åı¯": 449,
      "è¦ģ": 450,
      "è§": 451,
      "ĠâĢĵ": 452,
      "æĿ¥": 453,
      "èĢĮ": 454,
      "æ³": 455,
      "ore": 456,
      "âĢĿ": 457,
      "ers": 458,
      "ç¾İ": 459,
      "æ´": 460,
      "ä»ĸ": 461,
      "ith": 462,
      "æĭ": 463,
      "å®¶": 464,
      "Ġwh": 465,
      "est": 466,
      "pe": 467,
      "ĠC": 468,
      "ity": 469,
      "éĹ": 470,
      "å½": 471,
      "Ġal": 472,
      "ç§": 473,
      "åħ¶": 474,
      "Ġr": 475,
      "ä½Ĩ": 476,
      "her": 477,
      "ä¿": 478,
      "Ġsu": 479,
      "Ġcou": 480,
      "ãĢģ": 481,
      "ist": 482,
      "è¡Į": 483,
      "Ġwith": 484,
      "åŃ": 485,
      "ĠA": 486,
      "ge": 487,
      "ay": 488,
      "æĮ": 489,
      "ä¸Ĭ": 490,
      "Ġex": 491,
      "20": 492,
      "äºİ": 493,
      "Ġare": 494,
      "å¿": 495,
      "ort": 496,
      "lo": 497,
      "us": 498,
      "å¦": 499,
      "Ġan": 500,
      "ess": 501,
      "ĠS": 502,
      "ĠE": 503,
      "æĪĲ": 504,
      "am": 505,
      "åĪ°": 506,
      "ab": 507,
      "Ġne": 508,
      "ial": 509,
      "ä¹Ł": 510,
      "åľ°": 511,
      "æ¬§": 512,
      "çĲ": 513,
      "con": 514,
      "ive": 515,
      "ĠI": 516,
      "ter": 517,
      "ain": 518,
      "Ġnot": 519,
      "res": 520,
      "Ġha": 521,
      "if": 522,
      "å¦Ĥ": 523,
      "åĢ": 524,
      "æĽ": 525,
      "th": 526,
      "åĩº": 527,
      "åĬĽ": 528,
      "Ġwe": 529,
      "iv": 530,
      "çº": 531,
      "æİ": 532,
      "åıĳ": 533,
      "åĳ": 534,
      "ke": 535,
      "Ġcom": 536,
      "âĢĶâĢĶ": 537,
      "ĠU": 538,
      "å°Ĩ": 539,
      "å®ŀ": 540,
      "ä¸»": 541,
      "æµİ": 542,
      "æīĢ": 543,
      "å¤ļ": 544,
      "æĹ¶": 545,
      "æ¯": 546,
      "Ġby": 547,
      "ç»ıæµİ": 548,
      "em": 549,
      "çŃ": 550,
      "åī": 551,
      "åİ": 552,
      "Ġhas": 553,
      "æ³ķ": 554,
      "çī": 555,
      "ç¾İåĽ½": 556,
      "åĽ½å®¶": 557,
      "Ġhave": 558,
      "åĪ©": 559,
      "å¥": 560,
      "ould": 561,
      "æ°ĳ": 562,
      "ac": 563,
      "Ġse": 564,
      "pp": 565,
      "çİ°": 566,
      "æĸ¹": 567,
      "å¢": 568,
      "æĦ": 569,
      "and": 570,
      "conom": 571,
      "åħ¨": 572,
      "åŁ": 573,
      "Ġle": 574,
      "çĶŁ": 575,
      "æĸ¯": 576,
      "Ġpol": 577,
      "äºĽ": 578,
      "ï¼Ī": 579,
      "èµĦ": 580,
      "qu": 581,
      "èĩª": 582,
      "ï¼ī": 583,
      "æĪĳ": 584,
      "å°±": 585,
      "Ġsh": 586,
      "åĽł": 587,
      "oc": 588,
      "Ġwill": 589,
      "å±": 590,
      "æľĢ": 591,
      "æĽ´": 592,
      "è¿ĩ": 593,
      "ç«": 594,
      "æĢ§": 595,
      "Ġwor": 596,
      "Ġv": 597,
      "åĬ¨": 598,
      "èĢħ": 599,
      "æŃ¤": 600,
      "ä¹ĭ": 601,
      "Ġcount": 602,
      "over": 603,
      "igh": 604,
      "Ġeconom": 605,
      "ia": 606,
      "çķ": 607,
      "éķ": 608,
      "ust": 609,
      "um": 610,
      "æľ¬": 611,
      "rom": 612,
      "ap": 613,
      "Ġen": 614,
      "æĥ": 615,
      "å¾Ĺ": 616,
      "ĠP": 617,
      "å¹¶": 618,
      "éĩį": 619,
      "ical": 620,
      "Ġor": 621,
      "âĢľ": 622,
      "op": 623,
      "os": 624,
      "ä¾": 625,
      "ost": 626,
      "ant": 627,
      "è¾": 628,
      "éķ¿": 629,
      "Ġat": 630,
      "æ´²": 631,
      "uro": 632,
      "åĵ": 633,
      "Ġcountr": 634,
      "å®ļ": 635,
      "Ġfrom": 636,
      "od": 637,
      "Ġim": 638,
      "åĪ¶": 639,
      "art": 640,
      "ions": 641,
      "åĮĸ": 642,
      "éĺ": 643,
      "iz": 644,
      "Ġhe": 645,
      "æľº": 646,
      "æĸ°": 647,
      "Ġits": 648,
      "ç®": 649,
      "ĠB": 650,
      "ĠG": 651,
      "éģ": 652,
      "æı": 653,
      "ç¨": 654,
      "ĠM": 655,
      "åĬł": 656,
      "Ġtheir": 657,
      "el": 658,
      "çĶ¨": 659,
      "åĲĮ": 660,
      "ä¸İ": 661,
      "Ġy": 662,
      "Ġmore": 663,
      "é¡": 664,
      "åīį": 665,
      "Ġch": 666,
      "ast": 667,
      "åº¦": 668,
      "ä¸Ģä¸ª": 669,
      "ome": 670,
      "ong": 671,
      "ä¸ļ": 672,
      "ä¸ĸ": 673,
      "ä½ľ": 674,
      "ĠâĢľ": 675,
      "åĪĨ": 676,
      "un": 677,
      "ib": 678,
      "å½ĵ": 679,
      "ure": 680,
      "è¿Ľ": 681,
      "äºĭ": 682,
      "ans": 683,
      "æĮģ": 684,
      "çĦ": 685,
      "è¶": 686,
      "å¢ŀ": 687,
      "åĲİ": 688,
      "åħ¬": 689,
      "éĥ½": 690,
      "Ġinc": 691,
      "ä¸ĭ": 692,
      "Ġint": 693,
      "äº§": 694,
      "hin": 695,
      "Ġun": 696,
      "éĤ": 697,
      "æŀľ": 698,
      "ak": 699,
      "æŃ£": 700,
      "çĦ¶": 701,
      "ther": 702,
      "Ġres": 703,
      "éĩĳ": 704,
      "çĲĨ": 705,
      "åºĶ": 706,
      "ff": 707,
      "ç½": 708,
      "éļ": 709,
      "red": 710,
      "éľ": 711,
      "æ²»": 712,
      "å®ĥ": 713,
      "éĹ®": 714,
      "ä½ĵ": 715,
      "ich": 716,
      "æĪĳä»¬": 717,
      "æł·": 718,
      "åıĬ": 719,
      "åºľ": 720,
      "åħ³": 721,
      "æĶ¿åºľ": 722,
      "Ġwould": 723,
      "è¢": 724,
      "éĿ¢": 725,
      "Ġwas": 726,
      "Ġimp": 727,
      "éĥ": 728,
      "æĹł": 729,
      "çļĦç": 730,
      "urope": 731,
      "But": 732,
      "èģ": 733,
      "mer": 734,
      "ect": 735,
      "éĥ¨": 736,
      "è°": 737,
      "end": 738,
      "å¤ĸ": 739,
      "ru": 740,
      "æ¯Ķ": 741,
      "ary": 742,
      "é«": 743,
      "overn": 744,
      "ä¸ŃåĽ½": 745,
      "åģ": 746,
      "ear": 747,
      "gh": 748,
      "é«ĺ": 749,
      "ĠR": 750,
      "æ±": 751,
      "pt": 752,
      "all": 753,
      "Ġcan": 754,
      "Ġ1": 755,
      "Ġthis": 756,
      "ä»ĸä»¬": 757,
      "Ġag": 758,
      "Ġab": 759,
      "åı¯èĥ½": 760,
      "æĦı": 761,
      "çĽ¸": 762,
      "ight": 763,
      "ä»İ": 764,
      "é¢ĺ": 765,
      "çŃĸ": 766,
      "æ¬§æ´²": 767,
      "ance": 768,
      "row": 769,
      "çķĮ": 770,
      "åĲĪ": 771,
      "åħ¥": 772,
      "åŁº": 773,
      "anc": 774,
      "çĿ": 775,
      "Ġad": 776,
      "ĠEurope": 777,
      "ĠUS": 778,
      "æıĲ": 779,
      "åľº": 780,
      "ous": 781,
      "ç§į": 782,
      "Ġthey": 783,
      "å¹³": 784,
      "å·²": 785,
      "In": 786,
      "ud": 787,
      "å¯¼": 788,
      "Ġgovern": 789,
      "è¿ĺ": 790,
      "æĪĺ": 791,
      "åĿ": 792,
      "çľ": 793,
      "æģ": 794,
      "æľŁ": 795,
      "éĹ®é¢ĺ": 796,
      "Ġthan": 797,
      "Ġcont": 798,
      "æĿĥ": 799,
      "ĠChin": 800,
      "ä¹ī": 801,
      "ational": 802,
      "çī¹": 803,
      "Ġall": 804,
      "åĨ³": 805,
      "éľĢ": 806,
      "out": 807,
      "Ġwhich": 808,
      "äºļ": 809,
      "ard": 810,
      "ĠF": 811,
      "du": 812,
      "èĭ": 813,
      "rou": 814,
      "ç³": 815,
      "çĶ±": 816,
      "éĤ£": 817,
      "Ġ20": 818,
      "åıĺ": 819,
      "able": 820,
      "è¿Ļä¸Ģ": 821,
      "çĽ®": 822,
      "ip": 823,
      "cc": 824,
      "Ġcountries": 825,
      "ĠT": 826,
      "è½": 827,
      "ç®¡": 828,
      "ç¡": 829,
      "ates": 830,
      "ations": 831,
      "å¼Ģ": 832,
      "ç»Ł": 833,
      "éĢļ": 834,
      "è¯¥": 835,
      "çĿĢ": 836,
      "åĮº": 837,
      "ä¿Ŀ": 838,
      "è¢«": 839,
      "çĲĥ": 840,
      "æ²¡": 841,
      "ated": 842,
      "ign": 843,
      "æĭī": 844,
      "Ġcomp": 845,
      "åıį": 846,
      "ie": 847,
      "Ġfin": 848,
      "éĢī": 849,
      "è¯´": 850,
      "æķ°": 851,
      "åŃ¦": 852,
      "ere": 853,
      "å°Ķ": 854,
      "æĻ": 855,
      "ä¸ĸçķĮ": 856,
      "Ġgovernment": 857,
      "æį": 858,
      "00": 859,
      "Ġpr": 860,
      "Ġwhe": 861,
      "èģĶ": 862,
      "å·´": 863,
      "ult": 864,
      "å¸Ĥ": 865,
      "ä»»": 866,
      "åı¯ä»¥": 867,
      "åıĹ": 868,
      "ark": 869,
      "çĽŁ": 870,
      "å¾·": 871,
      "ĠW": 872,
      "åħĭ": 873,
      "æĶ¯": 874,
      "åĨħ": 875,
      "any": 876,
      "lic": 877,
      "é¢Ĩ": 878,
      "æĺİ": 879,
      "æĢ»": 880,
      "Ġworld": 881,
      "Ġ(": 882,
      "éĹ´": 883,
      "å·¥": 884,
      "Ġbut": 885,
      "éĿŀ": 886,
      "Ġfa": 887,
      "ide": 888,
      "ä»£": 889,
      "ks": 890,
      "Ġrec": 891,
      "Ġyear": 892,
      "çİĩ": 893,
      "èĥ": 894,
      "ĠN": 895,
      "Th": 896,
      "Ġj": 897,
      "ree": 898,
      "æĪĸ": 899,
      "ä½¿": 900,
      "åĬ¡": 901,
      "è¿ĻäºĽ": 902,
      "Ġdo": 903,
      "æĹ¥": 904,
      "Ġpolit": 905,
      "ven": 906,
      "æĶ¿æ²»": 907,
      "åħĥ": 908,
      "ike": 909,
      "ress": 910,
      "è§£": 911,
      "æĶ¿çŃĸ": 912,
      "Ġexp": 913,
      "å§": 914,
      "bal": 915,
      "ç¤": 916,
      "ence": 917,
      "orm": 918,
      "åħ¨çĲĥ": 919,
      "Ġpart": 920,
      "Ġdis": 921,
      "æĬķ": 922,
      "æ²¡æľī": 923,
      "ç»ĵ": 924,
      "one": 925,
      "ag": 926,
      "è®®": 927,
      "Ġgrow": 928,
      "reat": 929,
      "éĩı": 930,
      "Ġtr": 931,
      "ç¼": 932,
      "ç³»": 933,
      "æ¶": 934,
      "å»": 935,
      "Ġreg": 936,
      "å¿ħ": 937,
      "ub": 938,
      "ian": 939,
      "è®¤": 940,
      "Ġpolic": 941,
      "Ġeconomic": 942,
      "ĠChina": 943,
      "éĻħ": 944,
      "ime": 945,
      "çŁ": 946,
      "ç«ĭ": 947,
      "¥¿": 948,
      "Ġbeen": 949,
      "Ġother": 950,
      "åĳĺ": 951,
      "Ġbec": 952,
      "çĤ": 953,
      "Ġso": 954,
      "å¢ŀéķ¿": 955,
      "æ¸": 956,
      "lobal": 957,
      "ep": 958,
      "ç©": 959,
      "Ġpe": 960,
      "è¥¿": 961,
      "æĶ¹": 962,
      "è®¸": 963,
      "è®©": 964,
      "Ġpl": 965,
      "Ġout": 966,
      "ä¼Ĭ": 967,
      "ĠD": 968,
      "èĤ": 969,
      "èŀ": 970,
      "ction": 971,
      "å·²ç»ı": 972,
      "åħ±": 973,
      "ä¿¡": 974,
      "èŀį": 975,
      "Ġnew": 976,
      "ĠK": 977,
      "og": 978,
      "ä»·": 979,
      "ine": 980,
      "èµ·": 981,
      "éĵ": 982,
      "å±ķ": 983,
      "ĠJ": 984,
      "èī": 985,
      "age": 986,
      "Ġinv": 987,
      "åıª": 988,
      "Ġdec": 989,
      "é©": 990,
      "æĶ¶": 991,
      "erm": 992,
      "åİ»": 993,
      "ä¹Ī": 994,
      "è®¡": 995,
      "Â·": 996,
      "ris": 997,
      "è¡¨": 998,
      "ll": 999,
      "ile": 1000,
      "çĸ": 1001,
      "ä¸»ä¹ī": 1002,
      "å¾Ī": 1003,
      "å¿ĥ": 1004,
      "ors": 1005,
      "å¼º": 1006,
      "Ġover": 1007,
      "éľĢè¦ģ": 1008,
      "Ġwho": 1009,
      "Ġme": 1010,
      "æĥħ": 1011,
      "åıĸ": 1012,
      "äºī": 1013,
      "Ġglobal": 1014,
      "Ġinter": 1015,
      "åį±": 1016,
      "è®º": 1017,
      "ens": 1018,
      "are": 1019,
      "Ġone": 1020,
      "Ġdem": 1021,
      "è·": 1022,
      "æ±Ĥ": 1023,
      "æº": 1024,
      "ally": 1025,
      "meric": 1026,
      "ition": 1027,
      "å¸¸": 1028,
      "åħ¶ä»ĸ": 1029,
      "éĽ": 1030,
      "Ġlead": 1031,
      "so": 1032,
      "åĲĳ": 1033,
      "rad": 1034,
      "ower": 1035,
      "ï¼ļ": 1036,
      "ç´": 1037,
      "ä½İ": 1038,
      "ern": 1039,
      "åĢº": 1040,
      "arket": 1041,
      "å¦Ĥæŀľ": 1042,
      "å¤±": 1043,
      "å¥½": 1044,
      "è¾¾": 1045,
      "æŁ": 1046,
      "åĽłä¸º": 1047,
      "çĤ¹": 1048,
      "form": 1049,
      "Ġund": 1050,
      "å¸Ĥåľº": 1051,
      "æĺĵ": 1052,
      "éĩĮ": 1053,
      "ä»¥åıĬ": 1054,
      "ä½ķ": 1055,
      "é£": 1056,
      "lop": 1057,
      "å°ĳ": 1058,
      "velop": 1059,
      "ue": 1060,
      "ä»Ĭ": 1061,
      "Ġind": 1062,
      "çº¦": 1063,
      "å®ī": 1064,
      "Ġshould": 1065,
      "Ġpolitical": 1066,
      "ack": 1067,
      "Ġonly": 1068,
      "ren": 1069,
      "æĸ½": 1070,
      "ç¡®": 1071,
      "Ġeff": 1072,
      "Ġalso": 1073,
      "ç¨ĭ": 1074,
      "éļ¾": 1075,
      "èİ": 1076,
      "æľª": 1077,
      "æķĻ": 1078,
      "éĢł": 1079,
      "au": 1080,
      "Ġneed": 1081,
      "ident": 1082,
      "ĠH": 1083,
      "ire": 1084,
      "ility": 1085,
      "å»º": 1086,
      "ç»Ħ": 1087,
      "èĲ": 1088,
      "Ġhis": 1089,
      "èĩ³": 1090,
      "Ġgrowth": 1091,
      "ake": 1092,
      "cy": 1093,
      "ose": 1094,
      "éģĵ": 1095,
      "Ġris": 1096,
      "Ġlike": 1097,
      "Ġno": 1098,
      "Ġcomm": 1099,
      "Ġfinanc": 1100,
      "reas": 1101,
      "åħ°": 1102,
      "our": 1103,
      "èĩ´": 1104,
      "Ġabout": 1105,
      "éĵ¶": 1106,
      "Ġpre": 1107,
      "ĠAmeric": 1108,
      "ities": 1109,
      "ism": 1110,
      "æ¬¡": 1111,
      "ä¸¤": 1112,
      "æŀĦ": 1113,
      "éĵ¶è¡Į": 1114,
      "ĠUn": 1115,
      "ä½į": 1116,
      "è¿ĳ": 1117,
      "éĩĳèŀį": 1118,
      "Ġcould": 1119,
      "æł¼": 1120,
      "Ġcons": 1121,
      "æłĩ": 1122,
      "ople": 1123,
      "ç½Ĺ": 1124,
      "æĬķèµĦ": 1125,
      "Ġmost": 1126,
      "é¡»": 1127,
      "é¢Ħ": 1128,
      "¾ä¼ļ": 1129,
      "fic": 1130,
      "ç±": 1131,
      "çŃī": 1132,
      "Ġ19": 1133,
      "å¿ħé¡»": 1134,
      "çĽĬ": 1135,
      "å¼ı": 1136,
      "ĠL": 1137,
      "åįģ": 1138,
      "æ¬§çĽŁ": 1139,
      "Ġper": 1140,
      "Ġbet": 1141,
      "Ġthere": 1142,
      "åĬ©": 1143,
      "åĪĻ": 1144,
      "æ¡": 1145,
      "çł": 1146,
      "Ġmarket": 1147,
      "é©¬": 1148,
      "ited": 1149,
      "ç»Ń": 1150,
      "åı£": 1151,
      "Ġsuch": 1152,
      "å½±": 1153,
      "Ġsp": 1154,
      "ank": 1155,
      "æºĲ": 1156,
      "Ġsupp": 1157,
      "ublic": 1158,
      "åıĳå±ķ": 1159,
      "è§Ħ": 1160,
      "åĽ½éĻħ": 1161,
      "Ġdevelop": 1162,
      "ä¸Ķ": 1163,
      "ord": 1164,
      "éĿ©": 1165,
      "Ġnow": 1166,
      "ood": 1167,
      "Ġlong": 1168,
      "uch": 1169,
      "Ġstr": 1170,
      "Ġinvest": 1171,
      "å¸ģ": 1172,
      "æİ¥": 1173,
      "æĥ³": 1174,
      "ious": 1175,
      "åħļ": 1176,
      "éĻ©": 1177,
      "èĭ±": 1178,
      "oll": 1179,
      "è´§": 1180,
      "Ġpeople": 1181,
      "ative": 1182,
      "éĶ": 1183,
      "éĺ¿": 1184,
      "ange": 1185,
      "æľĹ": 1186,
      "ä¾Ľ": 1187,
      "ments": 1188,
      "Ġacc": 1189,
      "Ġqu": 1190,
      "åĵį": 1191,
      "Ġwere": 1192,
      "Ġrel": 1193,
      "æķĪ": 1194,
      "ew": 1195,
      "æľĪ": 1196,
      "åĲĦ": 1197,
      "Ġcl": 1198,
      "ç¬": 1199,
      "ution": 1200,
      "Ġeven": 1201,
      "Ġthem": 1202,
      "åģļ": 1203,
      "Ġcountry": 1204,
      "ish": 1205,
      "åĩł": 1206,
      "old": 1207,
      "Ġyears": 1208,
      "Ġpolicy": 1209,
      "åŃĲ": 1210,
      "Ġfinancial": 1211,
      "åĨĽ": 1212,
      "æĶ¯æĮģ": 1213,
      "ble": 1214,
      "å°½": 1215,
      "ä½Ĩæĺ¯": 1216,
      "æĶ¾": 1217,
      "Ġif": 1218,
      "uc": 1219,
      "ä¸įæĺ¯": 1220,
      "Ġsome": 1221,
      "æŀģ": 1222,
      "lect": 1223,
      "åį±æľº": 1224,
      "æĻ®": 1225,
      "Ġar": 1226,
      "Ġk": 1227,
      "ber": 1228,
      "amp": 1229,
      "åĮħ": 1230,
      "åºĶè¯¥": 1231,
      "ces": 1232,
      "Ġup": 1233,
      "Ġunder": 1234,
      "Ġem": 1235,
      "Ġmany": 1236,
      "èį": 1237,
      "Ġrem": 1238,
      "è£": 1239,
      "Ġincreas": 1240,
      "ric": 1241,
      "åĨµ": 1242,
      "çľĭ": 1243,
      "å½±åĵį": 1244,
      "Ġcap": 1245,
      "ace": 1246,
      "éĩįè¦ģ": 1247,
      "ä»ħ": 1248,
      "æ¶Ī": 1249,
      "ach": 1250,
      "ough": 1251,
      "å¸Į": 1252,
      "bt": 1253,
      "und": 1254,
      "è¿Ļæł·": 1255,
      "rit": 1256,
      "int": 1257,
      "Ġinf": 1258,
      "ons": 1259,
      "19": 1260,
      "åľ°åĮº": 1261,
      "ause": 1262,
      "ĠEuropean": 1263,
      "uss": 1264,
      "æ´»": 1265,
      "å¸ĥ": 1266,
      "Ġcur": 1267,
      "Ġsy": 1268,
      "è§Ĥ": 1269,
      "é¢Ĩå¯¼": 1270,
      "ang": 1271,
      "ame": 1272,
      "ä»Ģ": 1273,
      "èĻ": 1274,
      "Ġwhen": 1275,
      "å¤Ł": 1276,
      "èº": 1277,
      "åĽłæŃ¤": 1278,
      "av": 1279,
      "Ġapp": 1280,
      "å®ĥä»¬": 1281,
      "åĢĻ": 1282,
      "å¤©": 1283,
      "çĹ": 1284,
      "This": 1285,
      "ç¤¾ä¼ļ": 1286,
      "lear": 1287,
      "ice": 1288,
      "ĠSt": 1289,
      "åĩı": 1290,
      "Ġwork": 1291,
      "å¤§çļĦ": 1292,
      "è¶Ĭ": 1293,
      "æ¨": 1294,
      "per": 1295,
      "ç»Ļ": 1296,
      "eral": 1297,
      "åį³": 1298,
      "çĽ´": 1299,
      "ass": 1300,
      "ĠO": 1301,
      "ï¼Ł": 1302,
      "ä¸ľ": 1303,
      "Ġeconomy": 1304,
      "gy": 1305,
      "Ġpower": 1306,
      "è´¢": 1307,
      "very": 1308,
      "It": 1309,
      "å¸¦": 1310,
      "200": 1311,
      "ä¿Ħ": 1312,
      "Ġmust": 1313,
      "åĪĴ": 1314,
      "èº«": 1315,
      "åįı": 1316,
      "illion": 1317,
      "vent": 1318,
      "æį®": 1319,
      "è´§å¸ģ": 1320,
      "éĢļè¿ĩ": 1321,
      "äº¤": 1322,
      "Ġtw": 1323,
      "è®¾": 1324,
      "Ġthese": 1325,
      "act": 1326,
      "æ¨¡": 1327,
      "æŃ¥": 1328,
      "pect": 1329,
      "èī²": 1330,
      "æ°Ķ": 1331,
      "åĢ¼": 1332,
      "å°¼": 1333,
      "äºĭå®ŀ": 1334,
      "åŃĺ": 1335,
      "åĬ¿": 1336,
      "Ġlar": 1337,
      "Ġinto": 1338,
      "éĻį": 1339,
      "we": 1340,
      "Ġro": 1341,
      "è½¬": 1342,
      "Ġmay": 1343,
      "own": 1344,
      "æīĢæľī": 1345,
      "é¦": 1346,
      "æł¹": 1347,
      "Ġsoc": 1348,
      "åĨį": 1349,
      "ç±»": 1350,
      "åĪ«": 1351,
      "stem": 1352,
      "cess": 1353,
      "æĺ¾": 1354,
      "Ġwhat": 1355,
      "resident": 1356,
      "stit": 1357,
      "erv": 1358,
      "ï¼Ľ": 1359,
      "Ġtrad": 1360,
      "¿½": 1361,
      "ï¿½": 1362,
      "ory": 1363,
      "èİ·": 1364,
      "Ġfir": 1365,
      "çī©": 1366,
      "Ġcris": 1367,
      "è®¤ä¸º": 1368,
      "erest": 1369,
      "Ġprodu": 1370,
      "Ġintern": 1371,
      "æī¿": 1372,
      "Ġam": 1373,
      "é£İ": 1374,
      "æĿ¡": 1375,
      "ä¼¼": 1376,
      "æł¸": 1377,
      "rough": 1378,
      "Ġtime": 1379,
      "ĠIs": 1380,
      "fter": 1381,
      "åİŁ": 1382,
      "Ġmuch": 1383,
      "å¼ķ": 1384,
      "DP": 1385,
      "ating": 1386,
      "Ġhow": 1387,
      "å§ĭ": 1388,
      "ç¨İ": 1389,
      "Ġpo": 1390,
      "ices": 1391,
      "Ġhad": 1392,
      "ms": 1393,
      "Ġrep": 1394,
      "ital": 1395,
      "lud": 1396,
      "åı¸": 1397,
      "æĢ»ç»Ł": 1398,
      "Ġus": 1399,
      "And": 1400,
      "æµģ": 1401,
      "åĪĹ": 1402,
      "æĮĩ": 1403,
      "æ°ĳä¸»": 1404,
      "ä¹İ": 1405,
      "201": 1406,
      "Ġatt": 1407,
      "ç»ĩ": 1408,
      "å¤Ħ": 1409,
      "çĬ": 1410,
      "å°ı": 1411,
      "æ°´": 1412,
      "é¡¹": 1413,
      "æ»": 1414,
      "åĵģ": 1415,
      "æľĽ": 1416,
      "æĸ¹éĿ¢": 1417,
      "å¨": 1418,
      "ount": 1419,
      "éĴ": 1420,
      "Ġsc": 1421,
      "Ġpublic": 1422,
      "åį°": 1423,
      "ç¥": 1424,
      "Ġsystem": 1425,
      "ced": 1426,
      "ç¾İåħĥ": 1427,
      "ful": 1428,
      "ä»į": 1429,
      "Ġdif": 1430,
      "ç»Ħç»ĩ": 1431,
      "Ġ200": 1432,
      "Ġmon": 1433,
      "ä¼Ĺ": 1434,
      "æ·": 1435,
      "Ġcent": 1436,
      "åĪĽ": 1437,
      "Ġra": 1438,
      "å°½ç®¡": 1439,
      "Ġany": 1440,
      "çļĦäºº": 1441,
      "æĭħ": 1442,
      "its": 1443,
      "ax": 1444,
      "å¤į": 1445,
      "ä¸¾": 1446,
      "ual": 1447,
      "æİ¨": 1448,
      "æ´¾": 1449,
      "Ġact": 1450,
      "çļĦæĺ¯": 1451,
      "Ġagain": 1452,
      "ç¦": 1453,
      "æĪĲä¸º": 1454,
      "alth": 1455,
      "è°ĥ": 1456,
      "ä¸ī": 1457,
      "æīĭ": 1458,
      "åķ": 1459,
      "oss": 1460,
      "Ġinterest": 1461,
      "å£": 1462,
      "ç§ĳ": 1463,
      "æĭ¬": 1464,
      "çģ": 1465,
      "æıĲä¾Ľ": 1466,
      "ible": 1467,
      "Ġconf": 1468,
      "ç»´": 1469,
      "è®¡åĪĴ": 1470,
      "ond": 1471,
      "urn": 1472,
      "æļ": 1473,
      "ert": 1474,
      "ild": 1475,
      "æ¡Ī": 1476,
      "åĮħæĭ¬": 1477,
      "Ġte": 1478,
      "çĻ": 1479,
      "è¿Ļä¸ª": 1480,
      "æĹłæ³ķ": 1481,
      "è¯ģ": 1482,
      "å·±": 1483,
      "çİ°åľ¨": 1484,
      "Ġ201": 1485,
      "ov": 1486,
      "Ġprov": 1487,
      "æĬĢ": 1488,
      "è¯Ĩ": 1489,
      "åį´": 1490,
      "åĤ": 1491,
      "Ġcrisis": 1492,
      "Ġleaders": 1493,
      "ists": 1494,
      "ific": 1495,
      "åĥ": 1496,
      "è´¸": 1497,
      "éĥ¨åĪĨ": 1498,
      "ular": 1499,
      "ied": 1500,
      "get": 1501,
      "åĲį": 1502,
      "è¿Ĳ": 1503,
      "Ġow": 1504,
      "hed": 1505,
      "å°±æĺ¯": 1506,
      ".âĢĿ": 1507,
      "ĠEU": 1508,
      "èĦ": 1509,
      "èĩªå·±": 1510,
      "èĭ±åĽ½": 1511,
      "æŃ¢": 1512,
      "ob": 1513,
      "è¿ľ": 1514,
      "Ġinternational": 1515,
      "Ġgen": 1516,
      "çľŁ": 1517,
      "äºĮ": 1518,
      "iet": 1519,
      "Ġco": 1520,
      "å¢ĥ": 1521,
      "ization": 1522,
      "ĠUnited": 1523,
      "Ġjust": 1524,
      "åĲĮæĹ¶": 1525,
      "Ġreal": 1526,
      "Ġwar": 1527,
      "Ġhigh": 1528,
      "å¯Į": 1529,
      "åĳ½": 1530,
      "åħ·": 1531,
      "Ġwell": 1532,
      "è®¸å¤ļ": 1533,
      "Ġac": 1534,
      "ä¸¥": 1535,
      "ade": 1536,
      "é»": 1537,
      "vers": 1538,
      "hip": 1539,
      "å¨ģ": 1540,
      "åĽŀ": 1541,
      "Ġtrans": 1542,
      "Ġtwo": 1543,
      "é¦ĸ": 1544,
      "è¶³": 1545,
      "ok": 1546,
      "è¿Ľè¡Į": 1547,
      "è´¹": 1548,
      "çĽ®æłĩ": 1549,
      "èħ": 1550,
      "å¯¼èĩ´": 1551,
      "ç¬¬": 1552,
      "As": 1553,
      "å®ŀçİ°": 1554,
      "å¼Ģå§ĭ": 1555,
      "Ġsupport": 1556,
      "ise": 1557,
      "oth": 1558,
      "Ġrecent": 1559,
      "ä¼ģ": 1560,
      "Ġproble": 1561,
      "ĠRuss": 1562,
      "olog": 1563,
      "ient": 1564,
      "ite": 1565,
      "Ġimport": 1566,
      "hen": 1567,
      "åĭ": 1568,
      "ase": 1569,
      "eed": 1570,
      "Ġref": 1571,
      "Ġbecause": 1572,
      "æĶ¹éĿ©": 1573,
      "å¡": 1574,
      "ä»¤": 1575,
      "åħ¬åı¸": 1576,
      "åķĨ": 1577,
      "ä»¶": 1578,
      "æĬ¥": 1579,
      "è´¸æĺĵ": 1580,
      "Ġway": 1581,
      "æ¬§åħĥ": 1582,
      "åŀ": 1583,
      "å¢ŀåĬł": 1584,
      "æĥħåĨµ": 1585,
      "iss": 1586,
      "è§£åĨ³": 1587,
      "è¨": 1588,
      "inist": 1589,
      "å½¢": 1590,
      "è¨Ģ": 1591,
      "éļı": 1592,
      "ral": 1593,
      "èĩªçĶ±": 1594,
      "ics": 1595,
      "åĩ»": 1596,
      "éĩĩ": 1597,
      "ween": 1598,
      "å¦ĤæŃ¤": 1599,
      "ruct": 1600,
      "Ġfore": 1601,
      "æ®": 1602,
      "äº¿": 1603,
      "èĥ½å¤Ł": 1604,
      "ç½Ĺæĸ¯": 1605,
      "cur": 1606,
      "Ġopp": 1607,
      "åĲ¦": 1608,
      "éĢŁ": 1609,
      "ef": 1610,
      "çŁ¥": 1611,
      "å¾·åĽ½": 1612,
      "Ġdebt": 1613,
      "çºª": 1614,
      "åĢºåĬ¡": 1615,
      "ç²": 1616,
      "ĠAs": 1617,
      "ject": 1618,
      "è¿Ļç§į": 1619,
      "iven": 1620,
      "Ġthose": 1621,
      "æ¿": 1622,
      "çķ¥": 1623,
      "Ġbetween": 1624,
      "åįĩ": 1625,
      "ove": 1626,
      "æľ¯": 1627,
      "ives": 1628,
      "æŀĹ": 1629,
      "ese": 1630,
      "åİĨ": 1631,
      "ä¸ĩ": 1632,
      "aw": 1633,
      "ict": 1634,
      "Ġfar": 1635,
      "itt": 1636,
      "Ġdef": 1637,
      "ä¾ĭ": 1638,
      "æŃ£åľ¨": 1639,
      "äººä»¬": 1640,
      "çĭ": 1641,
      "Ġman": 1642,
      "æķ´": 1643,
      "ilit": 1644,
      "æ¿Ģ": 1645,
      "ind": 1646,
      "Ġright": 1647,
      "imate": 1648,
      "è§Ĩ": 1649,
      "çļĦä¸Ģ": 1650,
      "çª": 1651,
      "Ġdes": 1652,
      "åĤ¨": 1653,
      "ran": 1654,
      "åĩĨ": 1655,
      "æĹ¥æľ¬": 1656,
      "ound": 1657,
      "ä¿Ħç½Ĺæĸ¯": 1658,
      "å®īåħ¨": 1659,
      "rent": 1660,
      "low": 1661,
      "é²": 1662,
      "Ġremain": 1663,
      "åĸ": 1664,
      "æĬ¤": 1665,
      "éĻĲ": 1666,
      "Ġinclud": 1667,
      "sel": 1668,
      "å±Ģ": 1669,
      "Ġless": 1670,
      "Ġend": 1671,
      "pec": 1672,
      "apan": 1673,
      "æľºæŀĦ": 1674,
      "ry": 1675,
      "åľŁ": 1676,
      "Ġeffect": 1677,
      "æľį": 1678,
      "ize": 1679,
      "ward": 1680,
      "çĥ": 1681,
      "Ġcontin": 1682,
      "åĿ¦": 1683,
      "äºĭå®ŀä¸Ĭ": 1684,
      "è±": 1685,
      "æ³¨": 1686,
      "ings": 1687,
      "è´£": 1688,
      "å¸¦æĿ¥": 1689,
      "åį°åº¦": 1690,
      "loy": 1691,
      "æĬĬ": 1692,
      "ä¼ģä¸ļ": 1693,
      "Ġfact": 1694,
      "ail": 1695,
      "æĶ¶åħ¥": 1696,
      "aj": 1697,
      "éĹ¨": 1698,
      "å¥¥": 1699,
      "round": 1700,
      "ĠInd": 1701,
      "ä¼ł": 1702,
      "å®Į": 1703,
      "ues": 1704,
      "ploy": 1705,
      "Ġtax": 1706,
      "Ġwhile": 1707,
      "atic": 1708,
      "Ġstate": 1709,
      "uring": 1710,
      "Ġprog": 1711,
      "read": 1712,
      "åħĪ": 1713,
      "è´¢æĶ¿": 1714,
      "vel": 1715,
      "ä¾Ŀ": 1716,
      "åĽ°": 1717,
      "ç»Ī": 1718,
      "æ¯ı": 1719,
      "éĽĨ": 1720,
      "è¯Ŀ": 1721,
      "æĸĩ": 1722,
      "ä¸»è¦ģ": 1723,
      "æĸŃ": 1724,
      "çļĦç»ıæµİ": 1725,
      "Ġent": 1726,
      "Ġmod": 1727,
      "Ġour": 1728,
      "ince": 1729,
      "èİ·å¾Ĺ": 1730,
      "ç¨³": 1731,
      "å¤®": 1732,
      "ption": 1733,
      "éĻ¤": 1734,
      "Ġass": 1735,
      "ural": 1736,
      "ç©¶": 1737,
      "é£İéĻ©": 1738,
      "åĬŁ": 1739,
      "è´Ł": 1740,
      "Ġfirst": 1741,
      "ĠAmerica": 1742,
      "Ġsur": 1743,
      "Ġnational": 1744,
      "Ġpop": 1745,
      "åıĳçĶŁ": 1746,
      "Ġlarge": 1747,
      "çĹħ": 1748,
      "Ġresult": 1749,
      "anks": 1750,
      "Ġmem": 1751,
      "å®ĺ": 1752,
      "æīį": 1753,
      "æĦŁ": 1754,
      "å·¨": 1755,
      "Ġhel": 1756,
      "æľªæĿ¥": 1757,
      "åĨ²": 1758,
      "ä»Ģä¹Ī": 1759,
      "Ġdemoc": 1760,
      "ration": 1761,
      "æĸ¯åĿ¦": 1762,
      "Ġregion": 1763,
      "ĠGerm": 1764,
      "ç»Ŀ": 1765,
      "æ¬¾": 1766,
      "Ġresp": 1767,
      "Ġoff": 1768,
      "éĢĢ": 1769,
      "ures": 1770,
      "ash": 1771,
      "Ġown": 1772,
      "ĠAf": 1773,
      "Ġsub": 1774,
      "å¤ª": 1775,
      "ç®Ĺ": 1776,
      "Ġob": 1777,
      "led": 1778,
      "çĶļ": 1779,
      "ri": 1780,
      "æŁĲ": 1781,
      "Ġafter": 1782,
      "ability": 1783,
      "Wh": 1784,
      "ä¸´": 1785,
      "Ġsim": 1786,
      "ä»»ä½ķ": 1787,
      "Ġreform": 1788,
      "Ġhelp": 1789,
      "Ġagainst": 1790,
      "éª": 1791,
      "æµ·": 1792,
      "ajor": 1793,
      "å²": 1794,
      "ĠJapan": 1795,
      "ä¸ĸçºª": 1796,
      "Ġseem": 1797,
      "Ġadd": 1798,
      "è¡ĮåĬ¨": 1799,
      "Ġrequ": 1800,
      "Ġadv": 1801,
      "ä¼ĬæľĹ": 1802,
      "çªģ": 1803,
      "ä¸ĢäºĽ": 1804,
      "æİ§": 1805,
      "fere": 1806,
      "è¦ģæ±Ĥ": 1807,
      "è¾¹": 1808,
      "åĥı": 1809,
      "curity": 1810,
      "ç§»": 1811,
      "Ġboth": 1812,
      "åĪ¤": 1813,
      "ä¹ĭéĹ´": 1814,
      "ized": 1815,
      "æĮģç»Ń": 1816,
      "ç»ĵæŀľ": 1817,
      "åħ³ç³»": 1818,
      "æĢģ": 1819,
      "Ġkn": 1820,
      "éķ¿æľŁ": 1821,
      "ially": 1822,
      "term": 1823,
      "Ġcost": 1824,
      "For": 1825,
      "Ġinfl": 1826,
      "Ġeuro": 1827,
      "Ġexamp": 1828,
      "Ġredu": 1829,
      "Ġcapital": 1830,
      "åŃĺåľ¨": 1831,
      "åŃĹ": 1832,
      "Ġcurrent": 1833,
      "chn": 1834,
      "Ġext": 1835,
      "åıĺåĮĸ": 1836,
      "aking": 1837,
      "å·¥ä½ľ": 1838,
      "è°Ī": 1839,
      "Ġmajor": 1840,
      "Ind": 1841,
      "éĤ£äºĽ": 1842,
      "les": 1843,
      "è¶ħ": 1844,
      "Ġlast": 1845,
      "Ġconc": 1846,
      "On": 1847,
      "æħ": 1848,
      "Ġgo": 1849,
      "é¢Ĩå¯¼äºº": 1850,
      "ex": 1851,
      "rib": 1852,
      "Ġpartic": 1853,
      "ç»§": 1854,
      "ians": 1855,
      "åı²": 1856,
      "ç«ŀ": 1857,
      "cal": 1858,
      "Ġfund": 1859,
      "çİ¯": 1860,
      "Ġsign": 1861,
      "Ġchange": 1862,
      "çĽĳ": 1863,
      "æĬĢæľ¯": 1864,
      "åħį": 1865,
      "oun": 1866,
      "Ġmilit": 1867,
      "rael": 1868,
      "å¤ĩ": 1869,
      "Ġgreat": 1870,
      "allen": 1871,
      "Ġke": 1872,
      "Ġ2": 1873,
      "åĪ°äºĨ": 1874,
      "åŀĭ": 1875,
      "èĤ²": 1876,
      "ç¢": 1877,
      "orts": 1878,
      "åŁºç¡": 1879,
      "åŁºç¡Ģ": 1880,
      "utions": 1881,
      "50": 1882,
      "èµĦæľ¬": 1883,
      "æĹı": 1884,
      "å®¹": 1885,
      "éĤ£ä¹Ī": 1886,
      "Ġtrade": 1887,
      "Ġbo": 1888,
      "Ġprot": 1889,
      "è·¯": 1890,
      "ä½ľä¸º": 1891,
      "ays": 1892,
      "gan": 1893,
      "å¾Ģ": 1894,
      "Ġdep": 1895,
      "Ġgood": 1896,
      "ram": 1897,
      "çĽ®åīį": 1898,
      "æ·±": 1899,
      "Ġben": 1900,
      "Ġmake": 1901,
      "çĶŁäº§": 1902,
      "æĦ¿": 1903,
      "çł´": 1904,
      "è§ģ": 1905,
      "çļĦåĽ½å®¶": 1906,
      "Ġinvestment": 1907,
      "çĪ": 1908,
      "åİĭ": 1909,
      "ically": 1910,
      "Ġexample": 1911,
      "ty": 1912,
      "Ķç©¶": 1913,
      "çĶµ": 1914,
      "Ġbanks": 1915,
      "ä»¥èī²": 1916,
      "åįķ": 1917,
      "æģ¯": 1918,
      "Ġappro": 1919,
      "ä»¥èī²åĪĹ": 1920,
      "Ġ$": 1921,
      "è±¡": 1922,
      "Ġbecome": 1923,
      "Ġcre": 1924,
      "æ²¹": 1925,
      "è¯º": 1926,
      "Ġmarkets": 1927,
      "day": 1928,
      "éħ": 1929,
      "30": 1930,
      "If": 1931,
      "ç¨³å®ļ": 1932,
      "ts": 1933,
      "ense": 1934,
      "å¹¶ä¸į": 1935,
      "ï¿½ï¿½": 1936,
      "Ġthrough": 1937,
      "è´¨": 1938,
      "åĳĬ": 1939,
      "ump": 1940,
      "Ġtoo": 1941,
      "åįģå¹´": 1942,
      "åĪ©äºļ": 1943,
      "ç¤º": 1944,
      "Ġinstit": 1945,
      "Ġhum": 1946,
      "000": 1947,
      "å¥³": 1948,
      "è¿Ļæł·çļĦ": 1949,
      "åįĹ": 1950,
      "ather": 1951,
      "åıĤ": 1952,
      "å¿«": 1953,
      "ging": 1954,
      "Ġimportant": 1955,
      "Ġcor": 1956,
      "æĮĳ": 1957,
      "ending": 1958,
      "èĬ": 1959,
      "åĪĩ": 1960,
      "ĠRussia": 1961,
      "æĪĲåĬŁ": 1962,
      "çº³": 1963,
      "Ġfail": 1964,
      "Ġdemand": 1965,
      "Ġgovernments": 1966,
      "çĶļèĩ³": 1967,
      "Ġsocial": 1968,
      "ç¼º": 1969,
      "éĢłæĪĲ": 1970,
      "æģĲ": 1971,
      "æĽ´åĬł": 1972,
      "Ġret": 1973,
      "Ġaut": 1974,
      "Ġest": 1975,
      "èĢĥ": 1976,
      "Ġlo": 1977,
      "Ġbank": 1978,
      "åıĪ": 1979,
      "Ġbu": 1980,
      "Ġtechn": 1981,
      "èģĶåĲĪ": 1982,
      "ä¸įä¼ļ": 1983,
      "éĩĩåıĸ": 1984,
      "Ġwhere": 1985,
      "æİª": 1986,
      "æ¼": 1987,
      "çº§": 1988,
      "ink": 1989,
      "ç§°": 1990,
      "ĠIran": 1991,
      "æĢ§çļĦ": 1992,
      "gest": 1993,
      "other": 1994,
      "æľĢè¿ĳ": 1995,
      "ting": 1996,
      "äººçļĦ": 1997,
      "Ġrest": 1998,
      "åĶ": 1999,
      "è´·": 2000,
      "ç´ł": 2001,
      "æİĴ": 2002,
      "æ³ķåĽ½": 2003,
      "Ġforeign": 2004,
      "æī©": 2005,
      "Ġdoes": 2006,
      "åħ´": 2007,
      "60": 2008,
      "ath": 2009,
      "Ġrates": 2010,
      "ä¹Łæĺ¯": 2011,
      "æĹ¶éĹ´": 2012,
      "æīĵ": 2013,
      "è¯ķ": 2014,
      "åĽ½å®¶çļĦ": 2015,
      "æĽ´å¤ļ": 2016,
      "uclear": 2017,
      "ĠStates": 2018,
      "ract": 2019,
      "å¯¹äºİ": 2020,
      "Ġleg": 2021,
      "å»ºç«ĭ": 2022,
      "ĠIsrael": 2023,
      "è´¥": 2024,
      "åĽ¢": 2025,
      "ç´§": 2026,
      "æŃ¦": 2027,
      "å®³": 2028,
      "ä»·æł¼": 2029,
      "olution": 2030,
      "åĵĪ": 2031,
      "Ġemer": 2032,
      "æĴ": 2033,
      "ortun": 2034,
      "åĽ¾": 2035,
      "ä¼¯": 2036,
      "åįł": 2037,
      "æĳ": 2038,
      "Ġiss": 2039,
      "Ġsa": 2040,
      "çī¹åĪ«": 2041,
      "Ġfut": 2042,
      "æ¯Ķå¦Ĥ": 2043,
      "åı¦": 2044,
      "ron": 2045,
      "åĽ½åĨħ": 2046,
      "ĠWest": 2047,
      "æĪĲåĳĺ": 2048,
      "åĨ³å®ļ": 2049,
      "ä¸įåĲĮ": 2050,
      "è¿ĩåİ»": 2051,
      "åĪ©çĽĬ": 2052,
      "ĠCh": 2053,
      "Ġmain": 2054,
      "èĭı": 2055,
      "Ġrisk": 2056,
      "Ġpolicies": 2057,
      "als": 2058,
      "ergy": 2059,
      "ulation": 2060,
      "Ġevery": 2061,
      "ä¸Ģç§į": 2062,
      "Ġchallen": 2063,
      "Ġprom": 2064,
      "Ġhealth": 2065,
      "åĲĪä½ľ": 2066,
      "å§Ķ": 2067,
      "Indeed": 2068,
      "èĢĮä¸Ķ": 2069,
      "ft": 2070,
      "æĭ©": 2071,
      "ater": 2072,
      "Ġtoday": 2073,
      "ä¸ŃçļĦ": 2074,
      "Ġmilitary": 2075,
      "åĳ³": 2076,
      "Ġback": 2077,
      "æĪĺäºī": 2078,
      "less": 2079,
      "ined": 2080,
      "iness": 2081,
      "Ġins": 2082,
      "åĮĹ": 2083,
      "Ġoffic": 2084,
      "åĭĴ": 2085,
      "å¼±": 2086,
      "ision": 2087,
      "è§Ħæ¨¡": 2088,
      "å¤´": 2089,
      "å¦Ĥä»Ĭ": 2090,
      "åĻ": 2091,
      "ĠPresident": 2092,
      "More": 2093,
      "arly": 2094,
      "Ġdiffere": 2095,
      "ential": 2096,
      "å¦Ĥä½ķ": 2097,
      "ä¿ĿæĬ¤": 2098,
      "eg": 2099,
      "ç§ģ": 2100,
      "Ġstill": 2101,
      "æŃ¤å¤ĸ": 2102,
      "å¹´çļĦ": 2103,
      "äº§çĶŁ": 2104,
      "æļ´": 2105,
      "å¹¶ä¸Ķ": 2106,
      "Ġcour": 2107,
      "ä»¥æĿ¥": 2108,
      "ccess": 2109,
      "Ġbas": 2110,
      "éĢīæĭ©": 2111,
      "Ġfuture": 2112,
      ",âĢĿ": 2113,
      "ç¦»": 2114,
      "åŁŁ": 2115,
      "Ġeconomies": 2116,
      "åıįå¯¹": 2117,
      "ually": 2118,
      "Ġsame": 2119,
      "ily": 2120,
      "çĭ¬": 2121,
      "æĮĳæĪĺ": 2122,
      "Ġord": 2123,
      "ä¸ĢçĽ´": 2124,
      "èĮ": 2125,
      "ä¸¥éĩį": 2126,
      "Ġdevelopment": 2127,
      "ec": 2128,
      "omm": 2129,
      "eration": 2130,
      "Ġcred": 2131,
      "ning": 2132,
      "ten": 2133,
      "åĬ³": 2134,
      "åİĨåı²": 2135,
      "åĮ»": 2136,
      "æĭ¥": 2137,
      "è¡¡": 2138,
      "ï¼īãĢĤ": 2139,
      "å¸ĮæľĽ": 2140,
      "æĸ°çļĦ": 2141,
      "ç»§ç»Ń": 2142,
      "éĿ¢ä¸´": 2143,
      "ä»½": 2144,
      "Ġdom": 2145,
      "ingly": 2146,
      "çĸĳ": 2147,
      "è¯Ħ": 2148,
      "Ġbeing": 2149,
      "Ġneg": 2150,
      "etary": 2151,
      "èĥģ": 2152,
      "Ġbenef": 2153,
      "iew": 2154,
      "Ġrate": 2155,
      "Ġnuclear": 2156,
      "æĢĿ": 2157,
      "åħ¬åħ±": 2158,
      "iscal": 2159,
      "fore": 2160,
      "ness": 2161,
      "Ġelect": 2162,
      "Ġsm": 2163,
      "æ²Ļ": 2164,
      "Ġstrong": 2165,
      "åħħ": 2166,
      "Ġtra": 2167,
      "Ġsince": 2168,
      "æķĻèĤ²": 2169,
      "Ġel": 2170,
      "èĪ": 2171,
      "å¤®è¡Į": 2172,
      "Ġset": 2173,
      "æĤ": 2174,
      "å¨ģèĥģ": 2175,
      "æĦıåĳ³": 2176,
      "åıªæľī": 2177,
      "Ġincluding": 2178,
      "ever": 2179,
      "åĩºçİ°": 2180,
      "ush": 2181,
      "Ġhuman": 2182,
      "Ġlevel": 2183,
      "æ°´å¹³": 2184,
      "è¿«": 2185,
      "ell": 2186,
      "ior": 2187,
      "èĥ½æºĲ": 2188,
      "å®£": 2189,
      "æĭīåħĭ": 2190,
      "Ġuse": 2191,
      "ĠChinese": 2192,
      "æ³¢": 2193,
      "Ġagree": 2194,
      "ä½ľçĶ¨": 2195,
      "Ġval": 2196,
      "Ġdisc": 2197,
      "åĬĽçļĦ": 2198,
      "éĺ²": 2199,
      "Ġbr": 2200,
      "Ġbel": 2201,
      "Ġstrate": 2202,
      "idd": 2203,
      "ants": 2204,
      "Ġcommun": 2205,
      "outh": 2206,
      "è¡Įä¸º": 2207,
      "Ġmight": 2208,
      "ably": 2209,
      "imes": 2210,
      "Ġlow": 2211,
      "åĻ¨": 2212,
      "bers": 2213,
      "Ġter": 2214,
      "éģ¿": 2215,
      "æ¸ħ": 2216,
      "ared": 2217,
      "ä¸ĵ": 2218,
      "åĲĮæł·": 2219,
      "ployment": 2220,
      "æ½": 2221,
      "That": 2222,
      "åįıè®®": 2223,
      "çİ¯å¢ĥ": 2224,
      "åĪ©çİĩ": 2225,
      "inc": 2226,
      "ĠAfric": 2227,
      ").": 2228,
      "å¹²": 2229,
      "Ġsee": 2230,
      "Ġsuccess": 2231,
      "ready": 2232,
      "Ġlikely": 2233,
      "pl": 2234,
      "Ġbillion": 2235,
      "åį¡": 2236,
      "åĸĦ": 2237,
      "ĠAmerican": 2238,
      "èĻĳ": 2239,
      "çĶŁæ´»": 2240,
      "ck": 2241,
      "Ġpur": 2242,
      "Ġpriv": 2243,
      "ä»¤äºº": 2244,
      "not": 2245,
      "æĿ¥è¯´": 2246,
      "è¥¿æĸ¹": 2247,
      "ĠY": 2248,
      "Ġterm": 2249,
      "æ®µ": 2250,
      "Ġdid": 2251,
      "æĦıåĳ³çĿĢ": 2252,
      "Ġproblem": 2253,
      "Ġserv": 2254,
      "ç¾İåĽ½çļĦ": 2255,
      "),": 2256,
      "Ġed": 2257,
      "æĪĲæľ¬": 2258,
      "çłĶç©¶": 2259,
      "åŁĥ": 2260,
      "æ»¡": 2261,
      "éĢīä¸¾": 2262,
      "ç¼©": 2263,
      "ality": 2264,
      "Ġequ": 2265,
      "æ°ĶåĢĻ": 2266,
      "usiness": 2267,
      "æİªæĸ½": 2268,
      "orth": 2269,
      "ved": 2270,
      "Ġop": 2271,
      "çĸĹ": 2272,
      "èħĬ": 2273,
      "å´": 2274,
      "ĠEast": 2275,
      "Ġcall": 2276,
      "GDP": 2277,
      "å¸ĮèħĬ": 2278,
      "ç¿": 2279,
      "è´«": 2280,
      "é¢Ŀ": 2281,
      "éĺŁ": 2282,
      "Ġclear": 2283,
      "Ġenergy": 2284,
      "cept": 2285,
      "æĸ¹æ¡Ī": 2286,
      "ieve": 2287,
      "çĬ¶": 2288,
      "ged": 2289,
      "åĽ½çļĦ": 2290,
      "Ġprices": 2291,
      "Ġvot": 2292,
      "ç½ĳ": 2293,
      "è¡¨æĺİ": 2294,
      "ä¸įèĥ½": 2295,
      "ä¸ĭéĻį": 2296,
      "Ġfiscal": 2297,
      "å®ŀéĻħ": 2298,
      "ä»ĸä»¬çļĦ": 2299,
      "rab": 2300,
      "Ġshort": 2301,
      "éĥ¨éĹ¨": 2302,
      "çŁ³": 2303,
      "å®ŀæĸ½": 2304,
      "ä¾¿": 2305,
      "ĠTr": 2306,
      "ĠIndia": 2307,
      "éŁ": 2308,
      "Ġtake": 2309,
      "æľĢç»Ī": 2310,
      "lam": 2311,
      "ctor": 2312,
      "æľºä¼ļ": 2313,
      "Ġbetter": 2314,
      "çļĦéĹ®é¢ĺ": 2315,
      "Ġreas": 2316,
      "äº¿ç¾İåħĥ": 2317,
      "æ¶Īè´¹": 2318,
      "ä»ĺ": 2319,
      "ä¼¼ä¹İ": 2320,
      "äººæ°ĳ": 2321,
      "æĭ¥æľī": 2322,
      "æ¬§åħĥåĮº": 2323,
      "Ġsecurity": 2324,
      "è¿Ļæĺ¯": 2325,
      "ç«ŀäºī": 2326,
      "Âł": 2327,
      "Ġwithout": 2328,
      "åĿı": 2329,
      "æıĲé«ĺ": 2330,
      "èĳ": 2331,
      "ç¥¨": 2332,
      "åĪ¶åº¦": 2333,
      "Ġpos": 2334,
      "çī¹æľĹ": 2335,
      "Ġthreat": 2336,
      "Ġcompet": 2337,
      "æĪĺçķ¥": 2338,
      "èĥĢ": 2339,
      "Ġalready": 2340,
      "ency": 2341,
      "Ġpers": 2342,
      "æµĭ": 2343,
      "Ġcentral": 2344,
      "Ġes": 2345,
      "ĠGermany": 2346,
      "Ġhist": 2347,
      "å¹¿": 2348,
      "å¾ĭ": 2349,
      "æŃ»": 2350,
      "Ġcontro": 2351,
      "ä¼Ĭæĸ¯": 2352,
      "å¼ł": 2353,
      "åŃ¦å®¶": 2354,
      "ving": 2355,
      "Ġtechnolog": 2356,
      "æİ¥åıĹ": 2357,
      "Ġide": 2358,
      "cond": 2359,
      "è¾ĥ": 2360,
      "çī¹æľĹæĻ®": 2361,
      "Ġser": 2362,
      "è¿ĺæĺ¯": 2363,
      "æİ§åĪ¶": 2364,
      "Ġpoint": 2365,
      "Ġmade": 2366,
      "äºļæ´²": 2367,
      "ĠGDP": 2368,
      "hor": 2369,
      "ertain": 2370,
      "æĿŁ": 2371,
      "rem": 2372,
      "ider": 2373,
      "ama": 2374,
      "ges": 2375,
      "zone": 2376,
      "ĠV": 2377,
      "Ġposs": 2378,
      "abor": 2379,
      "ä½¿çĶ¨": 2380,
      "Ġknow": 2381,
      "ä¼Ĭæĸ¯åħ°": 2382,
      "Ġquest": 2383,
      "arch": 2384,
      "æĹ¶åĢĻ": 2385,
      "âĢĿãĢĤ": 2386,
      "ered": 2387,
      "åİŁåĽł": 2388,
      "è°ĪåĪ¤": 2389,
      "ger": 2390,
      "istan": 2391,
      "li": 2392,
      "Ġann": 2393,
      "Ġparticular": 2394,
      "ä½ł": 2395,
      "Ġproduct": 2396,
      "åĨľ": 2397,
      "èĥ½åĬĽ": 2398,
      "æĪĸèĢħ": 2399,
      "èµĦäº§": 2400,
      "ars": 2401,
      "racy": 2402,
      "éªĮ": 2403,
      "Ġdecl": 2404,
      "Ġstand": 2405,
      "ï¼īï¼Į": 2406,
      "éľĢæ±Ĥ": 2407,
      "ä¸įä»ħ": 2408,
      "iddle": 2409,
      "éĶĻ": 2410,
      "90": 2411,
      "rast": 2412,
      "Ġconsum": 2413,
      "å¤ļæķ°": 2414,
      "ä¸ºäºĨ": 2415,
      "tern": 2416,
      "Ġhig": 2417,
      "abl": 2418,
      "Ġdown": 2419,
      "Ġbusiness": 2420,
      "åºŃ": 2421,
      "ĠKore": 2422,
      "æ£": 2423,
      "ollow": 2424,
      "ĠBank": 2425,
      "Ġprop": 2426,
      "åŁºéĩĳ": 2427,
      "Ġmed": 2428,
      "ents": 2429,
      "Ġdire": 2430,
      "åĨ²çªģ": 2431,
      "ãĢĭ": 2432,
      "roup": 2433,
      "MF": 2434,
      "mental": 2435,
      "ãĢĬ": 2436,
      "ä¼°": 2437,
      "ury": 2438,
      "å·´é©¬": 2439,
      "ä¸ĬçļĦ": 2440,
      "Ġcannot": 2441,
      "è¿°": 2442,
      "Ġthen": 2443,
      "éĻ·": 2444,
      "èģĶçĽŁ": 2445,
      "æĶ¹åıĺ": 2446,
      "æī§": 2447,
      "Ġarg": 2448,
      "æľįåĬ¡": 2449,
      "åĴĮå¹³": 2450,
      "ivers": 2451,
      "Ġstates": 2452,
      "æĸ¹å¼ı": 2453,
      "åı°": 2454,
      "Ġrev": 2455,
      "xt": 2456,
      "Ġindust": 2457,
      "Ġaff": 2458,
      "å¥¥å·´é©¬": 2459,
      "ä¼¦": 2460,
      "ä¸įåı¯": 2461,
      "Ġap": 2462,
      "æī¿è¯º": 2463,
      "There": 2464,
      "å±Ĥ": 2465,
      "éļıçĿĢ": 2466,
      "Ġeduc": 2467,
      "èµĦæºĲ": 2468,
      "ä¸ĢæŃ¥": 2469,
      "Ġprotect": 2470,
      "They": 2471,
      "æĺ¯åĲ¦": 2472,
      "éĶ®": 2473,
      "Ġimm": 2474,
      "èµ°": 2475,
      "äºĴ": 2476,
      "Ġoften": 2477,
      "Ġdist": 2478,
      "ratic": 2479,
      "è£ģ": 2480,
      "ä»įçĦ¶": 2481,
      "åħ³éĶ®": 2482,
      "æĽ¾": 2483,
      "Ġjob": 2484,
      "ah": 2485,
      "ç«¯": 2486,
      "éĺ¿æĭī": 2487,
      "iron": 2488,
      "å¤ĸäº¤": 2489,
      "çļĦæĶ¿æ²»": 2490,
      "ines": 2491,
      "éĿŀæ´²": 2492,
      "osed": 2493,
      "ç®¡çĲĨ": 2494,
      "Ġpresident": 2495,
      "åĨĽäºĭ": 2496,
      "ouse": 2497,
      "Ġpres": 2498,
      "ss": 2499,
      "åıĻ": 2500,
      "ĠBrit": 2501,
      "çī¹åĪ«æĺ¯": 2502,
      "tal": 2503,
      "Ġev": 2504,
      "Ġexpect": 2505,
      "åį«": 2506,
      "ç³»ç»Ł": 2507,
      "Ġvery": 2508,
      "Ġturn": 2509,
      "æľīæķĪ": 2510,
      "Ġamong": 2511,
      "Ġstart": 2512,
      "ç¨ĭåº¦": 2513,
      "Ġorder": 2514,
      "æĿ¥èĩª": 2515,
      "æı´": 2516,
      "è½»": 2517,
      "Ġanother": 2518,
      "Ġhard": 2519,
      "éĻįä½İ": 2520,
      "Ġoil": 2521,
      "So": 2522,
      "orld": 2523,
      "èĲ¨": 2524,
      "åĳ¨": 2525,
      "éĿŀå¸¸": 2526,
      "å§Ķåĳĺ": 2527,
      "Ġcourse": 2528,
      "here": 2529,
      "Ġlaw": 2530,
      "æĬĹ": 2531,
      "ä½ĵç³»": 2532,
      "èĤ¡": 2533,
      "æŁ¥": 2534,
      "åĦ": 2535,
      "Ġthree": 2536,
      "ĠFr": 2537,
      "por": 2538,
      "èĢ³": 2539,
      "èµĦéĩĳ": 2540,
      "æĻ¯": 2541,
      "Ġinstitutions": 2542,
      "ick": 2543,
      "éĺ»": 2544,
      "To": 2545,
      "å¥¹": 2546,
      "Ġfew": 2547,
      "äººåı£": 2548,
      "åĩıå°ĳ": 2549,
      "ä»ĸçļĦ": 2550,
      "uel": 2551,
      "åħ±åĲĮ": 2552,
      "åĿĩ": 2553,
      "Ġfollow": 2554,
      "yr": 2555,
      "Ġprocess": 2556,
      "åħ¶ä¸Ń": 2557,
      "Ġfac": 2558,
      "lement": 2559,
      "land": 2560,
      "è¯¯": 2561,
      "self": 2562,
      "itions": 2563,
      "ĠArab": 2564,
      "rug": 2565,
      "èĲ¥": 2566,
      "up": 2567,
      "åŁİ": 2568,
      "oney": 2569,
      "Ġprivate": 2570,
      "ä»İèĢĮ": 2571,
      "ves": 2572,
      "ä»·åĢ¼": 2573,
      "bama": 2574,
      "ience": 2575,
      "ä¸Ģæł·": 2576,
      "iving": 2577,
      "åĵ¥": 2578,
      "åĩłä¹İ": 2579,
      "ĠGree": 2580,
      "çĶ±äºİ": 2581,
      "å·®": 2582,
      "Ġclo": 2583,
      "Ġmove": 2584,
      "ĠAsia": 2585,
      "çļĦæĥħåĨµ": 2586,
      "inister": 2587,
      "çı": 2588,
      "èĢĮä¸įæĺ¯": 2589,
      "We": 2590,
      "å¤«": 2591,
      "å¾ĹåĪ°": 2592,
      "æľĿ": 2593,
      "èģĶåĲĪåĽ½": 2594,
      "Ġmillion": 2595,
      "ead": 2596,
      "Ġimpro": 2597,
      "ä¼Ĭæĭīåħĭ": 2598,
      "Ġclimate": 2599,
      "è§Ĵ": 2600,
      "éģŃ": 2601,
      "Ġtoward": 2602,
      "Ġbefore": 2603,
      "åıĹåĪ°": 2604,
      "ret": 2605,
      "lection": 2606,
      "omen": 2607,
      "Ġenv": 2608,
      "ĠUnion": 2609,
      "ĠInt": 2610,
      "hold": 2611,
      "raq": 2612,
      "Ġpot": 2613,
      "ivid": 2614,
      "ç©Ĩ": 2615,
      "çĻ¾": 2616,
      "ued": 2617,
      "å½ĵçĦ¶": 2618,
      "Ġallow": 2619,
      "çŁŃ": 2620,
      "Ġpay": 2621,
      "stand": 2622,
      "çĽĳç®¡": 2623,
      "uge": 2624,
      "aps": 2625,
      "Ġful": 2626,
      "io": 2627,
      "Ġav": 2628,
      "ĠSe": 2629,
      "åıĻåĪ©äºļ": 2630,
      "With": 2631,
      "åĪº": 2632,
      "æĸĻ": 2633,
      "aken": 2634,
      "å¸®": 2635,
      "è¿ĺæľī": 2636,
      "åį³ä½¿": 2637,
      "ç²¾": 2638,
      "åīĬ": 2639,
      "æĹ©": 2640,
      "é¡¿": 2641,
      "èĻ½": 2642,
      "æī¹": 2643,
      "åĬĽéĩı": 2644,
      "å£«": 2645,
      "åĽ´": 2646,
      "ute": 2647,
      "ç»ıæµİä½ĵ": 2648,
      "Ġmembers": 2649,
      "80": 2650,
      "Ġmonetary": 2651,
      "åĲĦåĽ½": 2652,
      "ph": 2653,
      "éĺ¿æĭīä¼¯": 2654,
      "Ġview": 2655,
      "Ġeas": 2656,
      "ä¼ĺ": 2657,
      "æįŁ": 2658,
      "Ġchild": 2659,
      "Ġincrease": 2660,
      "åĦ¿": 2661,
      "ades": 2662,
      "Ġrul": 2663,
      "Ġeurozone": 2664,
      "Ġach": 2665,
      "ä¸Ģæ¬¡": 2666,
      "è¡¥": 2667,
      "most": 2668,
      "Ġleast": 2669,
      "çļĦæľĢ": 2670,
      "çļĦå¤§": 2671,
      "Ġadm": 2672,
      "Ġlif": 2673,
      "éĩįæĸ°": 2674,
      "ources": 2675,
      "Ġrole": 2676,
      "stain": 2677,
      "éĻ¢": 2678,
      "ages": 2679,
      "Ġrather": 2680,
      "Moreover": 2681,
      "anies": 2682,
      "Ġform": 2683,
      "å°±ä¸ļ": 2684,
      "åĬ³åĬ¨": 2685,
      "å§Ķåĳĺä¼ļ": 2686,
      "Ġine": 2687,
      "ibility": 2688,
      "ying": 2689,
      "Ġpeace": 2690,
      "ructure": 2691,
      "ately": 2692,
      "ĠTrump": 2693,
      "cing": 2694,
      "èĻ½çĦ¶": 2695,
      "åĽĽ": 2696,
      "å®Įåħ¨": 2697,
      "Ġmoney": 2698,
      "Ġprof": 2699,
      "Ġmat": 2700,
      "ä¹ħ": 2701,
      "Ġgroup": 2702,
      "çħ": 2703,
      "ç§¯": 2704,
      "Ġapproach": 2705,
      "åĴĮåħ¶ä»ĸ": 2706,
      "å¹´ä»£": 2707,
      "é¡¹çĽ®": 2708,
      "ä¿ĥ": 2709,
      "Ġaround": 2710,
      "itiz": 2711,
      "Ġsustain": 2712,
      "10": 2713,
      "ç¾¤": 2714,
      "ĠIraq": 2715,
      "æ±ĩ": 2716,
      "è§ĤçĤ¹": 2717,
      "ĠIslam": 2718,
      "äº¬": 2719,
      "åĩºåı£": 2720,
      "ross": 2721,
      "Ġlim": 2722,
      "éĤ£æł·": 2723,
      "ç¦ı": 2724,
      "èį¯": 2725,
      "èĮĥ": 2726,
      "åī§": 2727,
      "ances": 2728,
      "Ġput": 2729,
      "Ġnum": 2730,
      "èĢĥèĻĳ": 2731,
      "Ġaccount": 2732,
      "åľŁèĢ³": 2733,
      "å¯Ĩ": 2734,
      "åĪĽéĢł": 2735,
      "road": 2736,
      "ror": 2737,
      "Ġant": 2738,
      "Ġsociet": 2739,
      "Ġthough": 2740,
      "éĴĪ": 2741,
      "Ġauthor": 2742,
      "ork": 2743,
      "æĿĢ": 2744,
      "åĽłç´ł": 2745,
      "ittle": 2746,
      "Ġdefic": 2747,
      "èģĮ": 2748,
      "åľŁèĢ³åħ¶": 2749,
      "æ¼Ķ": 2750,
      "å¿µ": 2751,
      "Ġpast": 2752,
      "Ġpress": 2753,
      "æľīåı¯èĥ½": 2754,
      "åģľ": 2755,
      "èĥľ": 2756,
      "Ġ3": 2757,
      "urther": 2758,
      "éĿł": 2759,
      "70": 2760,
      "è®°": 2761,
      "Ġplay": 2762,
      "ĠThe": 2763,
      "é²ľ": 2764,
      "èĢģ": 2765,
      "ç©º": 2766,
      "å£°": 2767,
      "Ġens": 2768,
      "ä¹Į": 2769,
      "ä¹Łè®¸": 2770,
      "åĩºäºĨ": 2771,
      "Ġvi": 2772,
      "Ġincome": 2773,
      "ä¸įæĸŃ": 2774,
      "Ġhigher": 2775,
      "æģ¶": 2776,
      "åįĬ": 2777,
      "çĽ¸åıį": 2778,
      "Ġcurren": 2779,
      "æģĲæĢ": 2780,
      "Ġinst": 2781,
      "Ġinflation": 2782,
      "åıĤä¸İ": 2783,
      "Ġpar": 2784,
      "åĨ³çŃĸ": 2785,
      "Ġeffective": 2786,
      "Ġcar": 2787,
      "éĢĤ": 2788,
      "ficult": 2789,
      "%ãĢĤ": 2790,
      "åĬª": 2791,
      "Ġmeas": 2792,
      "gin": 2793,
      "ä½ı": 2794,
      "Ġopportun": 2795,
      "ç§»æ°ĳ": 2796,
      "çº¿": 2797,
      "åģ¥": 2798,
      "Ġcompanies": 2799,
      "Ġdifficult": 2800,
      "ides": 2801,
      "Ġsmall": 2802,
      "æ¢": 2803,
      "Ġlittle": 2804,
      "åºķ": 2805,
      "èµ¤": 2806,
      "Ġofficial": 2807,
      "oti": 2808,
      "Ġwhether": 2809,
      "ç±»ä¼¼": 2810,
      "ĠWorld": 2811,
      "Ġopen": 2812,
      "Ġasse": 2813,
      "Ġneeds": 2814,
      "Ġmonth": 2815,
      "åıĺå¾Ĺ": 2816,
      "ç¼ĵ": 2817,
      "Ġproblems": 2818,
      "Ġgener": 2819,
      "ering": 2820,
      "èĲ½": 2821,
      "Ġsignific": 2822,
      "Ġdifferent": 2823,
      "éģ¿åħį": 2824,
      "ining": 2825,
      "Ġnext": 2826,
      "åĿļ": 2827,
      "ä¿ĿæĮģ": 2828,
      "Ġ4": 2829,
      "å¸Ń": 2830,
      "èĩªå·±çļĦ": 2831,
      "Ġcredit": 2832,
      "pecially": 2833,
      "Ġlabor": 2834,
      "ivil": 2835,
      "air": 2836,
      "Ġcitiz": 2837,
      "ç¡®ä¿Ŀ": 2838,
      "aim": 2839,
      "ĠObama": 2840,
      "Ġloc": 2841,
      "ä¸ŃåĽ½çļĦ": 2842,
      "Ġestabl": 2843,
      "å¸®åĬ©": 2844,
      "Ġcontrol": 2845,
      "Ġrelations": 2846,
      "Ġenviron": 2847,
      "é²ģ": 2848,
      "hing": 2849,
      "Ġspec": 2850,
      "akes": 2851,
      "Ġconcern": 2852,
      "åĪ¸": 2853,
      "ä¹ĭä¸Ģ": 2854,
      "æĪ¿": 2855,
      "Ġcase": 2856,
      "è¶ĬæĿ¥": 2857,
      "è¿Ľä¸ĢæŃ¥": 2858,
      "Ġdeveloping": 2859,
      "éĥ½æĺ¯": 2860,
      "ĠSyr": 2861,
      "ä¹°": 2862,
      "è¶ĬæĿ¥è¶Ĭ": 2863,
      "vere": 2864,
      "ix": 2865,
      "alest": 2866,
      "Ġfe": 2867,
      "åľ°æĸ¹": 2868,
      "æı´åĬ©": 2869,
      "Ġfree": 2870,
      "æŁĲäºĽ": 2871,
      "èĩªèº«": 2872,
      "äºĶ": 2873,
      "Ġgu": 2874,
      "Ġconflic": 2875,
      "èĢħçļĦ": 2876,
      "åĢŁ": 2877,
      "ocus": 2878,
      "å¾ħ": 2879,
      "estic": 2880,
      "åŁºæľ¬": 2881,
      "ner": 2882,
      "ĠSouth": 2883,
      "è´·æ¬¾": 2884,
      "è´£ä»»": 2885,
      "Ġph": 2886,
      "Ġchang": 2887,
      "ys": 2888,
      "âĢĿï¼Į": 2889,
      "èĦ±": 2890,
      "Ġ5": 2891,
      "ç»ĵæŀĦ": 2892,
      "ĠComm": 2893,
      "çıŃ": 2894,
      "Ġreason": 2895,
      "¹ģ": 2896,
      "åıĮ": 2897,
      "Ġneeded": 2898,
      "Ġsimp": 2899,
      "imin": 2900,
      "æģĲæĢĸ": 2901,
      "reed": 2902,
      "æĬµ": 2903,
      "Ġca": 2904,
      "Ġspending": 2905,
      "è®¾æĸ½": 2906,
      "ished": 2907,
      "idence": 2908,
      "è¶ħè¿ĩ": 2909,
      "ivity": 2910,
      "acy": 2911,
      "ted": 2912,
      "ĠIn": 2913,
      "Ġrise": 2914,
      "Ġsol": 2915,
      "Ġget": 2916,
      "å°Ĩä¼ļ": 2917,
      "ik": 2918,
      "å¤§éĥ¨åĪĨ": 2919,
      "Ġcond": 2920,
      "éĩĬ": 2921,
      "è¿ĲåĬ¨": 2922,
      "change": 2923,
      "Ġexper": 2924,
      "Ġremains": 2925,
      "Ġappe": 2926,
      "ä¸Ńä¸ľ": 2927,
      "At": 2928,
      "Ġespecially": 2929,
      "'s": 2930,
      "çľŁæŃ£": 2931,
      "èµ¤åŃĹ": 2932,
      "åĩºçļĦ": 2933,
      "Ġplan": 2934,
      "æī¾": 2935,
      "Ġrun": 2936,
      "ogn": 2937,
      "Ġdoll": 2938,
      "åıĳè¾¾": 2939,
      "éħį": 2940,
      "Ġfall": 2941,
      "Ġfocus": 2942,
      "åĮĸçļĦ": 2943,
      "ĠAfrica": 2944,
      "az": 2945,
      "Ġnon": 2946,
      "ases": 2947,
      "åıªæĺ¯": 2948,
      "åĬŀ": 2949,
      "åĲ¸": 2950,
      "æ´»åĬ¨": 2951,
      "Ġcrit": 2952,
      "Ġshare": 2953,
      "Ġaddress": 2954,
      "Ġnegoti": 2955,
      "é¢ĨåŁŁ": 2956,
      "ç¥ŀ": 2957,
      "ĠIntern": 2958,
      "Ġdemocracy": 2959,
      "Ġsignificant": 2960,
      "å°¤": 2961,
      "åĢį": 2962,
      "sp": 2963,
      "ĠFed": 2964,
      "ä»Ĭå¤©": 2965,
      "æĿĥåĬĽ": 2966,
      "æł¹æľ¬": 2967,
      "Ġlonger": 2968,
      "vention": 2969,
      "Ġcut": 2970,
      "Ġwhy": 2971,
      "Ġcivil": 2972,
      "æ¨¡å¼ı": 2973,
      "Ġtar": 2974,
      "sequ": 2975,
      "åħ³æ³¨": 2976,
      "å·´åĭĴ": 2977,
      "åıĸå¾Ĺ": 2978,
      "å¡ŀ": 2979,
      "å·´åĭĴæĸ¯åĿ¦": 2980,
      "åĪ©çĶ¨": 2981,
      "å¥½çļĦ": 2982,
      "äºĨä¸Ģ": 2983,
      "å¯»": 2984,
      "Ġdomestic": 2985,
      "é¼": 2986,
      "Ġcome": 2987,
      "Ġrespons": 2988,
      "åºı": 2989,
      "æŃ¦åĻ¨": 2990,
      "éĻĲåĪ¶": 2991,
      "Ġrese": 2992,
      "epend": 2993,
      "Ġpoor": 2994,
      "æ°ĳæĹı": 2995,
      "ĠKorea": 2996,
      "itional": 2997,
      "Ġreturn": 2998,
      "èµ·æĿ¥": 2999,
      "åĪĿ": 3000,
      "ission": 3001,
      "å¥ĩ": 3002,
      "Ġeducation": 3003,
      "Ġpros": 3004,
      "Ġcitizens": 3005,
      "åº·": 3006,
      "Ġdeep": 3007,
      "Ġhapp": 3008,
      "for": 3009,
      "itive": 3010,
      "Ġwant": 3011,
      "ç®Ģ": 3012,
      "ird": 3013,
      "Ġshow": 3014,
      "å®Ĺ": 3015,
      "å¡Ķ": 3016,
      "Ġreforms": 3017,
      "Ġemerging": 3018,
      "é£Ł": 3019,
      "ä¸ªäºº": 3020,
      "Ġhim": 3021,
      "çŁ¥éģĵ": 3022,
      "urd": 3023,
      "çīĻ": 3024,
      "Ġcosts": 3025,
      "è¡°": 3026,
      "åĪ¶å®ļ": 3027,
      "Ġsuff": 3028,
      "åľ°ä½į": 3029,
      "Ġcol": 3030,
      "Ġduring": 3031,
      "åĬ±": 3032,
      "å¹ħ": 3033,
      "omet": 3034,
      "ĠRep": 3035,
      "èį£": 3036,
      "Ġfurther": 3037,
      "å®¶åºŃ": 3038,
      "Ġquestion": 3039,
      "Ġdecades": 3040,
      "è®¨": 3041,
      "åħ³äºİ": 3042,
      "Ġbig": 3043,
      "Ġmass": 3044,
      "æĿ¡ä»¶": 3045,
      "å½ĵåīį": 3046,
      "ĠTur": 3047,
      "ators": 3048,
      "Ġnat": 3049,
      "å¹³çŃī": 3050,
      "Ġwomen": 3051,
      "åľ¨äºİ": 3052,
      "Ġmeans": 3053,
      "Ġviol": 3054,
      "Ġefforts": 3055,
      "Ġeng": 3056,
      "Ġalmost": 3057,
      "æķ°æį®": 3058,
      "éĴ±": 3059,
      "è¿ĩç¨ĭ": 3060,
      "çİ°å®ŀ": 3061,
      "Ġhowever": 3062,
      "Ġgiven": 3063,
      "åŁİå¸Ĥ": 3064,
      "åħ¬æ°ĳ": 3065,
      "çŁ³æ²¹": 3066,
      "Ġbal": 3067,
      "anced": 3068,
      "è¡¨çİ°": 3069,
      "pite": 3070,
      "ä¹ĭéĹ´çļĦ": 3071,
      "Ġkey": 3072,
      "æ°ĳä¼Ĺ": 3073,
      "Ġago": 3074,
      "æ¯«": 3075,
      "Ġrequi": 3076,
      "ĠDe": 3077,
      "å¾Īå¤ļ": 3078,
      "å¤±ä¸ļ": 3079,
      "æĸ¹æ³ķ": 3080,
      "Ġfind": 3081,
      ";&": 3082,
      "ling": 3083,
      "åħ·æľī": 3084,
      "Ġcontinue": 3085,
      "æĢ¥": 3086,
      "Ġothers": 3087,
      "åĬªåĬĽ": 3088,
      "Ġpat": 3089,
      "æķĳ": 3090,
      "æ³ķå¾ĭ": 3091,
      "éĢļèĥĢ": 3092,
      "åĪºæ¿Ģ": 3093,
      "æĺ¯ä¸Ģä¸ª": 3094,
      "%ï¼Į": 3095,
      "åł": 3096,
      "è°ĵ": 3097,
      "Ġprogress": 3098,
      "è´«åĽ°": 3099,
      "arm": 3100,
      "Ġserious": 3101,
      "Ġinn": 3102,
      "Ġhand": 3103,
      "ock": 3104,
      "éĺ¶": 3105,
      "èģĶåĤ¨": 3106,
      "æ½ľ": 3107,
      "Ġhal": 3108,
      "æĪĲåĳĺåĽ½": 3109,
      "ç»ĵæĿŁ": 3110,
      "Ġsector": 3111,
      "èĳĹ": 3112,
      "Ġher": 3113,
      "Ġgain": 3114,
      "the": 3115,
      "Ġorgan": 3116,
      "æĻº": 3117,
      "æĶ¹åĸĦ": 3118,
      "åıĳå±ķä¸Ń": 3119,
      "Ġbuild": 3120,
      "åį±éĻ©": 3121,
      "Ġseems": 3122,
      "omes": 3123,
      "ä¼´": 3124,
      "way": 3125,
      "æĸ°åħ´": 3126,
      "ĠPalest": 3127,
      "vious": 3128,
      "ave": 3129,
      "izing": 3130,
      "When": 3131,
      "çļĦè¯Ŀ": 3132,
      "é»İ": 3133,
      "cies": 3134,
      "å®¢": 3135,
      "Ġbest": 3136,
      "Ġconst": 3137,
      "formation": 3138,
      "pid": 3139,
      "Ġdr": 3140,
      "Ġsecond": 3141,
      "Ġclaim": 3142,
      "lf": 3143,
      "ither": 3144,
      "rop": 3145,
      "è´Ń": 3146,
      "Ġmeet": 3147,
      "é¢Ħç®Ĺ": 3148,
      "çĮ": 3149,
      "Ġsay": 3150,
      "çĽ¸å½ĵ": 3151,
      "ope": 3152,
      "ç¹ģ": 3153,
      "ä¼ļè®®": 3154,
      "Ġprice": 3155,
      "ä¼łç»Ł": 3156,
      "æĶ¯åĩº": 3157,
      "man": 3158,
      "å¹¸": 3159,
      "ç¾İèģĶåĤ¨": 3160,
      "Ġer": 3161,
      "Ġocc": 3162,
      "è¿½": 3163,
      "Ġcamp": 3164,
      "Ġelection": 3165,
      "ĠNorth": 3166,
      "Ġhold": 3167,
      "Ġlib": 3168,
      "Ġgrowing": 3169,
      "ĠFrance": 3170,
      "Ġstud": 3171,
      "Ġwithin": 3172,
      "ession": 3173,
      "æį¢": 3174,
      "Ġrecogn": 3175,
      "nce": 3176,
      "èŃ": 3177,
      "arn": 3178,
      "èĢĮæĺ¯": 3179,
      "ç»´æĮģ": 3180,
      "Ġmodel": 3181,
      "Ġyou": 3182,
      "Ġfam": 3183,
      "ä¿¡æģ¯": 3184,
      "Ġagreement": 3185,
      "éĿ©åĳ½": 3186,
      "é¦ĸåħĪ": 3187,
      "Ġpotential": 3188,
      "èŃ¦": 3189,
      "Ġbenefits": 3190,
      "çķĻ": 3191,
      "å°±ä¼ļ": 3192,
      "Ġterror": 3193,
      "Ġdirect": 3194,
      "å¤§éĩı": 3195,
      "Ġyet": 3196,
      "ä¸İæŃ¤": 3197,
      "Ġcoll": 3198,
      "udget": 3199,
      "è¿ŀ": 3200,
      "ç½ª": 3201,
      "Ġincreasingly": 3202,
      "åħ±åĴĮ": 3203,
      "Ġprovide": 3204,
      "Chin": 3205,
      "hes": 3206,
      "Ġthink": 3207,
      "Ġfound": 3208,
      "èĤ¯": 3209,
      "èĩ³å°ĳ": 3210,
      "æİ¨åĬ¨": 3211,
      "Ġmy": 3212,
      "Ġenough": 3213,
      "Ġrequire": 3214,
      "ĠPart": 3215,
      "Ġpopulation": 3216,
      "Ġcare": 3217,
      "ided": 3218,
      "ç§ģäºº": 3219,
      "å±ħ": 3220,
      "Ġtreat": 3221,
      "è½¦": 3222,
      "te": 3223,
      "tain": 3224,
      "Ġproject": 3225,
      "äºĭä»¶": 3226,
      "çł´åĿı": 3227,
      "Ġunderstand": 3228,
      "çļĦå½±åĵį": 3229,
      "Ġcurrency": 3230,
      "åĪ»": 3231,
      "ä¹ĭåĲİ": 3232,
      "åºĶå¯¹": 3233,
      "å§Ĩ": 3234,
      "çĻ½": 3235,
      "rime": 3236,
      "åįİ": 3237,
      "å³": 3238,
      "Ġitself": 3239,
      "ĠWar": 3240,
      "Ġpost": 3241,
      "çļĦç¤": 3242,
      "ai": 3243,
      "æ¸©": 3244,
      "Ġtru": 3245,
      "ool": 3246,
      "ç½®": 3247,
      "ä¸¤ä¸ª": 3248,
      "çĪĨ": 3249,
      "å·ŀ": 3250,
      "selves": 3251,
      "Ġlower": 3252,
      "èĵ": 3253,
      "Ġparticularly": 3254,
      "Ġevent": 3255,
      "ä¹±": 3256,
      "key": 3257,
      "ĠMiddle": 3258,
      "lim": 3259,
      "çļĦæĶ¿çŃĸ": 3260,
      "lus": 3261,
      "èĴ": 3262,
      "Ġgreater": 3263,
      "iqu": 3264,
      "ences": 3265,
      "å°¼äºļ": 3266,
      "æľĿé²ľ": 3267,
      "Ġcaus": 3268,
      "Ġcomple": 3269,
      "çĬ¯": 3270,
      "Ġadminist": 3271,
      "åĽº": 3272,
      "æĹ¶ä»£": 3273,
      "Ġcho": 3274,
      "wh": 3275,
      "Ġsug": 3276,
      "Ġterms": 3277,
      "TO": 3278,
      "be": 3279,
      "Ġslow": 3280,
      "ression": 3281,
      "Ġprevent": 3282,
      "éĩįè¦ģçļĦ": 3283,
      "Ġregional": 3284,
      "åħī": 3285,
      "è®²": 3286,
      "è¶ĭ": 3287,
      "çĽ¸åħ³": 3288,
      "Ġresources": 3289,
      "reng": 3290,
      "åĮ»çĸĹ": 3291,
      "Ġshe": 3292,
      "Ġworkers": 3293,
      "Yet": 3294,
      "ä¸Ĭè¿°": 3295,
      "æĿ¾": 3296,
      "Ġregime": 3297,
      "ale": 3298,
      "èµĸ": 3299,
      "Ġrights": 3300,
      "æ°ĶåĢĻåıĺåĮĸ": 3301,
      "åģ¥åº·": 3302,
      "rate": 3303,
      "ention": 3304,
      "One": 3305,
      "é¼ĵ": 3306,
      "ug": 3307,
      "Ġinterests": 3308,
      "Ġregul": 3309,
      "Ġlife": 3310,
      "æķ´ä¸ª": 3311,
      "ipl": 3312,
      "å·¦": 3313,
      "æĪĲäºĨ": 3314,
      "åħ¨ä¸ĸçķĮ": 3315,
      "æĪĳä»¬çļĦ": 3316,
      "Ġused": 3317,
      "yn": 3318,
      "ä¹ı": 3319,
      "Ġconsider": 3320,
      "Ġrecently": 3321,
      "å½Ĵ": 3322,
      "empt": 3323,
      "å®Ī": 3324,
      "å¯Ł": 3325,
      "ä¸Ĭåįĩ": 3326,
      "åĪĽæĸ°": 3327,
      "Ġtarget": 3328,
      "While": 3329,
      "è¯ķåĽ¾": 3330,
      "ners": 3331,
      "æ³Ľ": 3332,
      "Ġthus": 3333,
      "Ġstreng": 3334,
      "çĽ´æİ¥": 3335,
      "ividual": 3336,
      "çļĦæĸ°": 3337,
      "icient": 3338,
      "Ġmult": 3339,
      "èĥĮ": 3340,
      "Ġbudget": 3341,
      "cil": 3342,
      "åı¯èĥ½ä¼ļ": 3343,
      "2008": 3344,
      "éĢĲ": 3345,
      "åĶ¯": 3346,
      "pris": 3347,
      "æĺ¾çĦ¶": 3348,
      "çĥĪ": 3349,
      "é¥": 3350,
      "Ġforce": 3351,
      "åıĳçİ°": 3352,
      "æľĢåĲİ": 3353,
      "Ġinteg": 3354,
      "ç¢į": 3355,
      "By": 3356,
      "Ġdeal": 3357,
      "Ġeach": 3358,
      "Ġleft": 3359,
      "Ġcommon": 3360,
      "ief": 3361,
      "æ¸Ĳ": 3362,
      "rench": 3363,
      "è§ĦåĪĻ": 3364,
      "éº": 3365,
      "Ġservices": 3366,
      "Ġinnov": 3367,
      "åĢºåĪ¸": 3368,
      "åı³": 3369,
      "haps": 3370,
      "omp": 3371,
      "åħĭåħ°": 3372,
      "èī¯": 3373,
      "ç±³": 3374,
      "éĶĻè¯¯": 3375,
      "like": 3376,
      "Ġcertain": 3377,
      "rastructure": 3378,
      "ç«¥": 3379,
      "Ġenc": 3380,
      "Ġplace": 3381,
      "ÂłÂł": 3382,
      "Ġsuggest": 3383,
      "Ġinit": 3384,
      "Ġimpact": 3385,
      "Ġnever": 3386,
      "åıĬåħ¶": 3387,
      "ç¨İæĶ¶": 3388,
      "Ġformer": 3389,
      "Ġreduce": 3390,
      "çĵ": 3391,
      "æĺ¯åľ¨": 3392,
      "verage": 3393,
      "Ġface": 3394,
      "Ġinflu": 3395,
      "åİĭåĬĽ": 3396,
      "An": 3397,
      "Ġdest": 3398,
      "ived": 3399,
      "çĭ¬ç«ĭ": 3400,
      "Ġnumber": 3401,
      "come": 3402,
      "ä¹Įåħĭåħ°": 3403,
      "ier": 3404,
      "Ġoppos": 3405,
      "å·¨å¤§çļĦ": 3406,
      "Ġtal": 3407,
      "æĶ¿æĿĥ": 3408,
      "æĭĴ": 3409,
      "æĬ¥åĳĬ": 3410,
      "Ġur": 3411,
      "ĠRe": 3412,
      "Ġgr": 3413,
      "Ġcontrib": 3414,
      "èĢĮè¨Ģ": 3415,
      "ä»£è¡¨": 3416,
      "Ġrelative": 3417,
      "ateral": 3418,
      "ç«Ł": 3419,
      "Ġindividual": 3420,
      "ä¹ł": 3421,
      "Ġweak": 3422,
      "ç»ıæµİå¢ŀéķ¿": 3423,
      "çĽ¸å¯¹": 3424,
      "Ġaccess": 3425,
      "After": 3426,
      "ä¿®": 3427,
      "Ġreflect": 3428,
      "ĠRepublic": 3429,
      "æľºåĪ¶": 3430,
      "Ġrapid": 3431,
      "Ġchildren": 3432,
      "ination": 3433,
      "äº¡": 3434,
      "Ġmin": 3435,
      "Ġdeb": 3436,
      "Ġunem": 3437,
      "199": 3438,
      "åŁºç¡Ģè®¾æĸ½": 3439,
      "å°¤åħ¶": 3440,
      "ening": 3441,
      "å¼Ĥ": 3442,
      "éĤ¦": 3443,
      "Ġshif": 3444,
      "è¢Ń": 3445,
      "å¹³è¡¡": 3446,
      "åħ¬ä¼Ĺ": 3447,
      "Ġpolitics": 3448,
      "ording": 3449,
      "Ġoper": 3450,
      "ä¹Ĳ": 3451,
      "Ġren": 3452,
      "oming": 3453,
      "çĸ¾": 3454,
      "æł¹æį®": 3455,
      "æ¦": 3456,
      "æĿĤ": 3457,
      "Ġchar": 3458,
      "ç¡®å®ļ": 3459,
      "ĠLe": 3460,
      "Ġhistory": 3461,
      "äººç±»": 3462,
      "å·´åŁº": 3463,
      "è£ħ": 3464,
      "Ġaccept": 3465,
      "æŀģç«¯": 3466,
      "ened": 3467,
      "è®Ń": 3468,
      "æĹ¥çĽĬ": 3469,
      "Ġconflict": 3470,
      "China": 3471,
      "åĢĴ": 3472,
      "çĶ¨äºİ": 3473,
      "Ġsimil": 3474,
      "åŁĥåıĬ": 3475,
      "ield": 3476,
      "where": 3477,
      "Ġbroad": 3478,
      "ä¹ĭåīį": 3479,
      "å·´åŁºæĸ¯åĿ¦": 3480,
      "Ġbl": 3481,
      "Ġlocal": 3482,
      "Ġbegin": 3483,
      "These": 3484,
      "åı¯æĮģç»Ń": 3485,
      "æĪ·": 3486,
      "çģ¾": 3487,
      "Ġpossible": 3488,
      "æĪĸè®¸": 3489,
      "ront": 3490,
      "Ġreport": 3491,
      "iod": 3492,
      "oura": 3493,
      "å¿ħè¦ģ": 3494,
      "ĠGreece": 3495,
      "Ġunt": 3496,
      "ç©·": 3497,
      "Ġpred": 3498,
      "çĳ": 3499,
      "åįĥ": 3500,
      "aged": 3501,
      "What": 3502,
      "åıĭ": 3503,
      "æīĢè°ĵ": 3504,
      "åĪ¶éĢł": 3505,
      "æīįèĥ½": 3506,
      "Ġstability": 3507,
      "éĻ·åħ¥": 3508,
      "Ġindustr": 3509,
      "Ġdang": 3510,
      "ä¼¤": 3511,
      "Ġstrateg": 3512,
      "ends": 3513,
      "Ġspe": 3514,
      "Ġsec": 3515,
      "ä¸įåĨį": 3516,
      "ä¸İæŃ¤åĲĮæĹ¶": 3517,
      "èı": 3518,
      "Ġfear": 3519,
      "Ġla": 3520,
      "akistan": 3521,
      "Ġvalue": 3522,
      "aign": 3523,
      "æĬķèµĦèĢħ": 3524,
      "åª": 3525,
      "è¯ģæĺİ": 3526,
      "kra": 3527,
      "Ġexchange": 3528,
      "ceed": 3529,
      "æĸ¯æŀĹ": 3530,
      "æłĩåĩĨ": 3531,
      "ĠPalestin": 3532,
      "utin": 3533,
      "akers": 3534,
      "çļĦæĥħåĨµä¸ĭ": 3535,
      "Ġthemselves": 3536,
      "Ġhead": 3537,
      "éĢīæ°ĳ": 3538,
      "Ġsociety": 3539,
      "Ġnecess": 3540,
      "atives": 3541,
      "Ġrisks": 3542,
      "ç¢³": 3543,
      "Ġsomet": 3544,
      "Ġforces": 3545,
      "æĦıå¤§": 3546,
      "oid": 3547,
      "æĸĹ": 3548,
      "Ġfl": 3549,
      "ased": 3550,
      "Ġonce": 3551,
      "çº½": 3552,
      "è¡°éĢĢ": 3553,
      "è¯ĨåĪ°": 3554,
      "Ġcreate": 3555,
      "Ġru": 3556,
      "ified": 3557,
      "Ġ199": 3558,
      "ç´¢": 3559,
      "æĦıå¤§åĪ©": 3560,
      "Ġhome": 3561,
      "æ¸¸": 3562,
      "å®ĺåĳĺ": 3563,
      "Ġchallenges": 3564,
      "æĽ´ä¸º": 3565,
      "Ġindepend": 3566,
      "åģļåĩº": 3567,
      "å¾ģ": 3568,
      "äº¤æĺĵ": 3569,
      "Ġfunda": 3570,
      "Ġcampaign": 3571,
      "ards": 3572,
      "Ġinfrastructure": 3573,
      "ç§ĳåŃ¦": 3574,
      "ised": 3575,
      "Ġextrem": 3576,
      "onal": 3577,
      "Ġsav": 3578,
      "Ġconsequ": 3579,
      "åĲİæŀľ": 3580,
      "Ġcoop": 3581,
      "Ġhalf": 3582,
      "å¼¹": 3583,
      "Ġmean": 3584,
      "Ġche": 3585,
      "Ġimplement": 3586,
      "å¤±è´¥": 3587,
      "Ġ2008": 3588,
      "æĸĩåĮĸ": 3589,
      "ban": 3590,
      "lation": 3591,
      "çļĦæĹ¶åĢĻ": 3592,
      "Ġsense": 3593,
      "Ġever": 3594,
      "æµģåĬ¨": 3595,
      "iation": 3596,
      "ats": 3597,
      "æ¬§æ´²å¤®è¡Į": 3598,
      "è¿Ļä¸ĢçĤ¹": 3599,
      "gypt": 3600,
      "Ġstrategy": 3601,
      "Ġcult": 3602,
      "Ġlack": 3603,
      "åģĩ": 3604,
      "èµ¢": 3605,
      "çľ¼": 3606,
      "ways": 3607,
      "ä¹¦": 3608,
      "Ġissues": 3609,
      "ä¸įåı¯èĥ½": 3610,
      "è¾¾åĪ°": 3611,
      "Ġmember": 3612,
      "åĵª": 3613,
      "æĺİç¡®": 3614,
      "è¿ĽæŃ¥": 3615,
      "å¸ĥä»Ģ": 3616,
      "æī©å¤§": 3617,
      "Ġjobs": 3618,
      "ĠUN": 3619,
      "çİ°ä»£": 3620,
      "æĢ»çĲĨ": 3621,
      "ĠWestern": 3622,
      "åĶ¯ä¸Ģ": 3623,
      "ata": 3624,
      "æĭħå¿ĥ": 3625,
      "Ġbor": 3626,
      "Ġled": 3627,
      "conomic": 3628,
      "äº§åĵģ": 3629,
      "æŁĵ": 3630,
      "cent": 3631,
      "å®ª": 3632,
      "æĦıä¹ī": 3633,
      "Ġinvestors": 3634,
      "èĬĤ": 3635,
      "Un": 3636,
      "éļ¾ä»¥": 3637,
      "å¼ĥ": 3638,
      "è§£éĩĬ": 3639,
      "Ġbond": 3640,
      "chool": 3641,
      "Ġaction": 3642,
      "Ġrepres": 3643,
      "ĠSyria": 3644,
      "Ġstep": 3645,
      "ä¸»æĿĥ": 3646,
      "ĠMinister": 3647,
      "æģ°": 3648,
      "ä¾ĿçĦ¶": 3649,
      "arian": 3650,
      "ĠTurkey": 3651,
      "ä½Ļ": 3652,
      "æŀ¶": 3653,
      "æ´ĭ": 3654,
      "ç²¹": 3655,
      "oh": 3656,
      "éĩĳèŀįåį±æľº": 3657,
      "é¢Ħæµĭ": 3658,
      "abil": 3659,
      "çĽ¸ä¿¡": 3660,
      "éļ¾æ°ĳ": 3661,
      "uslim": 3662,
      "çĲĨè§£": 3663,
      "éļľ": 3664,
      "åķĨåĵģ": 3665,
      "å´©": 3666,
      "å¿§": 3667,
      "éŁ©": 3668,
      "æĻ®äº¬": 3669,
      "æĭĴç»Ŀ": 3670,
      "Ġstruct": 3671,
      "æĿĥåĪ©": 3672,
      "Ġprogram": 3673,
      "Ġsaf": 3674,
      "Ġhouse": 3675,
      "overty": 3676,
      "åķĨä¸ļ": 3677,
      "Ġensure": 3678,
      "ä¸Ģåľº": 3679,
      "istic": 3680,
      "åįģåĪĨ": 3681,
      "é»ĺ": 3682,
      "erve": 3683,
      "Ġdou": 3684,
      "å¹¶æ²¡æľī": 3685,
      "ilateral": 3686,
      "ç»ıæµİåŃ¦å®¶": 3687,
      "è£Ĥ": 3688,
      "èħĲ": 3689,
      "Even": 3690,
      "åĪĨåŃĲ": 3691,
      "Ġcommunity": 3692,
      "çļĦç¤¾ä¼ļ": 3693,
      "Ġlevels": 3694,
      "è¢ĸ": 3695,
      "Ġdemocratic": 3696,
      "ä»Ĭå¹´": 3697,
      "çĥŃ": 3698,
      "Europe": 3699,
      "åħ»": 3700,
      "éĹ»": 3701,
      "Ġwealth": 3702,
      "åıįåºĶ": 3703,
      "ç¦ģ": 3704,
      "ĠSp": 3705,
      "çĬ¶åĨµ": 3706,
      "ç¹ģèį£": 3707,
      "ins": 3708,
      "ä¼Ļ": 3709,
      "Ġdev": 3710,
      "èĬ±": 3711,
      "å»¶": 3712,
      "è§ī": 3713,
      "Ġcommit": 3714,
      "Ġresearch": 3715,
      "ĩĥ": 3716,
      "æ¯Ķäºļ": 3717,
      "åı·": 3718,
      "åªĴ": 3719,
      "Ġtoget": 3720,
      "æ¬¢": 3721,
      "Ġtogether": 3722,
      "ently": 3723,
      "Ġpolitic": 3724,
      "Ġadministration": 3725,
      "Ġleadership": 3726,
      "çļĦä¸į": 3727,
      "äºĪ": 3728,
      "å¤§è§Ħæ¨¡": 3729,
      "Ġable": 3730,
      "Ġdisp": 3731,
      "oral": 3732,
      "Ġbelieve": 3733,
      "RI": 3734,
      "to": 3735,
      "æĹ¢": 3736,
      "emoc": 3737,
      "çĲĨçĶ±": 3738,
      "ĠSh": 3739,
      "è·¨": 3740,
      "Ġemb": 3741,
      "Ġfight": 3742,
      "Ġearly": 3743,
      "Ġnet": 3744,
      "ĠFrench": 3745,
      "ç»Łæ²»": 3746,
      "Ġbring": 3747,
      "å¹¶éĿŀ": 3748,
      "è¿Ľåħ¥": 3749,
      "ium": 3750,
      "æĵ": 3751,
      "Ġmaintain": 3752,
      "Ġimprove": 3753,
      "å®ĹæķĻ": 3754,
      "side": 3755,
      "å¤§å¤ļæķ°": 3756,
      "èŀįèµĦ": 3757,
      "ĠUkra": 3758,
      "Ġexpl": 3759,
      "æļ´åĬĽ": 3760,
      "Ġland": 3761,
      "ĠPakistan": 3762,
      "Ġachieve": 3763,
      "Ġold": 3764,
      "Ġkeep": 3765,
      "Ġlook": 3766,
      "Ġchallenge": 3767,
      "ĠAr": 3768,
      "åĨħéĥ¨": 3769,
      "acc": 3770,
      "Ġrising": 3771,
      "Ġunemployment": 3772,
      "ä¸ªæľĪ": 3773,
      "Ġfinance": 3774,
      "å¼ķåıĳ": 3775,
      "åĦ¿ç«¥": 3776,
      "å¹´æĿ¥": 3777,
      "Ġexist": 3778,
      "çĦ¶èĢĮ": 3779,
      "æł¸å¿ĥ": 3780,
      "ä¾Ŀèµĸ": 3781,
      "æ°¸": 3782,
      "ç¿¼": 3783,
      "dash": 3784,
      "Ġbre": 3785,
      "ĠTh": 3786,
      "yond": 3787,
      "Ġmodern": 3788,
      "æĢĢ": 3789,
      "irst": 3790,
      "æīĭæ®µ": 3791,
      "äº²": 3792,
      "Ġrules": 3793,
      "Ġmet": 3794,
      "He": 3795,
      "mdash": 3796,
      "åĬ³åĬ¨åĬĽ": 3797,
      "dom": 3798,
      "lt": 3799,
      "Ġgra": 3800,
      "è¯ī": 3801,
      "å¾®": 3802,
      "acks": 3803,
      "ç¬¬äºĮ": 3804,
      "ee": 3805,
      "Ġtimes": 3806,
      "éĩįå¤§": 3807,
      "èĵĦ": 3808,
      "å¹´åīį": 3809,
      "Ġvict": 3810,
      "160": 3811,
      "Ġcr": 3812,
      "èĭ¦": 3813,
      "Ġdecision": 3814,
      "éĴĪå¯¹": 3815,
      "ĠParty": 3816,
      "Ġcomb": 3817,
      "ä¾µ": 3818,
      "æĮĩåĩº": 3819,
      "Ġpopul": 3820,
      "è¾¾æĪĲ": 3821,
      "é¢Ĩè¢ĸ": 3822,
      "Ġperiod": 3823,
      "Ġpurs": 3824,
      "å¤ĸåĽ½": 3825,
      "æ¬§æ´²çļĦ": 3826,
      "çĩĥ": 3827,
      "æįŁå¤±": 3828,
      "Ġdollar": 3829,
      "çĪ±": 3830,
      "oint": 3831,
      "è½¯": 3832,
      "åħ¨çĲĥç»ıæµİ": 3833,
      "çĪĨåıĳ": 3834,
      "Ġpoverty": 3835,
      "å®¡": 3836,
      "æ¯ıå¹´": 3837,
      "Ġmeasures": 3838,
      "Ġmaking": 3839,
      "ĠCent": 3840,
      "æī¿è®¤": 3841,
      "Ġissue": 3842,
      "makers": 3843,
      "Ġsit": 3844,
      "æİĴæĶ¾": 3845,
      "Ġsimply": 3846,
      "raw": 3847,
      "Ġyoun": 3848,
      "Ġclose": 3849,
      "uation": 3850,
      "ĠMuslim": 3851,
      "Ġincreased": 3852,
      "Al": 3853,
      "Ġsimilar": 3854,
      "Ġfive": 3855,
      "éģĩ": 3856,
      "æ±Ĺ": 3857,
      "Ġcentury": 3858,
      "åīĬåĩı": 3859,
      "ç»ľ": 3860,
      "èİ«": 3861,
      "Ġfuel": 3862,
      "æľīçļĦ": 3863,
      "æĶ¿åºľçļĦ": 3864,
      "rodu": 3865,
      "æľīæīĢ": 3866,
      "è°ĥæķ´": 3867,
      "è¡ĮçļĦ": 3868,
      "è·Į": 3869,
      "çħ§": 3870,
      "åĲĹ": 3871,
      "Ġstat": 3872,
      "Ġconstit": 3873,
      "å·¥ä¸ļ": 3874,
      "Ġboost": 3875,
      "ä¸»ä¹īèĢħ": 3876,
      "Ġacross": 3877,
      "ler": 3878,
      "yp": 3879,
      "ä¸įè¶³": 3880,
      "11": 3881,
      "bon": 3882,
      "æ¯Ĵ": 3883,
      "çļĦçł": 3884,
      "æģ©": 3885,
      "Ġrecover": 3886,
      "è®¨è®º": 3887,
      "è¯Ń": 3888,
      "æŃ£ç¡®": 3889,
      "Ġfour": 3890,
      "Ġhope": 3891,
      "Ġrule": 3892,
      "then": 3893,
      "Ġblo": 3894,
      "ĠIMF": 3895,
      "å·¥èµĦ": 3896,
      "utional": 3897,
      "Ġdanger": 3898,
      "Of": 3899,
      "cial": 3900,
      "isions": 3901,
      "olit": 3902,
      "æĽ¼": 3903,
      "Ġfull": 3904,
      "ĠâĢĿ": 3905,
      "æķ£": 3906,
      "ĠEgypt": 3907,
      "æ¯ķ": 3908,
      "Ġcorpor": 3909,
      "çĵ¦": 3910,
      "åªĴä½ĵ": 3911,
      "ĠNew": 3912,
      "Ġalways": 3913,
      "Ġanti": 3914,
      "å¹´è½»": 3915,
      "ĠItal": 3916,
      "Ġfood": 3917,
      "Ġweap": 3918,
      "åĩĨå¤ĩ": 3919,
      "èĮĥåĽ´": 3920,
      "Ġtop": 3921,
      "ĠBritish": 3922,
      "ä¸įç®¡": 3923,
      "issions": 3924,
      "æĦ¿æĦı": 3925,
      "å¹²é¢Ħ": 3926,
      "Ġsl": 3927,
      "åħģ": 3928,
      "æķ°åŃĹ": 3929,
      "åıªèĥ½": 3930,
      "Ġbased": 3931,
      "incip": 3932,
      "though": 3933,
      "åĬłåħ¥": 3934,
      "Ġestablish": 3935,
      "ival": 3936,
      "å±ŀ": 3937,
      "iplom": 3938,
      "Ġemployment": 3939,
      "Ġdata": 3940,
      "Ġloss": 3941,
      "æĹ¶æľŁ": 3942,
      "Ġdecade": 3943,
      "çĳŀ": 3944,
      "ä¸įåĪ°": 3945,
      "Ġbalance": 3946,
      "aud": 3947,
      "ç»Ĩ": 3948,
      "å¹¿æ³Ľ": 3949,
      "Ġident": 3950,
      "ï¼ĮâĢľ": 3951,
      "æľŁéĹ´": 3952,
      "40": 3953,
      "æŃ£å¦Ĥ": 3954,
      "è§Ĩä¸º": 3955,
      "Ġ6": 3956,
      "ä¼Ļä¼´": 3957,
      "æ±ĩçİĩ": 3958,
      "åºĵ": 3959,
      "Ġunc": 3960,
      "è¢Ńåĩ»": 3961,
      "Ġpract": 3962,
      "Ġbeh": 3963,
      "Ġself": 3964,
      "ç½ĳç»ľ": 3965,
      "Ġencoura": 3966,
      "just": 3967,
      "å®½": 3968,
      "ĠBush": 3969,
      "æķ°éĩı": 3970,
      "Ġsing": 3971,
      "åĲ¬": 3972,
      "Ġsystems": 3973,
      "æĽ´å¤ļçļĦ": 3974,
      "ç©Ĩæĸ¯æŀĹ": 3975,
      "Ġliberal": 3976,
      "å®¹æĺĵ": 3977,
      "åħģè®¸": 3978,
      "éĹ®é¢ĺçļĦ": 3979,
      "Some": 3980,
      "è®®ä¼ļ": 3981,
      "å¤įèĭı": 3982,
      "CB": 3983,
      "åı¤": 3984,
      "ä½Ĩåľ¨": 3985,
      "éĺ»æŃ¢": 3986,
      "è¶ĭåĬ¿": 3987,
      "å¢¨": 3988,
      "12": 3989,
      "åĤ¨èĵĦ": 3990,
      "mm": 3991,
      "æĿ¥çļĦ": 3992,
      "åºĶå½ĵ": 3993,
      "æĹłè®º": 3994,
      "å¤įæĿĤ": 3995,
      "ç¼ºä¹ı": 3996,
      "ctions": 3997,
      "è¿Ľç¨ĭ": 3998,
      "éĿ¢å¯¹": 3999,
      "éĺ¿å¯Į": 4000,
      "Ġtechnology": 4001,
      "åıĳå±ķä¸ŃåĽ½å®¶": 4002,
      "å¤§åŃ¦": 4003,
      "ç§¯æŀģ": 4004,
      "éĺ¿å¯Įæ±Ĺ": 4005,
      "15": 4006,
      "Ġbord": 4007,
      "ively": 4008,
      "æĿ¡çº¦": 4009,
      "æ¯«æĹł": 4010,
      "onse": 4011,
      "ne": 4012,
      "åĲī": 4013,
      "Ġelse": 4014,
      "èĩªçĦ¶": 4015,
      "å²Ľ": 4016,
      "IMF": 4017,
      "ming": 4018,
      "æķ¦": 4019,
      "çģ«": 4020,
      "Ġinformation": 4021,
      "æĶ¿çŃĸçļĦ": 4022,
      "è´¢å¯Į": 4023,
      "åįıå®ļ": 4024,
      "å½¢æĪĲ": 4025,
      "Ġparties": 4026,
      "Ġrelig": 4027,
      "Ġprincip": 4028,
      "Ġconditions": 4029,
      "Ġaim": 4030,
      "Ġsure": 4031,
      "Ġtrue": 4032,
      "quality": 4033,
      "Ġavoid": 4034,
      "è¿ª": 4035,
      "Ġsovere": 4036,
      "by": 4037,
      "ended": 4038,
      "è¿ħ": 4039,
      "é¾": 4040,
      "å¤§å¹ħ": 4041,
      "arent": 4042,
      "ĠInternational": 4043,
      "aring": 4044,
      "æľīåħ³": 4045,
      "çŃ¾": 4046,
      "wise": 4047,
      "åľ¨ä¸Ģ": 4048,
      "å½ĵæĹ¶": 4049,
      "Ġmanage": 4050,
      "ç»ıåİĨ": 4051,
      "Ġabs": 4052,
      "å»ºè®¾": 4053,
      "Ġbar": 4054,
      "Ġdiplom": 4055,
      "åľ¨ç¾İåĽ½": 4056,
      "å®£å¸ĥ": 4057,
      "Ġopportunity": 4058,
      "Ġinvol": 4059,
      "å¸¦æĿ¥çļĦ": 4060,
      "ï¿½ï¿½ï¿½": 4061,
      "Ġposition": 4062,
      "olic": 4063,
      "ä¹Łä¸į": 4064,
      "aster": 4065,
      "Ġdespite": 4066,
      "Ġparty": 4067,
      "ä»ħä»ħ": 4068,
      "ä¸Ńå¤®": 4069,
      "åĲİçļĦ": 4070,
      "åħ±åĴĮåħļ": 4071,
      "lia": 4072,
      "acity": 4073,
      "Ġadvanced": 4074,
      "ouncil": 4075,
      "å¼Ģåıĳ": 4076,
      "æ£®": 4077,
      "rupt": 4078,
      "Ġfirms": 4079,
      "Ġdise": 4080,
      "æĥĬ": 4081,
      "Ġregard": 4082,
      "ring": 4083,
      "ä»£ä»·": 4084,
      "Ġrefuge": 4085,
      "éĽĨåĽ¢": 4086,
      "ĠCon": 4087,
      "Ġsever": 4088,
      "çļĦç¬": 4089,
      "Ġentire": 4090,
      "äºĨä¸Ģä¸ª": 4091,
      "illions": 4092,
      "åİŁåĪĻ": 4093,
      "ĠRussian": 4094,
      "åħħåĪĨ": 4095,
      "åĲ¸å¼ķ": 4096,
      "ĠCouncil": 4097,
      "Ġresponse": 4098,
      "Ġtre": 4099,
      "åĨ·": 4100,
      "ean": 4101,
      "åģ¿": 4102,
      "çĽĽ": 4103,
      "ource": 4104,
      "Ġdeveloped": 4105,
      "å·¨å¤§": 4106,
      "è¿ĩåº¦": 4107,
      "é«ĺçļĦ": 4108,
      "åİ»å¹´": 4109,
      "Ġamount": 4110,
      "çģŃ": 4111,
      "æĺł": 4112,
      "Ġsaid": 4113,
      "Ġschool": 4114,
      "åĪļ": 4115,
      "ghan": 4116,
      "å·´è¥¿": 4117,
      "ĠGerman": 4118,
      "Ġrece": 4119,
      "ä¸Ģä½į": 4120,
      "æĹ¦": 4121,
      "ä¸ĭçļĦ": 4122,
      "Ġhistor": 4123,
      "Ġpressure": 4124,
      "ising": 4125,
      "Ġdam": 4126,
      "Ġdone": 4127,
      "åľ¨è¿Ļ": 4128,
      "Ġbad": 4129,
      "ç«Ļ": 4130,
      "æĮ¯": 4131,
      "é¡¾": 4132,
      "Ġconsumption": 4133,
      "king": 4134,
      "Ġ7": 4135,
      "Ġdeficit": 4136,
      "25": 4137,
      "è´Ŀ": 4138,
      "Ġadop": 4139,
      "Ġstrengthen": 4140,
      "uing": 4141,
      "Ġpromot": 4142,
      "åĳ¢": 4143,
      "Ġsk": 4144,
      "è¿Ŀ": 4145,
      "å°Ĩåľ¨": 4146,
      "ĠPutin": 4147,
      "éģĵå¾·": 4148,
      "Ġcalled": 4149,
      "äº«": 4150,
      "å¿«éĢŁ": 4151,
      "Ġsingle": 4152,
      "Ġgroups": 4153,
      "Ġyoung": 4154,
      "æĭ¿": 4155,
      "ä¸»ä¹īçļĦ": 4156,
      "Ġeffort": 4157,
      "èĦĳ": 4158,
      "Ġareas": 4159,
      "ighb": 4160,
      "iveness": 4161,
      "ä¸Ģèĩ´": 4162,
      "å¦ĩ": 4163,
      "å¥³æĢ§": 4164,
      "Ġtaken": 4165,
      "rag": 4166,
      "æģ¢": 4167,
      "rated": 4168,
      "æīĺ": 4169,
      "ä¿ĥè¿Ľ": 4170,
      "Ġeffects": 4171,
      "æ²Ļçī¹": 4172,
      "Ġassets": 4173,
      "reg": 4174,
      "Ġnorm": 4175,
      "åıįæĺł": 4176,
      "åľ°åĮºçļĦ": 4177,
      "è°ĥæŁ¥": 4178,
      "é»ĳ": 4179,
      "Ġofficials": 4180,
      "åĲĪæ³ķ": 4181,
      "å®ŀéĻħä¸Ĭ": 4182,
      "åħ¸": 4183,
      "Ġvis": 4184,
      "æģ¢å¤į": 4185,
      "rams": 4186,
      "è¿ħéĢŁ": 4187,
      "Ġcreat": 4188,
      "Ġmar": 4189,
      "ented": 4190,
      "å¼ĢæĶ¾": 4191,
      "ä¿Ŀè¯ģ": 4192,
      "å³°": 4193,
      "ç½²": 4194,
      "Ġleading": 4195,
      "pped": 4196,
      "èģĶç³»": 4197,
      "Ġwhose": 4198,
      "å¤±åİ»": 4199,
      "Ġproduction": 4200,
      "å¾Ģå¾Ģ": 4201,
      "Ġuntil": 4202,
      "Ġrequires": 4203,
      "ĠUkraine": 4204,
      "æĽ¿": 4205,
      "ç¾İåĽ½åĴĮ": 4206,
      "æĸ¹éĿ¢çļĦ": 4207,
      "æħ¢": 4208,
      "irc": 4209,
      "Ġpoliticians": 4210,
      "Ġvar": 4211,
      "ĠBritain": 4212,
      "ned": 4213,
      "åĲ«": 4214,
      "ify": 4215,
      "çº½çº¦": 4216,
      "ON": 4217,
      "åĳ¼": 4218,
      "åĬŀæ³ķ": 4219,
      "Ġconsequences": 4220,
      "çļĦç¬¬": 4221,
      "ç»ıæµİçļĦ": 4222,
      "æĬķç¥¨": 4223,
      "åĽ°éļ¾": 4224,
      "éĤ»": 4225,
      "çļĦçľ": 4226,
      "å¹³åĿĩ": 4227,
      "Ġexport": 4228,
      "å¥½å¤Ħ": 4229,
      "Ġaverage": 4230,
      "iting": 4231,
      "ç»ıå¸¸": 4232,
      "Ġsupply": 4233,
      "æī¿æĭħ": 4234,
      "å¿½": 4235,
      "æİĮ": 4236,
      "å¹¶ä¸įæĺ¯": 4237,
      "ĠFund": 4238,
      "ya": 4239,
      "raz": 4240,
      "ä½Ĩè¿Ļ": 4241,
      "æ¯ģ": 4242,
      "Ġunlike": 4243,
      "èħĲè´¥": 4244,
      "Ġseveral": 4245,
      "ched": 4246,
      "ä¸įè¿ĩ": 4247,
      "éĢļå¸¸": 4248,
      "Ġproductivity": 4249,
      "æºĥ": 4250,
      "Ġkind": 4251,
      "mber": 4252,
      "åĶ®": 4253,
      "ä¸»å¸Ń": 4254,
      "ruption": 4255,
      "æĦŁåĪ°": 4256,
      "ĠAfghan": 4257,
      "Americ": 4258,
      "ĠAl": 4259,
      "ĠUK": 4260,
      "ured": 4261,
      "éľ²": 4262,
      "åĲ¯": 4263,
      "åĲĪçĲĨ": 4264,
      "æŀĲ": 4265,
      "è¡Įä¸ļ": 4266,
      "è¶³å¤Ł": 4267,
      "å¢¨è¥¿": 4268,
      "æīĢä»¥": 4269,
      "æ²»çĲĨ": 4270,
      "ä¹ĭå¤ĸ": 4271,
      "Ġweapons": 4272,
      "å¢¨è¥¿åĵ¥": 4273,
      "éŁ©åĽ½": 4274,
      "Ġill": 4275,
      "Ġess": 4276,
      "æŃ£æĺ¯": 4277,
      "çļĦçŁ": 4278,
      "æĺ¾ç¤º": 4279,
      "Ġcause": 4280,
      "ç¾İåĽ½äºº": 4281,
      "èģĶéĤ¦": 4282,
      "Ġmonths": 4283,
      "med": 4284,
      "æľĢå¤§çļĦ": 4285,
      "çļĦåħ¨çĲĥ": 4286,
      "çļĦæĶ¯æĮģ": 4287,
      "å®ªæ³ķ": 4288,
      "Ġassum": 4289,
      "ä¸Ģé¡¹": 4290,
      "å·¥äºº": 4291,
      "Ġlargest": 4292,
      "Ġiniti": 4293,
      "lev": 4294,
      "Ġdemon": 4295,
      "æŁĲç§į": 4296,
      "Ġannual": 4297,
      "æĮ¥": 4298,
      "æıĲåĩº": 4299,
      "å½¢å¼ı": 4300,
      "æ¢ħ": 4301,
      "ç®Ģåįķ": 4302,
      "ĠQ": 4303,
      "æķħ": 4304,
      "åĬ©äºİ": 4305,
      "liament": 4306,
      "Ġcoal": 4307,
      "Ġfailed": 4308,
      "Ġopposition": 4309,
      "Ġhousehold": 4310,
      "æĲ": 4311,
      "éĽ·": 4312,
      "rade": 4313,
      "ored": 4314,
      "å·¥åħ·": 4315,
      "Ġcreated": 4316,
      "æľīåĪ©": 4317,
      "Ġsuccessful": 4318,
      "è¿İ": 4319,
      "Ġdrug": 4320,
      "ĠAmericans": 4321,
      "Ġpopular": 4322,
      "Ġday": 4323,
      "è´Ńä¹°": 4324,
      "éĥ¨éķ¿": 4325,
      "çĬ¹": 4326,
      "Ġlargely": 4327,
      "Ġcooperation": 4328,
      "Ġstructural": 4329,
      "Ġreach": 4330,
      "Ġdeath": 4331,
      "æĶ¿åħļ": 4332,
      "Ġwater": 4333,
      "åĨĽéĺŁ": 4334,
      "åį«çĶŁ": 4335,
      "Ġrespect": 4336,
      "é¢ĦæľŁ": 4337,
      "Ġpowerful": 4338,
      "çŁŃæľŁ": 4339,
      "Ġtest": 4340,
      "æŃ»äº¡": 4341,
      "wide": 4342,
      "rec": 4343,
      "istance": 4344,
      "Ġworking": 4345,
      "ĠCong": 4346,
      "æĮī": 4347,
      "Ġchanges": 4348,
      "èµ¢å¾Ĺ": 4349,
      "Such": 4350,
      "reen": 4351,
      "uted": 4352,
      "aging": 4353,
      "Ġcounter": 4354,
      "Ġpolicymakers": 4355,
      "Ġborrow": 4356,
      "Ġexcess": 4357,
      "rong": 4358,
      "Ġtotal": 4359,
      "oday": 4360,
      "æĶ¯ä»ĺ": 4361,
      "ç¡®å®ŀ": 4362,
      "Ġinfluence": 4363,
      "æ¥": 4364,
      "imul": 4365,
      "çĽ®çļĦ": 4366,
      "æĶ¶çĽĬ": 4367,
      "æ½ľåľ¨": 4368,
      "down": 4369,
      "Ġfav": 4370,
      "ç¤¾": 4371,
      "è¥¿çıŃ": 4372,
      "ensive": 4373,
      "Ġclass": 4374,
      "Ġemissions": 4375,
      "è¥¿çıŃçīĻ": 4376,
      "Ġdon": 4377,
      "omb": 4378,
      "Ġneighb": 4379,
      "ĠKing": 4380,
      "Ġvoters": 4381,
      "Ġnatural": 4382,
      "Ġattempt": 4383,
      "Ġways": 4384,
      "Ġprograms": 4385,
      "éĻ¤äºĨ": 4386,
      "iversity": 4387,
      "æ¦Ĥ": 4388,
      "å´©æºĥ": 4389,
      "mb": 4390,
      "ç¼ĺ": 4391,
      "market": 4392,
      "iding": 4393,
      "ĠPrime": 4394,
      "åŁºäºİ": 4395,
      "éĽ¶": 4396,
      "ç´§ç¼©": 4397,
      "ds": 4398,
      "éĻĨ": 4399,
      "Ġleader": 4400,
      "Many": 4401,
      "thing": 4402,
      "Ġalone": 4403,
      "åį³ä¾¿": 4404,
      "æĢĿæĥ³": 4405,
      "ĠIslamic": 4406,
      "Ġfundamental": 4407,
      "Ġbeyond": 4408,
      "Ġprob": 4409,
      "å®ĥä»¬çļĦ": 4410,
      "Ġparticip": 4411,
      "Ġflow": 4412,
      "ĠCentral": 4413,
      "ä¸Ńå¿ĥ": 4414,
      "æĽ¾ç»ı": 4415,
      "ĠBar": 4416,
      "ç«ĭåľº": 4417,
      "Ġperform": 4418,
      "Ġdemonst": 4419,
      "ton": 4420,
      "Ġagg": 4421,
      "Ġscient": 4422,
      "æĢİ": 4423,
      "Ġprec": 4424,
      "Ġcapacity": 4425,
      "Ġobject": 4426,
      "razil": 4427,
      "åŃ©": 4428,
      "Ġbanking": 4429,
      "Ġmassive": 4430,
      "åĽ½ä¼ļ": 4431,
      "ĠCl": 4432,
      "å¼ķèµ·": 4433,
      "å¤ļçļĦ": 4434,
      "ruction": 4435,
      "Ġlive": 4436,
      "ä¸ºä»Ģä¹Ī": 4437,
      "åĬłå¼º": 4438,
      "ä¸¤åĽ½": 4439,
      "Ġfunds": 4440,
      "æī¹è¯Ħ": 4441,
      "Ġviolence": 4442,
      "Ġnecessary": 4443,
      "atory": 4444,
      "ä¸įå¹³çŃī": 4445,
      "Ġhaving": 4446,
      "de": 4447,
      "å®¤": 4448,
      "ĠNations": 4449,
      "Ġindustry": 4450,
      "Ġlives": 4451,
      "Ġstimul": 4452,
      "Ġdebate": 4453,
      "arily": 4454,
      "è¯ļ": 4455,
      "åģı": 4456,
      "æķĪæŀľ": 4457,
      "Ġkill": 4458,
      "åĨįæ¬¡": 4459,
      "igr": 4460,
      "åħ¬å¼Ģ": 4461,
      "çĲĨè®º": 4462,
      "Ġtransp": 4463,
      "æĢģåº¦": 4464,
      "Ġperhaps": 4465,
      "ĠAsian": 4466,
      "Given": 4467,
      "hood": 4468,
      "Ġagend": 4469,
      "å¸ĤåľºçļĦ": 4470,
      "ç¨ĭåº¦ä¸Ĭ": 4471,
      "èı²": 4472,
      "ene": 4473,
      "Ġanal": 4474,
      "é¼ĵåĬ±": 4475,
      "Ġbehav": 4476,
      "è§Ĵèī²": 4477,
      "Ġpass": 4478,
      "çĽĸ": 4479,
      "ä¼ĳ": 4480,
      "Ġopt": 4481,
      "verse": 4482,
      "Ġproper": 4483,
      "ç»ıéªĮ": 4484,
      "ember": 4485,
      "åĤ¨å¤ĩ": 4486,
      "Ġenvironment": 4487,
      "reedom": 4488,
      "å½ķ": 4489,
      "èį¡": 4490,
      "exic": 4491,
      "çģ¾éļ¾": 4492,
      "Today": 4493,
      "ĠEn": 4494,
      "ï¼ļâĢľ": 4495,
      "%.": 4496,
      "ĠZ": 4497,
      "Ġrad": 4498,
      "å¿Ĺ": 4499,
      "æ¶¨": 4500,
      "ortunately": 4501,
      "Ġpartners": 4502,
      "itted": 4503,
      "Ġfailure": 4504,
      "iate": 4505,
      "å®ĥçļĦ": 4506,
      "è¯Ħä¼°": 4507,
      "Ġrelationship": 4508,
      "Ġaway": 4509,
      "fer": 4510,
      "sid": 4511,
      "éģį": 4512,
      "ories": 4513,
      "åįļ": 4514,
      "è´´": 4515,
      "NE": 4516,
      "Ġmakes": 4517,
      "Ġgive": 4518,
      "igration": 4519,
      "Ġprim": 4520,
      "å¤Ħäºİ": 4521,
      "Ġdeterm": 4522,
      "åĪĨæŀĲ": 4523,
      "èİ±": 4524,
      "åĽ½éĻħè´§å¸ģ": 4525,
      "Ġaffect": 4526,
      "è´§å¸ģæĶ¿çŃĸ": 4527,
      "æĹ§": 4528,
      "è¿Ļåľº": 4529,
      "è¯¸": 4530,
      "ä¹Łä¼ļ": 4531,
      "ĠPar": 4532,
      "éģı": 4533,
      "oviet": 4534,
      "cl": 4535,
      "ä»»åĬ¡": 4536,
      "Ġnegotiations": 4537,
      "å¯»æ±Ĥ": 4538,
      "Ġshift": 4539,
      "åľ¨è¿ĩåİ»": 4540,
      "Ġgas": 4541,
      "alled": 4542,
      "çĶŁäº§çİĩ": 4543,
      "çļĦä¸»è¦ģ": 4544,
      "ĠRes": 4545,
      "çĨ": 4546,
      "Ġexports": 4547,
      "è½¬ç§»": 4548,
      "Ġgoods": 4549,
      "Ġbegan": 4550,
      "Ġdecline": 4551,
      "Ġhuge": 4552,
      "æľīäºº": 4553,
      "ĠECB": 4554,
      "ously": 4555,
      "èī¾": 4556,
      "Ġexpected": 4557,
      "ĠGe": 4558,
      "åı¦ä¸Ģä¸ª": 4559,
      "Ġsustainable": 4560,
      "èĨ": 4561,
      "é½": 4562,
      "åħ¶å®ŀ": 4563,
      "Ġsoon": 4564,
      "æī§è¡Į": 4565,
      "Ġstrategic": 4566,
      "Ġmov": 4567,
      "è´¬": 4568,
      "Ġexpand": 4569,
      "å¸Ī": 4570,
      "å»ºè®®": 4571,
      "ien": 4572,
      "Ġcy": 4573,
      "éĶĢ": 4574,
      "Ġquick": 4575,
      "Ġmajority": 4576,
      "Ġmedia": 4577,
      "æŃ§": 4578,
      "éĢı": 4579,
      "çŃĶ": 4580,
      "åħ¶ä»ĸåĽ½å®¶": 4581,
      "2010": 4582,
      "æĳĨ": 4583,
      "åŁºéĩĳç»Ħç»ĩ": 4584,
      "çĿ£": 4585,
      "Ġbreak": 4586,
      "att": 4587,
      "åľ£": 4588,
      "ç»ıæµİåŃ¦": 4589,
      "gent": 4590,
      "å®ı": 4591,
      "Ġaid": 4592,
      "çĶŁçī©": 4593,
      "Ġseen": 4594,
      "velopment": 4595,
      "Ġsan": 4596,
      "stead": 4597,
      "Ġwilling": 4598,
      "éģĹ": 4599,
      "æ¶ī": 4600,
      "æīĵåĩ»": 4601,
      "Ġdel": 4602,
      "Ġpropos": 4603,
      "å«": 4604,
      "ĠJapanese": 4605,
      "Ġult": 4606,
      "çľĭåĪ°": 4607,
      "ĠCommission": 4608,
      "Ġunderm": 4609,
      "Ġ2010": 4610,
      "Ġten": 4611,
      "çļĦæĸ¹å¼ı": 4612,
      "Ġeth": 4613,
      "owers": 4614,
      "Ġunion": 4615,
      "ç¬¬ä¸ī": 4616,
      "éĢŁåº¦": 4617,
      "èĭıèģĶ": 4618,
      "åıĳè¾¾åĽ½å®¶": 4619,
      "Ġability": 4620,
      "ç³Ł": 4621,
      "æ··": 4622,
      "æī©å¼ł": 4623,
      "Ġidea": 4624,
      "Ġenvironmental": 4625,
      "Ġnews": 4626,
      "åĨľä¸ļ": 4627,
      "æ¯ķç«Ł": 4628,
      "Ġmis": 4629,
      "Ġlegit": 4630,
      "Ġlegal": 4631,
      "45": 4632,
      "åħ¨çĲĥåĮĸ": 4633,
      "éģıåĪ¶": 4634,
      "å¼ºè°ĥ": 4635,
      "ledge": 4636,
      "Ġ8": 4637,
      "oring": 4638,
      "æľ¬èº«": 4639,
      "hind": 4640,
      "åĿļæĮģ": 4641,
      "å¦ĩå¥³": 4642,
      "go": 4643,
      "Ġunp": 4644,
      "è¿½æ±Ĥ": 4645,
      "Ġpredict": 4646,
      "çļĦä¿¡": 4647,
      "å¤º": 4648,
      "Ġreven": 4649,
      "Ġrich": 4650,
      "Ġgovernance": 4651,
      "éĽĨä¸Ń": 4652,
      "Ġeconomists": 4653,
      "åıªè¦ģ": 4654,
      "æĶ»": 4655,
      "Ġlost": 4656,
      "æľīåĬ©äºİ": 4657,
      "set": 4658,
      "äºĭæĥħ": 4659,
      "Ġjud": 4660,
      "æ¡Ĩ": 4661,
      "Ġdesign": 4662,
      "Ġsubst": 4663,
      "æ¹": 4664,
      "æł¡": 4665,
      "Ġargu": 4666,
      "ä¼¦æķ¦": 4667,
      "Ġevidence": 4668,
      "Ġwin": 4669,
      "lying": 4670,
      "Ġlater": 4671,
      "Ġbenefit": 4672,
      "GDPçļĦ": 4673,
      "Ġfeel": 4674,
      "èĤ¯å®ļ": 4675,
      "Ġperm": 4676,
      "è¾©": 4677,
      "Ġincent": 4678,
      "Ġ1990": 4679,
      "Ġsurpris": 4680,
      "ä¼ĺåĬ¿": 4681,
      "ĠDemoc": 4682,
      "è·Ŀ": 4683,
      "Ġactiv": 4684,
      "Ġclos": 4685,
      "Ġcand": 4686,
      "éĢĬ": 4687,
      "Is": 4688,
      "ĠSaud": 4689,
      "ĠPro": 4690,
      "Ġdiscuss": 4691,
      "çĸ¾çĹħ": 4692,
      "èµ«": 4693,
      "Ġprior": 4694,
      "Ġelections": 4695,
      "Ġinequality": 4696,
      "Ġmom": 4697,
      "æ´Ľ": 4698,
      "Ġsolution": 4699,
      "Ġauthorities": 4700,
      "åĨ³çŃĸèĢħ": 4701,
      "è®¿": 4702,
      "Ġaltern": 4703,
      "Ġdoing": 4704,
      "ä¸ľè¥¿": 4705,
      "lies": 4706,
      "itarian": 4707,
      "æĪĲç«ĭ": 4708,
      "åħ¬å¹³": 4709,
      "Ġowing": 4710,
      "æ¡Ĩæŀ¶": 4711,
      "çĶŁåĳ½": 4712,
      "çĹĩ": 4713,
      "Ġprosper": 4714,
      "Ġagenda": 4715,
      "lin": 4716,
      "put": 4717,
      "æĺİæĺ¾": 4718,
      "æĥ³è¦ģ": 4719,
      "2009": 4720,
      "Ġinnovation": 4721,
      "äººéĥ½": 4722,
      "äººåĳĺ": 4723,
      "æ²ĥ": 4724,
      "Ġeither": 4725,
      "chan": 4726,
      "æķĮ": 4727,
      "å®ĮæĪĲ": 4728,
      "ape": 4729,
      "Ġexc": 4730,
      "ä¾ĭåŃĲ": 4731,
      "è¾ĵ": 4732,
      "ç»ª": 4733,
      "Ġ10": 4734,
      "Ġamb": 4735,
      "Ġrespond": 4736,
      "%,": 4737,
      "line": 4738,
      "åħ¨éĿ¢": 4739,
      "æł¸æŃ¦åĻ¨": 4740,
      "Ġoccur": 4741,
      "ream": 4742,
      "Ġfram": 4743,
      "è¿ĻæĦıåĳ³çĿĢ": 4744,
      "ĠMexic": 4745,
      "å½ĵå±Ģ": 4746,
      "å¤ĸéĥ¨": 4747,
      "å´Ľ": 4748,
      "Instead": 4749,
      "Ġdepend": 4750,
      "ç¾¤ä½ĵ": 4751,
      "ĠAfghanistan": 4752,
      "Ġincreasing": 4753,
      "Ġprotection": 4754,
      "ĠItaly": 4755,
      "è´¬åĢ¼": 4756,
      "Ġcandid": 4757,
      "uf": 4758,
      "Ġtaking": 4759,
      "æľīäºĽ": 4760,
      "å®ŀåĬĽ": 4761,
      "Ġvol": 4762,
      "å´Ľèµ·": 4763,
      "Ã©": 4764,
      "Ġcirc": 4765,
      "Ġnearly": 4766,
      "Ġwee": 4767,
      "åĲĮæĦı": 4768,
      "åĽ½éĻħç¤¾ä¼ļ": 4769,
      "Ġexperience": 4770,
      "Ġpath": 4771,
      "Ġsuper": 4772,
      "rugg": 4773,
      "sw": 4774,
      "Ġwide": 4775,
      "apse": 4776,
      "æī§æĶ¿": 4777,
      "åħ±äº§": 4778,
      "åı¦ä¸Ģ": 4779,
      "Ġear": 4780,
      "æķĪçİĩ": 4781,
      "Ġtaxes": 4782,
      "æīĢè°ĵçļĦ": 4783,
      "Ġbecame": 4784,
      "å¾Īå¤§": 4785,
      "Ġobs": 4786,
      "æĢķ": 4787,
      "Ġimmed": 4788,
      "Ġrepresent": 4789,
      "æĵį": 4790,
      "Ġrecovery": 4791,
      "åĽ½æ°ĳ": 4792,
      "Ġrevolution": 4793,
      "é½Ĳ": 4794,
      "ç´¯": 4795,
      "è½¬åıĺ": 4796,
      "æĭħå¿§": 4797,
      "éĺ²æŃ¢": 4798,
      "ĠPalestinian": 4799,
      "æ²»çĸĹ": 4800,
      "ç¬¦": 4801,
      "Ġreally": 4802,
      "æĥħç»ª": 4803,
      "Ġglobalization": 4804,
      "çŁ¥è¯Ĩ": 4805,
      "çļĦæĶ¿åºľ": 4806,
      "Ġground": 4807,
      "æ°ĳç²¹": 4808,
      "Ġcontrast": 4809,
      "Ġprospect": 4810,
      "Ġsomething": 4811,
      "100": 4812,
      "çļĦä¸Ģä¸ª": 4813,
      "åĨĻ": 4814,
      "uster": 4815,
      "Now": 4816,
      "Ġcru": 4817,
      "åħŃ": 4818,
      "Ġread": 4819,
      "Ġbehind": 4820,
      "Ġstrugg": 4821,
      "Ġvalues": 4822,
      "het": 4823,
      "ç¾İåĽ½æĢ»ç»Ł": 4824,
      "ricult": 4825,
      "Ġpowers": 4826,
      "Ġinsur": 4827,
      "Ġvote": 4828,
      "çĮ®": 4829,
      "St": 4830,
      "çļĦé£İéĻ©": 4831,
      "äººæĿĥ": 4832,
      "çĽĪ": 4833,
      "éĹ®é¢ĺä¸Ĭ": 4834,
      "è¡¨ç¤º": 4835,
      "çĻ¾ä¸ĩ": 4836,
      "min": 4837,
      "Ġsw": 4838,
      "ises": 4839,
      "Ġthird": 4840,
      "Ġlate": 4841,
      "ody": 4842,
      "ä¿ĿéĻ©": 4843,
      "ieved": 4844,
      "ä½¿å¾Ĺ": 4845,
      "Ġgoal": 4846,
      "èª": 4847,
      "çļĦç»ĵæŀľ": 4848,
      "åĴĮç»ıæµİ": 4849,
      "ĠState": 4850,
      "rought": 4851,
      "Ġestim": 4852,
      "æĤ²": 4853,
      "ĠSoviet": 4854,
      "åĬ¨èį¡": 4855,
      "åĢĻéĢī": 4856,
      "Ġgeneral": 4857,
      "è´ŁåĢº": 4858,
      "Ġ30": 4859,
      "Ġdi": 4860,
      "Ġvir": 4861,
      "Ġtrillion": 4862,
      "è®¤è¯ĨåĪ°": 4863,
      "å¤ĦçĲĨ": 4864,
      "ternal": 4865,
      "ĠCongress": 4866,
      "Like": 4867,
      "å¤§çº¦": 4868,
      "aced": 4869,
      "æ¯Ķä¾ĭ": 4870,
      "Ġdomin": 4871,
      "Ġnothing": 4872,
      "Ġindic": 4873,
      "Ġbonds": 4874,
      "ĠKingdom": 4875,
      "How": 4876,
      "âĢĿï¼Ī": 4877,
      "Ġalong": 4878,
      "Ġbehavior": 4879,
      "Ġemploy": 4880,
      "æ»¡è¶³": 4881,
      "Ġlaun": 4882,
      "DG": 4883,
      "çļĦçĽ®æłĩ": 4884,
      "ç§įæĹı": 4885,
      "Ġhighly": 4886,
      "æĢĢçĸĳ": 4887,
      "based": 4888,
      "Ġliving": 4889,
      "Ġattack": 4890,
      "zer": 4891,
      "çļĦå¢ŀéķ¿": 4892,
      "Ġindustrial": 4893,
      "Ġprobably": 4894,
      "Ġfreedom": 4895,
      "Ġmiddle": 4896,
      "Ġshar": 4897,
      "å¤©çĦ¶": 4898,
      "ç¿»": 4899,
      "Acc": 4900,
      "nb": 4901,
      "Ġrecession": 4902,
      "ä¾ĽåºĶ": 4903,
      "çļĦæ¬§æ´²": 4904,
      "izations": 4905,
      "ä¸ĵå®¶": 4906,
      "åĪĨéħį": 4907,
      "Ġtrend": 4908,
      "Ġthings": 4909,
      "Ġge": 4910,
      "Ġstock": 4911,
      "ĠMon": 4912,
      "éĽĩ": 4913,
      "æĶ¾å¼ĥ": 4914,
      "ä¿ĦåĽ½": 4915,
      "è¯ģæį®": 4916,
      "åīĬå¼±": 4917,
      "Ġintegration": 4918,
      "å¸Ŀ": 4919,
      "ä¸¹": 4920,
      "Ġcomes": 4921,
      "æĽ´å¤§çļĦ": 4922,
      "Ġwrong": 4923,
      "çº·": 4924,
      "ç»Łä¸Ģ": 4925,
      "Ġdeficits": 4926,
      "åŁºåĽł": 4927,
      "erves": 4928,
      "arant": 4929,
      "ç§©": 4930,
      "Ġcollapse": 4931,
      "Ġextreme": 4932,
      "çīĩ": 4933,
      "ights": 4934,
      "ç§©åºı": 4935,
      "aid": 4936,
      "èĸ": 4937,
      "æĹ¨": 4938,
      "head": 4939,
      "Ġside": 4940,
      "Ġrat": 4941,
      "ĠBrazil": 4942,
      "ç»ĦæĪĲ": 4943,
      "2015": 4944,
      "ology": 4945,
      "Ġpresidential": 4946,
      "è½®": 4947,
      "è¯¥åĽ½": 4948,
      "Ġmatter": 4949,
      "Ġopportunities": 4950,
      "Ġcomplex": 4951,
      "èĨ¨": 4952,
      "å½»": 4953,
      "éĢĲæ¸Ĳ": 4954,
      "èĨ¨èĥĢ": 4955,
      "å°ļ": 4956,
      "ä¿Ŀå®Ī": 4957,
      "Ġinvestments": 4958,
      "ä¾ĭå¦Ĥ": 4959,
      "Ġden": 4960,
      "Ġworse": 4961,
      "éĥ½ä¼ļ": 4962,
      "è°ģ": 4963,
      "æ¶¦": 4964,
      "Ġtraditional": 4965,
      "Ġmoment": 4966,
      "nect": 4967,
      "åı¶": 4968,
      "æİĪ": 4969,
      "åĮºåŁŁ": 4970,
      "Ġprevious": 4971,
      "è½¬åŀĭ": 4972,
      "å°Ĭ": 4973,
      "Ġsituation": 4974,
      "All": 4975,
      "æ¸¯": 4976,
      "å°ĳæķ°": 4977,
      "aving": 4978,
      "ĠSecurity": 4979,
      "Ġskill": 4980,
      "Se": 4981,
      "Ġsubsid": 4982,
      "Ġprotest": 4983,
      "ufact": 4984,
      "çģµ": 4985,
      "Ġfollowing": 4986,
      "æĺŁ": 4987,
      "Ġlearn": 4988,
      "oy": 4989,
      "ung": 4990,
      "Ġadvant": 4991,
      "Ġsubstant": 4992,
      "ä¸ĢåĪĩ": 4993,
      "ç³ķ": 4994,
      "ension": 4995,
      "æĤ£": 4996,
      "OR": 4997,
      "è¿Ľåı£": 4998,
      "æĦıè¯Ĩ": 4999,
      "imately": 5000,
      "Ġterrit": 5001,
      "NEW": 5002,
      "ĠAb": 5003,
      "çĽ¸æ¯Ķ": 5004,
      "çŃĸçķ¥": 5005,
      "Ġlimited": 5006,
      "èĴĤ": 5007,
      "olicy": 5008,
      "Ġminister": 5009,
      "ets": 5010,
      "Ġresol": 5011,
      "Ġrecord": 5012,
      "å¸¸å¸¸": 5013,
      "æī¾åĪ°": 5014,
      "Ġtem": 5015,
      "Ġhost": 5016,
      "åĩ¯": 5017,
      "èµĽ": 5018,
      "ç§ĺ": 5019,
      "è¿Ļæł·åģļ": 5020,
      "iance": 5021,
      "æĺ¯åĽłä¸º": 5022,
      "åģļæ³ķ": 5023,
      "èĥľåĪ©": 5024,
      "åĽ½éĻħè´§å¸ģåŁºéĩĳç»Ħç»ĩ": 5025,
      "chanism": 5026,
      "å¼ºåĮĸ": 5027,
      "Ġactually": 5028,
      "æ¥ļ": 5029,
      "ls": 5030,
      "Ġlat": 5031,
      "åĪ©æ¶¦": 5032,
      "åı¯èĥ½æĢ§": 5033,
      "çĹĽ": 5034,
      "æ»ŀ": 5035,
      "force": 5036,
      "mp": 5037,
      "Ġmen": 5038,
      "Ġask": 5039,
      "ä¹Łåľ¨": 5040,
      "é©¬æĸ¯": 5041,
      "åĪ¶è£ģ": 5042,
      "ç¡¬": 5043,
      "Ġarr": 5044,
      "æ°ĳä¸»åħļ": 5045,
      "Ġcases": 5046,
      "ç³»åĪĹ": 5047,
      "ĠOr": 5048,
      "éĢĢåĩº": 5049,
      "ĠDevelopment": 5050,
      "ctors": 5051,
      "while": 5052,
      "èĢĮåľ¨": 5053,
      "åīįæĻ¯": 5054,
      "Ġsett": 5055,
      "Ġsharp": 5056,
      "å¾Īéļ¾": 5057,
      "åĸľ": 5058,
      "Ġinclude": 5059,
      "ä¸Ģå®ļ": 5060,
      "åĴĮæĶ¿æ²»": 5061,
      "åıĳèĩª": 5062,
      "ĠNA": 5063,
      "Ġreality": 5064,
      "ĠGeor": 5065,
      "lig": 5066,
      "å°Ĩæĺ¯": 5067,
      ";&#": 5068,
      "Ġ50": 5069,
      "ä½³": 5070,
      "å¼Ĺ": 5071,
      "Ġconv": 5072,
      "agn": 5073,
      "Ġusing": 5074,
      "Ġattention": 5075,
      "Ġguarant": 5076,
      "18": 5077,
      "ç²¾ç¥ŀ": 5078,
      "Ġrein": 5079,
      "ĠLib": 5080,
      "Ġcollect": 5081,
      "Ġreligious": 5082,
      "atin": 5083,
      "ä¹Łæľī": 5084,
      "Ġrelatively": 5085,
      "åį¢": 5086,
      "æīİ": 5087,
      "èµŀ": 5088,
      "å·´é»İ": 5089,
      "Ġconcerns": 5090,
      "CA": 5091,
      "åĢ¾": 5092,
      "åŁ¹": 5093,
      "å²ģ": 5094,
      "nbsp": 5095,
      "my": 5096,
      "Ġprep": 5097,
      "åĲĦç§į": 5098,
      "Ġmob": 5099,
      "å½ĵä»Ĭ": 5100,
      "Ġlarger": 5101,
      "Ġcorporate": 5102,
      "Ġ9": 5103,
      "çİ°è±¡": 5104,
      "æĻ®éģį": 5105,
      "Ġuncertain": 5106,
      "Ġadjust": 5107,
      "Ġindeed": 5108,
      "Ġmanufact": 5109,
      "Ġstandards": 5110,
      "çĩĥæĸĻ": 5111,
      "çļĦéĩįè¦ģ": 5112,
      "æĢª": 5113,
      "ĠAn": 5114,
      "ĠHe": 5115,
      "ification": 5116,
      "ired": 5117,
      "æĶ¿å®¢": 5118,
      "iquid": 5119,
      "éº¦": 5120,
      "Ġtook": 5121,
      "è¡Ģ": 5122,
      "ological": 5123,
      "Ġcorruption": 5124,
      "Ġeasy": 5125,
      "According": 5126,
      "leg": 5127,
      "å°±åĥı": 5128,
      "åĬłåī§": 5129,
      "æŃ£å¼ı": 5130,
      "è¡¥è´´": 5131,
      "å¤±ä¸ļçİĩ": 5132,
      "ception": 5133,
      "ulner": 5134,
      "è§£åĨ³æĸ¹æ¡Ī": 5135,
      "Ġign": 5136,
      "çĸ«": 5137,
      "è§Ħå®ļ": 5138,
      "åĢ¼å¾Ĺ": 5139,
      "ç¦ıåĪ©": 5140,
      "å¯¹æŃ¤": 5141,
      "é©±": 5142,
      "åĨ²åĩ»": 5143,
      "Ġknown": 5144,
      "çļĦåħ³éĶ®": 5145,
      "æ³¡": 5146,
      "åĪĨè£Ĥ": 5147,
      "è´Łæĭħ": 5148,
      "å©": 5149,
      "Ġheld": 5150,
      "æ±½": 5151,
      "çľŁæŃ£çļĦ": 5152,
      "ä¹Łæ²¡æľī": 5153,
      "Ġcoming": 5154,
      "Ġoffer": 5155,
      "plus": 5156,
      "ĠX": 5157,
      "å¤§éĢī": 5158,
      "æĸ¹åĲĳ": 5159,
      "Ġlegis": 5160,
      "æĸĹäºī": 5161,
      "è®¾è®¡": 5162,
      "ĠSaudi": 5163,
      "ä¸įå¾Ĺ": 5164,
      "æģ¶åĮĸ": 5165,
      "Ġcat": 5166,
      "Ġmiss": 5167,
      "Ġintervention": 5168,
      "Ġstatus": 5169,
      "å³°ä¼ļ": 5170,
      "Ġmist": 5171,
      "Ġmere": 5172,
      "äººå£«": 5173,
      "Ġexternal": 5174,
      "éĢļè´§": 5175,
      "Ġavail": 5176,
      "çļĦä¸ĸçķĮ": 5177,
      "ones": 5178,
      "Ġpush": 5179,
      "åĩłåįģå¹´": 5180,
      "ĠAfrican": 5181,
      "ï¼ħ": 5182,
      "Ġfed": 5183,
      "æ¯į": 5184,
      "ä½ĵåĪ¶": 5185,
      "çļĦç¡": 5186,
      "ç«ĭæ³ķ": 5187,
      "ensus": 5188,
      "Ġresults": 5189,
      "Ġcompetition": 5190,
      "Ġmovement": 5191,
      "Ġcommitment": 5192,
      "Ġexplain": 5193,
      "æ¹¾": 5194,
      "vest": 5195,
      "äºĨè§£": 5196,
      "è·Ł": 5197,
      "2011": 5198,
      "2012": 5199,
      "Ġrefugees": 5200,
      "ä¸§": 5201,
      "arter": 5202,
      "unction": 5203,
      "äºĭåĬ¡": 5204,
      "Ġjo": 5205,
      "First": 5206,
      "Ġair": 5207,
      "Ġansw": 5208,
      "osing": 5209,
      "called": 5210,
      "è¯į": 5211,
      "Ġwords": 5212,
      "è§Ĥå¯Ł": 5213,
      "Ġconfidence": 5214,
      "åĮĹçº¦": 5215,
      "use": 5216,
      "Ġcities": 5217,
      "è¿Ī": 5218,
      "æĿĳ": 5219,
      "æľĢé«ĺ": 5220,
      "Ġdecisions": 5221,
      "å®½æĿ¾": 5222,
      "Ġframew": 5223,
      "PP": 5224,
      "Ġdeli": 5225,
      "Ġnear": 5226,
      "Ġrepl": 5227,
      "ĠIsraeli": 5228,
      "è¿«ä½¿": 5229,
      "æ¸ħæ¥ļ": 5230,
      "äººæ°ĳå¸ģ": 5231,
      "Ġunlikely": 5232,
      "Ġburd": 5233,
      "éĢĶ": 5234,
      "æĬĳ": 5235,
      "Ġannoun": 5236,
      "Ġattacks": 5237,
      "Ġpurch": 5238,
      "æ¶Īè´¹èĢħ": 5239,
      "Ġasset": 5240,
      "è¿Ľå±ķ": 5241,
      "çļĦç¾İåĽ½": 5242,
      "å¹´ä¸Ń": 5243,
      "Ġ15": 5244,
      "åħĭéĩĮ": 5245,
      "Ġoutcome": 5246,
      "åħ·ä½ĵ": 5247,
      "ext": 5248,
      "æ³¢åħ°": 5249,
      "Ġfavor": 5250,
      "af": 5251,
      "çļĦåİŁåĽł": 5252,
      "çļĦç©": 5253,
      "æıĲä¾ĽäºĨ": 5254,
      "year": 5255,
      "ä¸įå¹¸": 5256,
      "åĽŀæĬ¥": 5257,
      "ator": 5258,
      "Ġdiv": 5259,
      "Ġreb": 5260,
      "Ġvulner": 5261,
      "Ġattract": 5262,
      "éĢłæĪĲçļĦ": 5263,
      "èĪ¬": 5264,
      "Ġquickly": 5265,
      "è¿Ł": 5266,
      "lex": 5267,
      "Ġstop": 5268,
      "Ġagricult": 5269,
      "æ¬§çĽŁçļĦ": 5270,
      "Ġproduce": 5271,
      "å±±": 5272,
      "ĠNational": 5273,
      "igrants": 5274,
      "iated": 5275,
      "äºīè®º": 5276,
      "198": 5277,
      "ault": 5278,
      "Ġrough": 5279,
      "èĢĮè¿Ļ": 5280,
      "Ġsurplus": 5281,
      "Ġobvious": 5282,
      "Ġsuc": 5283,
      "Ġcurrently": 5284,
      "Ġtechnologies": 5285,
      "Ġcame": 5286,
      "è´Łè´£": 5287,
      "usterity": 5288,
      "Most": 5289,
      "å¾Ħ": 5290,
      "ä¹Łå°±æĺ¯": 5291,
      "è§Ĵåº¦": 5292,
      "Ġresponsibility": 5293,
      "çļĦçłĶç©¶": 5294,
      "Ġsucceed": 5295,
      "åħ«": 5296,
      "éĢĥ": 5297,
      "Ġfinancing": 5298,
      "åĬ¿åĬĽ": 5299,
      "ç³Łç³ķ": 5300,
      "kn": 5301,
      "å¼ºå¤§çļĦ": 5302,
      "éľĢè¦ģçļĦ": 5303,
      "Ġart": 5304,
      "Ġcontinued": 5305,
      "æ³¨æĦı": 5306,
      "Ġcaused": 5307,
      "Ġcertainly": 5308,
      "å®ıè§Ĥ": 5309,
      "Ġworldwide": 5310,
      "å·¥ç¨ĭ": 5311,
      "èī°": 5312,
      "æĴŃ": 5313,
      "AN": 5314,
      "Fin": 5315,
      "å¥ĸ": 5316,
      "ĠLatin": 5317,
      "Ġdefense": 5318,
      "Ġsurv": 5319,
      "æĴĴ": 5320,
      "å¾Ĺå¤ļ": 5321,
      "une": 5322,
      "ĠBarack": 5323,
      "èĢĮéĿŀ": 5324,
      "å¥Ĺ": 5325,
      "åĪĻæĺ¯": 5326,
      "Ġreducing": 5327,
      "Ġbeginning": 5328,
      "Ġcal": 5329,
      "çĶ·": 5330,
      "Ġestablished": 5331,
      "å¤©çĦ¶æ°Ķ": 5332,
      "Ġnar": 5333,
      "ots": 5334,
      "æĢĴ": 5335,
      "æ³°": 5336,
      "ç¬Ķ": 5337,
      "ought": 5338,
      "åį³å°Ĩ": 5339,
      "è¿ľè¿ľ": 5340,
      "ç«ŀéĢī": 5341,
      "Ġmeeting": 5342,
      "æ°¸è¿ľ": 5343,
      "Ġcreating": 5344,
      "çĬ¹å¤ª": 5345,
      "rist": 5346,
      "Ġreject": 5347,
      "Ġexpans": 5348,
      "Ġcritical": 5349,
      "hest": 5350,
      "æ²«": 5351,
      "èģļ": 5352,
      "Ġmechanism": 5353,
      "Ġ2015": 5354,
      "æĬĢèĥ½": 5355,
      "Ġreserves": 5356,
      "ohn": 5357,
      "ĠAg": 5358,
      "Ġunivers": 5359,
      "Ġabove": 5360,
      "åĢºæĿĥ": 5361,
      "å²Ĺ": 5362,
      "éļľç¢į": 5363,
      "Ġelsewhere": 5364,
      "æ³¡æ²«": 5365,
      "rary": 5366,
      "Ġir": 5367,
      "éĺµ": 5368,
      "çĻ»": 5369,
      "Ġdangerous": 5370,
      "aul": 5371,
      "ries": 5372,
      "val": 5373,
      "çļĦéĤ£æł·": 5374,
      "æĺĤ": 5375,
      "Ġhous": 5376,
      "Ġline": 5377,
      "çİĭ": 5378,
      "Ġlet": 5379,
      "æıĲåįĩ": 5380,
      "Ġbecoming": 5381,
      "éģĵè·¯": 5382,
      "Ġdoubt": 5383,
      "Ġmind": 5384,
      "ĠPol": 5385,
      "å¢ŀéķ¿çļĦ": 5386,
      "äºĮåįģ": 5387,
      "æ®ĭ": 5388,
      "Ġnegative": 5389,
      "äººåĴĮ": 5390,
      "å®ĺæĸ¹": 5391,
      "Ġcuts": 5392,
      "action": 5393,
      "ech": 5394,
      "è´¡": 5395,
      "æĸ°éĹ»": 5396,
      "èĥ¡": 5397,
      "å¢ŀéķ¿çİĩ": 5398,
      "ees": 5399,
      "Ġve": 5400,
      "Ġfig": 5401,
      "å±ĢéĿ¢": 5402,
      "å·¦åı³": 5403,
      "Ġmillions": 5404,
      "ressed": 5405,
      "app": 5406,
      "sh": 5407,
      "çļĦåĽ½éĻħ": 5408,
      "æĢ»æĺ¯": 5409,
      "Ġreasons": 5410,
      "Ġprojects": 5411,
      "Sim": 5412,
      "Ġage": 5413,
      "itable": 5414,
      "æĬĺ": 5415,
      "çīĪ": 5416,
      "ached": 5417,
      "æı¡": 5418,
      "æĴ¤": 5419,
      "æ½®": 5420,
      "Ġproducts": 5421,
      "retary": 5422,
      "åįİçĽĽ": 5423,
      "ç¬¦åĲĪ": 5424,
      "åįİçĽĽé¡¿": 5425,
      "bo": 5426,
      "æľ«": 5427,
      "è¿¹": 5428,
      "entially": 5429,
      "åıĳæĮ¥": 5430,
      "ä¸ĭè·Į": 5431,
      "èĭ¥": 5432,
      "èĦĨ": 5433,
      "Ġsent": 5434,
      "Ġcle": 5435,
      "Ġliquid": 5436,
      "æľīçĿĢ": 5437,
      "ä¸įä½Ĩ": 5438,
      "æŃ¦è£ħ": 5439,
      "ters": 5440,
      "å¾Īå¿«": 5441,
      "Ġsovereign": 5442,
      "lier": 5443,
      "åıĮæĸ¹": 5444,
      "éº»": 5445,
      "è§¦": 5446,
      "bi": 5447,
      "Ġä½Ĩ": 5448,
      "orn": 5449,
      "ä¸ªåĽ½å®¶": 5450,
      "å¹¶æľª": 5451,
      "ancing": 5452,
      "Ġbasic": 5453,
      "ä¸¥éĩįçļĦ": 5454,
      "ĠSpain": 5455,
      "crib": 5456,
      "åĪĳ": 5457,
      "ä¸ºæŃ¢": 5458,
      "æĬķåħ¥": 5459,
      "åĭĥ": 5460,
      "æ¿ĢåĬ±": 5461,
      "Ġsanctions": 5462,
      "¦Ĩ": 5463,
      "è¦Ĩ": 5464,
      "ane": 5465,
      "æ°§": 5466,
      "æŃ£å¸¸": 5467,
      "åŃ¦çĶŁ": 5468,
      "ĠGreek": 5469,
      "Ġcarbon": 5470,
      "è¿·": 5471,
      "Ġdyn": 5472,
      "2013": 5473,
      "éļĲ": 5474,
      "çĽ¸äºĴ": 5475,
      "Ġhelped": 5476,
      "è´¨éĩı": 5477,
      "Ġrecognize": 5478,
      "çļĦå¯¹": 5479,
      "Ġtool": 5480,
      "ĠII": 5481,
      "åħ±è¯Ĩ": 5482,
      "income": 5483,
      "Ġdram": 5484,
      "å¹´ä»¥æĿ¥": 5485,
      "èĩ³åħ³": 5486,
      "Ġ-": 5487,
      "hem": 5488,
      "ogra": 5489,
      "æĥ³è±¡": 5490,
      "çľĭæĿ¥": 5491,
      "Ġ2011": 5492,
      "åĽ¢ç»ĵ": 5493,
      "ici": 5494,
      "åĴĮç¤¾ä¼ļ": 5495,
      "rain": 5496,
      "Ġsumm": 5497,
      "amas": 5498,
      "Ġheav": 5499,
      "Ġunf": 5500,
      "éľĩ": 5501,
      "Ġfair": 5502,
      "æĳ©": 5503,
      "Ġsix": 5504,
      "è´¦": 5505,
      "æ²ī": 5506,
      "Ġ2012": 5507,
      "ĠMexico": 5508,
      "Ġroughly": 5509,
      "å¾Ĵ": 5510,
      "ä¾ĿéĿł": 5511,
      "dd": 5512,
      "Ġmess": 5513,
      "Ġdays": 5514,
      "utes": 5515,
      "Ġforced": 5516,
      "acter": 5517,
      "æĸ°åħ´å¸Ĥåľº": 5518,
      "aries": 5519,
      "Ġbelow": 5520,
      "acro": 5521,
      "ands": 5522,
      "ç«ł": 5523,
      "Ġrefere": 5524,
      "Ġenter": 5525,
      "éĺ¶çº§": 5526,
      "Ġindependence": 5527,
      "å½ĵåľ°": 5528,
      "éĩĳèŀįå¸Ĥåľº": 5529,
      "è´¡çĮ®": 5530,
      "æµª": 5531,
      "åĨħçļĦ": 5532,
      "æĺ¾èĳĹ": 5533,
      "æļĹ": 5534,
      "ĠInternet": 5535,
      "Ġorganizations": 5536,
      "Ġbrought": 5537,
      "Ġred": 5538,
      "éĹŃ": 5539,
      "æĢ»ä½ĵ": 5540,
      "ä¿¡å¿ĥ": 5541,
      "æļĸ": 5542,
      "ä¸įåĲĮçļĦ": 5543,
      "ina": 5544,
      "rex": 5545,
      "Ġbi": 5546,
      "els": 5547,
      "ç«ŀäºīåĬĽ": 5548,
      "Ġgradu": 5549,
      "çļĦçľŁ": 5550,
      "å²Ĺä½į": 5551,
      "part": 5552,
      "erc": 5553,
      "Ġwon": 5554,
      "å¤ļå°ĳ": 5555,
      "ä¸ĸçķĮéĵ¶è¡Į": 5556,
      "Ġ198": 5557,
      "ordin": 5558,
      "Ġclearly": 5559,
      "Ġparliament": 5560,
      "é£Łåĵģ": 5561,
      "Ġalternative": 5562,
      "çļĦç¡®": 5563,
      "çļĦé«ĺ": 5564,
      "åĴĮç¾İåĽ½": 5565,
      "è¯·": 5566,
      "äº§ä¸ļ": 5567,
      "ä»İæľª": 5568,
      "æķĪåºĶ": 5569,
      "éĩįè¦ģçļĦæĺ¯": 5570,
      "Ġbasis": 5571,
      "Ġexpansion": 5572,
      "çļĦèĥ½åĬĽ": 5573,
      "âĢ¦": 5574,
      "ann": 5575,
      "uth": 5576,
      "ä¹Łå°Ĩ": 5577,
      "ä¹ĭä¸Ń": 5578,
      "åľŁåľ°": 5579,
      "Ġmoral": 5580,
      "åŃ£": 5581,
      "oph": 5582,
      "Ġeveryone": 5583,
      "èªī": 5584,
      "Ġlink": 5585,
      "ä¸ºä½ķ": 5586,
      "åģľæ»ŀ": 5587,
      "equ": 5588,
      "nces": 5589,
      "éŃ": 5590,
      "Ġtend": 5591,
      "Ġtyp": 5592,
      "ison": 5593,
      "æľ¬åĽ½": 5594,
      "ensions": 5595,
      "Ġ2009": 5596,
      "åĢĻéĢīäºº": 5597,
      "&#": 5598,
      "hel": 5599,
      "å°Ķå¾·": 5600,
      "éĿ¢ä¸´çĿĢ": 5601,
      "sy": 5602,
      "åľ¨æľªæĿ¥": 5603,
      "èĢĮä¸į": 5604,
      "ĠGreat": 5605,
      "Ġexpert": 5606,
      "2014": 5607,
      "Ġsource": 5608,
      "å®«": 5609,
      "Ġspread": 5610,
      "å²¸": 5611,
      "Ġdisease": 5612,
      "æĽ´å¤§": 5613,
      "Ġcreation": 5614,
      "èĦĨå¼±": 5615,
      "Ġausterity": 5616,
      "åĲģ": 5617,
      "ressive": 5618,
      "æĥħåĨµä¸ĭ": 5619,
      "Ġperformance": 5620,
      "IN": 5621,
      "rep": 5622,
      "æľĢå¤§": 5623,
      "Ġintrodu": 5624,
      "Ġimplic": 5625,
      "è¯¥åľ°åĮº": 5626,
      "åıĸåĨ³": 5627,
      "éĢĢä¼ĳ": 5628,
      "olitical": 5629,
      "ature": 5630,
      "Ġthing": 5631,
      "éĩİ": 5632,
      "add": 5633,
      "çļĦçĬ": 5634,
      "å«©": 5635,
      "iter": 5636,
      "Ġwrit": 5637,
      "ä¸Ģä½ĵ": 5638,
      "æĽ´å¥½": 5639,
      "æıı": 5640,
      "Ġvictory": 5641,
      "åıĸåĨ³äºİ": 5642,
      "Ġrepe": 5643,
      "ĠSc": 5644,
      "Ġweaken": 5645,
      "Ġuns": 5646,
      "Ġrenew": 5647,
      "Ġsevere": 5648,
      "Ġoutput": 5649,
      "æ¶Īæģ¯": 5650,
      "Ġcrises": 5651,
      "äºĴèģĶ": 5652,
      "é¾Ħ": 5653,
      "å½ĵéĢī": 5654,
      "ĠFin": 5655,
      "Ġoutside": 5656,
      "ä¿¡çĶ¨": 5657,
      "ĠArabia": 5658,
      "æ¬¢è¿İ": 5659,
      "åŃ©åŃĲ": 5660,
      "å½»åºķ": 5661,
      "eneral": 5662,
      "éĵģ": 5663,
      "æķĻè®Ń": 5664,
      "Ġraise": 5665,
      "èĢĥèĻĳåĪ°": 5666,
      "åģľæŃ¢": 5667,
      "Ġrequired": 5668,
      "pro": 5669,
      "rats": 5670,
      "åħµ": 5671,
      "ĠMay": 5672,
      "çĽŁåıĭ": 5673,
      "Ġcontinues": 5674,
      "Ġpersonal": 5675,
      "çĨŁ": 5676,
      "ĠNATO": 5677,
      "Since": 5678,
      "å±ĢåĬ¿": 5679,
      "Ġcompetit": 5680,
      "Ġknowledge": 5681,
      "Ġspecial": 5682,
      "ĠFederal": 5683,
      "åĳ¼åĲģ": 5684,
      "Ġessential": 5685,
      "åı¥": 5686,
      "æİī": 5687,
      "Ġthereby": 5688,
      "ç¬¬ä¸Ģ": 5689,
      "Ġelimin": 5690,
      "Ġchoice": 5691,
      "Although": 5692,
      "çļĦçĭ": 5693,
      "ä¸įä»ħä»ħ": 5694,
      "éĺ¶æ®µ": 5695,
      "ograph": 5696,
      "éī": 5697,
      "Ġmal": 5698,
      "loc": 5699,
      "æ±¡": 5700,
      "2007": 5701,
      "ç¦ģæŃ¢": 5702,
      "éī´": 5703,
      "economic": 5704,
      "off": 5705,
      "Ġce": 5706,
      "Ġdeg": 5707,
      "æ³ķéĻ¢": 5708,
      "å·´å«©": 5709,
      "Ġbuilding": 5710,
      "Ġradical": 5711,
      "çļĦæľºä¼ļ": 5712,
      "ott": 5713,
      "Ġdet": 5714,
      "ĠPe": 5715,
      "è¿ĺè¦ģ": 5716,
      "æİ¥è¿ĳ": 5717,
      "è£ķ": 5718,
      "Ġtwent": 5719,
      "åĲ¦åĪĻ": 5720,
      "Ġpositive": 5721,
      "é»İå·´å«©": 5722,
      "æµģåĬ¨æĢ§": 5723,
      "Ġprosperity": 5724,
      "Ġframework": 5725,
      "ober": 5726,
      "æĸ¹éĴĪ": 5727,
      "åıĺéĿ©": 5728,
      "Ġ2013": 5729,
      "è§ģçļĦ": 5730,
      "Ġperson": 5731,
      "Ġdistrib": 5732,
      "å°¤åħ¶æĺ¯": 5733,
      "çļĦç´": 5734,
      "çĽ´åĪ°": 5735,
      "Ġadditional": 5736,
      "Ġthought": 5737,
      "Ġcommod": 5738,
      "å¯¹åħ¶": 5739,
      "è¦ģä¹Ī": 5740,
      "used": 5741,
      "åĲİèĢħ": 5742,
      "åı¯ä»¥åľ¨": 5743,
      "æħİ": 5744,
      "åĵĪé©¬æĸ¯": 5745,
      "Ġproposed": 5746,
      "Ġfamily": 5747,
      "Ġstimulus": 5748,
      "No": 5749,
      "of": 5750,
      "è°ĭ": 5751,
      "èįī": 5752,
      "éģŃåĪ°": 5753,
      "Ġfederal": 5754,
      "è¿Ļç±»": 5755,
      "åĪ©æ¯Ķäºļ": 5756,
      "ortion": 5757,
      "osp": 5758,
      "Ġagreed": 5759,
      "é¢ĨåľŁ": 5760,
      "é£ŀ": 5761,
      "é¢Ħè®¡": 5762,
      "ç»ĵæŀĦæĢ§": 5763,
      "Ġsimple": 5764,
      "cer": 5765,
      "âĤ": 5766,
      "aper": 5767,
      "Ġcompany": 5768,
      "Ġcenter": 5769,
      "èĴĻ": 5770,
      "Ġindependent": 5771,
      "atically": 5772,
      "è´µ": 5773,
      "æĭĸ": 5774,
      "Ġvision": 5775,
      "éĥ½åľ¨": 5776,
      "Ġexisting": 5777,
      "ä¸ģ": 5778,
      "ites": 5779,
      "è®¡ç®Ĺ": 5780,
      "æīĢæľīè¿ĻäºĽ": 5781,
      "Ġargue": 5782,
      "å¤ĸäº¤æĶ¿çŃĸ": 5783,
      "å¡ŀå°Ķ": 5784,
      "éĢıæĺİ": 5785,
      "Ġavailable": 5786,
      "rust": 5787,
      "è¸": 5788,
      "èĹ": 5789,
      "ä¸ĢæĹ¦": 5790,
      "undred": 5791,
      "Ġassoc": 5792,
      "Ġinstitutional": 5793,
      "çĬ¶æĢģ": 5794,
      "Ġallowed": 5795,
      "å¿½è§Ĩ": 5796,
      "âĤ¬": 5797,
      "ony": 5798,
      "lling": 5799,
      "æľīæķĪçļĦ": 5800,
      "èº«ä»½": 5801,
      "Ġfactors": 5802,
      "ç±»ä¼¼çļĦ": 5803,
      "Ġgains": 5804,
      "eanwhile": 5805,
      "Ġanswer": 5806,
      "EC": 5807,
      "ilt": 5808,
      "Ġaccording": 5809,
      "Ġscience": 5810,
      "Ġscale": 5811,
      "è®¸å¤ļäºº": 5812,
      "Ġindividuals": 5813,
      "Ġrapidly": 5814,
      "æ°§åĮĸ": 5815,
      "Ġgreen": 5816,
      "æī°": 5817,
      "Ġforward": 5818,
      "åĪĨä¹ĭä¸Ģ": 5819,
      "Ġ18": 5820,
      "ĠEuropeans": 5821,
      "197": 5822,
      "Ġinternal": 5823,
      "Ġtransform": 5824,
      "ients": 5825,
      "ox": 5826,
      "Ġrecon": 5827,
      "ä¹Ŀ": 5828,
      "ili": 5829,
      "å»·": 5830,
      "çĭ¬è£ģ": 5831,
      "Ġminor": 5832,
      "Ġdamage": 5833,
      "erb": 5834,
      "ptember": 5835,
      "ä¿¡ä»»": 5836,
      "Ġgeneration": 5837,
      "onald": 5838,
      "æĽ¿ä»£": 5839,
      "rexit": 5840,
      "oot": 5841,
      "iment": 5842,
      "åī©": 5843,
      "ashing": 5844,
      "Ġsubject": 5845,
      "ç§°ä¸º": 5846,
      "ä¼°è®¡": 5847,
      "ä¼¤å®³": 5848,
      "åı¬": 5849,
      "åħĭæŀĹ": 5850,
      "æ£Ģ": 5851,
      "æĳĨèĦ±": 5852,
      "éĢļè´§èĨ¨èĥĢ": 5853,
      "right": 5854,
      "éĨ": 5855,
      "ä½Ĩå¦Ĥæŀľ": 5856,
      "è¢«è¿«": 5857,
      "ä¸ĸçķĮä¸Ĭ": 5858,
      "Ġconserv": 5859,
      "åįıè°ĥ": 5860,
      "æ»ĭ": 5861,
      "åįķä¸Ģ": 5862,
      "æĶ»åĩ»": 5863,
      "unt": 5864,
      "åĥļ": 5865,
      "ĠRepublican": 5866,
      "æ±½è½¦": 5867,
      "par": 5868,
      "omin": 5869,
      "ilities": 5870,
      "åºŀ": 5871,
      "æĽ´å¥½çļĦ": 5872,
      "Ġsocieties": 5873,
      "Ġincentives": 5874,
      "Ġdynam": 5875,
      "Meanwhile": 5876,
      "åľ°äº§": 5877,
      "èĩªæĪĳ": 5878,
      "èĲ§": 5879,
      "Ġ2014": 5880,
      "ä¸Ńå¤®éĵ¶è¡Į": 5881,
      "making": 5882,
      "Ġmot": 5883,
      "æľīéĻĲ": 5884,
      "ä¸»å¯¼": 5885,
      "é¡¶": 5886,
      "Ġallies": 5887,
      "Ġ2007": 5888,
      "éŁ³": 5889,
      "ĠMonetary": 5890,
      "Ġadvantage": 5891,
      "çļĦåŁºç¡Ģ": 5892,
      "åŃ¤": 5893,
      "unn": 5894,
      "åħħæ»¡": 5895,
      "Ġfully": 5896,
      "æľīä¸Ģ": 5897,
      "ä½Ĩåį´": 5898,
      "æĻ®éĢļ": 5899,
      "æĮĩè´£": 5900,
      "Ġvirt": 5901,
      "è¿Ļé¡¹": 5902,
      "ä»¥ä¸Ĭ": 5903,
      "duct": 5904,
      "åŃ¦æł¡": 5905,
      "Ġ1980": 5906,
      "phas": 5907,
      "lled": 5908,
      "æ¿Ģè¿Ľ": 5909,
      "éĻ¤éĿŀ": 5910,
      "Ġquestions": 5911,
      "Ġeffectively": 5912,
      "uk": 5913,
      "Ġharm": 5914,
      "Ġtrust": 5915,
      "å¼ºçĥĪ": 5916,
      "Ġprovided": 5917,
      "ĠAss": 5918,
      "encies": 5919,
      "Ġpain": 5920,
      "å¤§åĽ½": 5921,
      "çºµ": 5922,
      "æĪĳä»¬å¿ħé¡»": 5923,
      "ä¸īä¸ª": 5924,
      "Ġextra": 5925,
      "ç²¾èĭ±": 5926,
      "æī¹åĩĨ": 5927,
      "Ġnetw": 5928,
      "èĲ§æĿ¡": 5929,
      "é¦ĸçĽ¸": 5930,
      "Ġideas": 5931,
      "æģĲæĢĸä¸»ä¹ī": 5932,
      "lusion": 5933,
      "Ġlegitim": 5934,
      "æĺ¯å¯¹": 5935,
      "Ġ197": 5936,
      "å¡ĳ": 5937,
      "ä¸ĩäº¿ç¾İåħĥ": 5938,
      "åĩºçİ°äºĨ": 5939,
      "Ġbusinesses": 5940,
      "Ġafford": 5941,
      "Ġeventually": 5942,
      "å¹´è½»äºº": 5943,
      "ä¸įå¹¸çļĦæĺ¯": 5944,
      "ibly": 5945,
      "Ġexplo": 5946,
      "çľŁçļĦ": 5947,
      "ellig": 5948,
      "æĹ¨åľ¨": 5949,
      "mers": 5950,
      "åľ¨åħ¶": 5951,
      "Ġleave": 5952,
      "å°±èĥ½": 5953,
      "Ġimposs": 5954,
      "ĠDep": 5955,
      "Ġfunding": 5956,
      "Ġinstead": 5957,
      "zero": 5958,
      "Second": 5959,
      "å¾ª": 5960,
      "åľ°çĲĥ": 5961,
      "ĠSeptember": 5962,
      "Ġdollars": 5963,
      "Ġtalks": 5964,
      "Ġmanagement": 5965,
      "Ġhouseholds": 5966,
      "NA": 5967,
      "aff": 5968,
      "Ġcover": 5969,
      "éĩįç»Ħ": 5970,
      "Ġcontain": 5971,
      "Ġoffice": 5972,
      "è¿ĩç¨ĭä¸Ń": 5973,
      "æ¤": 5974,
      "è¶£": 5975,
      "Ġloans": 5976,
      "Ġstronger": 5977,
      "Ġinev": 5978,
      "Ġtrou": 5979,
      "Ġmacro": 5980,
      "è¡Ĺ": 5981,
      "ĠSec": 5982,
      "æļĤ": 5983,
      "éĩĩçĶ¨": 5984,
      "èŃ¦åĳĬ": 5985,
      "Ġprecise": 5986,
      "17": 5987,
      "fortunately": 5988,
      "æ¾": 5989,
      "erate": 5990,
      "espite": 5991,
      "çĶ³": 5992,
      "ä¹Łåı¯ä»¥": 5993,
      "Ġorig": 5994,
      "æįķ": 5995,
      "çĤ¸": 5996,
      "æİ¨è¿Ľ": 5997,
      "éĿĴ": 5998,
      "emic": 5999,
      "Ġsavings": 6000,
      "Ġ0": 6001,
      "ä»¥åīį": 6002,
      "ĠSw": 6003,
      "ustain": 6004,
      "éĤ£éĩĮ": 6005,
      "Ġemp": 6006,
      "ĠIndian": 6007,
      "å¤§å¤§": 6008,
      "åĪĨæŃ§": 6009,
      "Ġimper": 6010,
      "Ġahead": 6011,
      "å·®å¼Ĥ": 6012,
      "Ġaimed": 6013,
      "Ġworth": 6014,
      "olid": 6015,
      "æīĢéĿ¢ä¸´": 6016,
      "çİ°æľī": 6017,
      "å®īåĢį": 6018,
      "iety": 6019,
      "æľĢè¿ĳçļĦ": 6020,
      "æ°ĳæĹıä¸»ä¹ī": 6021,
      "ĠRev": 6022,
      "äºĴèģĶç½ĳ": 6023,
      "ried": 6024,
      "Ġbub": 6025,
      "æĥ§": 6026,
      "éģµ": 6027,
      "èĤ¡ç¥¨": 6028,
      "Ġsolutions": 6029,
      "Unfortunately": 6030,
      "Ġlosses": 6031,
      "æĢİæł·": 6032,
      "IS": 6033,
      "gence": 6034,
      "Ġthous": 6035,
      "Ġshared": 6036,
      "ç½ļ": 6037,
      "Ġtransition": 6038,
      "ventional": 6039,
      "Ġclaims": 6040,
      "SE": 6041,
      "Ġvast": 6042,
      "Ġsupposed": 6043,
      "Ġproviding": 6044,
      "Ġterrorism": 6045,
      "Ġflows": 6046,
      "èĶ": 6047,
      "Ġmark": 6048,
      "Ġhundred": 6049,
      "è®¢": 6050,
      "å¦¥": 6051,
      "ĠFor": 6052,
      "Ġroad": 6053,
      "Ġtechnological": 6054,
      "åı³ç¿¼": 6055,
      "Ġdiplomatic": 6056,
      "Ġdeliver": 6057,
      "è¿ĻäºĽåĽ½å®¶": 6058,
      "çº¦æĿŁ": 6059,
      "Ġemphas": 6060,
      "Ġappears": 6061,
      "ĠLeban": 6062,
      "care": 6063,
      "Ġwages": 6064,
      "Ġmort": 6065,
      "éĢĨ": 6066,
      "åıĳåĬ¨": 6067,
      "åıĳè¡¨": 6068,
      "ĠJew": 6069,
      "Ġ25": 6070,
      "aterial": 6071,
      "Ġfacing": 6072,
      "éģŃåıĹ": 6073,
      "æ°ĳç²¹ä¸»ä¹ī": 6074,
      "oks": 6075,
      "sc": 6076,
      "rew": 6077,
      "Ġconsensus": 6078,
      "è´¨çĸĳ": 6079,
      "ãĢĭï¼Ī": 6080,
      "Ġinsurance": 6081,
      "Ġhousing": 6082,
      "Ġearn": 6083,
      "åī¯": 6084,
      "æľĢä¸º": 6085,
      "ellect": 6086,
      "Ġbuy": 6087,
      "Ġengage": 6088,
      "Ġwidely": 6089,
      "çļĦæĹ¶éĹ´": 6090,
      "onents": 6091,
      "ask": 6092,
      "æĦ¤": 6093,
      "çĶŁåŃĺ": 6094,
      "çļĦä¸Ģéĥ¨åĪĨ": 6095,
      "Ġreduced": 6096,
      "å¯»æī¾": 6097,
      "Ġcrucial": 6098,
      "æĺ¯ä¸Ģ": 6099,
      "å¢ŀå¼º": 6100,
      "éĽĦ": 6101,
      "Ġengine": 6102,
      "sive": 6103,
      "®é£Ł": 6104,
      "Ġdraw": 6105,
      "oman": 6106,
      "çºł": 6107,
      "è½¬åĲĳ": 6108,
      "Ġculture": 6109,
      "Ġborders": 6110,
      "rest": 6111,
      "Ġdict": 6112,
      "æĭľ": 6113,
      "å¹¶åľ¨": 6114,
      "Ġchance": 6115,
      "Ġcontract": 6116,
      "Ġassess": 6117,
      "éŁ¦": 6118,
      "æ¦Ĥå¿µ": 6119,
      "Ġnor": 6120,
      "å¸¦æĿ¥äºĨ": 6121,
      "Ġseek": 6122,
      "èį¯çī©": 6123,
      "Ġthinking": 6124,
      "Ġsal": 6125,
      "æīŃ": 6126,
      "åĩºæĿ¥": 6127,
      "éĤ£å°±æĺ¯": 6128,
      "Ġeconomics": 6129,
      "åĳ¨æľŁ": 6130,
      "Ġnormal": 6131,
      "ĠReserve": 6132,
      "çļĦæĮĳæĪĺ": 6133,
      "çļĦè¡Įä¸º": 6134,
      "çļĦè§ĤçĤ¹": 6135,
      "åħĳ": 6136,
      "ĠAust": 6137,
      "æľªèĥ½": 6138,
      "ä¸¾è¡Į": 6139,
      "éĽĨä½ĵ": 6140,
      "14": 6141,
      "Other": 6142,
      "Ġsectors": 6143,
      "å¾Ĺä»¥": 6144,
      "ĠMar": 6145,
      "åħĭå°Ķ": 6146,
      "Ġboom": 6147,
      "Ġservice": 6148,
      "500": 6149,
      "Ġcommer": 6150,
      "è¯´æ³ķ": 6151,
      "äºĮæ°§åĮĸ": 6152,
      "Ġpoints": 6153,
      "éĺ»ç¢į": 6154,
      "ÂłÂłÂłÂł": 6155,
      "Cons": 6156,
      "èĢĮæĺĵ": 6157,
      "Ġexec": 6158,
      "Ġarea": 6159,
      "cont": 6160,
      "ĠGlobal": 6161,
      "Ġoverall": 6162,
      "do": 6163,
      "å¼ĢæĶ¯": 6164,
      "éĽħ": 6165,
      "inton": 6166,
      "Ġseemed": 6167,
      "æ³¢åĬ¨": 6168,
      "Ġauthority": 6169,
      "Ġconstra": 6170,
      "èĸª": 6171,
      "Ġhop": 6172,
      "åľ¨æ¬§æ´²": 6173,
      "Ġstable": 6174,
      "å¤ļæł·": 6175,
      "æ¯Ķè¾ĥ": 6176,
      "äºīè®®": 6177,
      "Ġbro": 6178,
      "Ġgap": 6179,
      "vert": 6180,
      "Ġincreases": 6181,
      "ä¸ĢçĽ´åľ¨": 6182,
      "Ġfollowed": 6183,
      "Ġindustries": 6184,
      "æ··ä¹±": 6185,
      "Likewise": 6186,
      "Simil": 6187,
      "Ġliquidity": 6188,
      "Ġimpossible": 6189,
      "ware": 6190,
      "eng": 6191,
      "ä¸įç¡®å®ļ": 6192,
      "çĽ¾": 6193,
      "æĿ¥æºĲ": 6194,
      "Ġwhole": 6195,
      "Ġquality": 6196,
      "è¨Ģè®º": 6197,
      "Ġrestric": 6198,
      "Ġnature": 6199,
      "Ġburden": 6200,
      "è¯»": 6201,
      "æĬ¼": 6202,
      "å®ŀè¡Į": 6203,
      "æıĲæĮ¯": 6204,
      "Ġcritic": 6205,
      "celer": 6206,
      "Ġdeter": 6207,
      "éķĩ": 6208,
      "ĠMed": 6209,
      "elt": 6210,
      "ä½İäºİ": 6211,
      "ç¨ĭåºı": 6212,
      "ä¾Ľç»Ļ": 6213,
      "Ġrob": 6214,
      "çĸĳéĹ®": 6215,
      "Ġlimit": 6216,
      "åıĮè¾¹": 6217,
      "Ġcharacter": 6218,
      "åıĽ": 6219,
      "Ġfix": 6220,
      "å°Ĩåħ¶": 6221,
      "æıŃ": 6222,
      "æł¼åħ°": 6223,
      "Ġconsumer": 6224,
      "Ġphys": 6225,
      "Ġdirectly": 6226,
      "Ġsuggests": 6227,
      "çŃ¾ç½²": 6228,
      "æľīåĪ©äºİ": 6229,
      "ä¸įå¾Ĺä¸į": 6230,
      "cher": 6231,
      "Ġreached": 6232,
      "umb": 6233,
      "Ġregulation": 6234,
      "Ġpolitically": 6235,
      "äºĮæĪĺ": 6236,
      "çĽ¸å½ĵäºİ": 6237,
      "itud": 6238,
      "ç»¿": 6239,
      "Ġlist": 6240,
      "åĨĴ": 6241,
      "æĢ§åĴĮ": 6242,
      "å±ĤéĿ¢": 6243,
      "æĿĨ": 6244,
      "Ġcoup": 6245,
      "ä¸Ĭæ¶¨": 6246,
      "å¼ºå¤§": 6247,
      "åıĸä»£": 6248,
      "Ġconsist": 6249,
      "èį·": 6250,
      "åĽ¢ä½ĵ": 6251,
      "Ġevents": 6252,
      "going": 6253,
      "ORK": 6254,
      "ĠSecretary": 6255,
      "Ġsound": 6256,
      "pping": 6257,
      "ishing": 6258,
      "èĻļ": 6259,
      "Ġ40": 6260,
      "Ġera": 6261,
      "Ġstudy": 6262,
      "æī®": 6263,
      "ä¸İåħ¶": 6264,
      "éĥ¨éĺŁ": 6265,
      "åıĸæ¶Ī": 6266,
      "è¡¡éĩı": 6267,
      "ĠYORK": 6268,
      "èĩªèº«çļĦ": 6269,
      "æŃ£ç¡®çļĦ": 6270,
      "Ġencourage": 6271,
      "å¹´åĲİ": 6272,
      "æĪĲå°±": 6273,
      "æİ¢": 6274,
      "Ġparts": 6275,
      "æ¸¡": 6276,
      "Ġplans": 6277,
      "æ¶ĪéĻ¤": 6278,
      "èĩªçĶ±è´¸æĺĵ": 6279,
      "Ġgoals": 6280,
      "ĠCommun": 6281,
      "abilities": 6282,
      "äºĮæ°§åĮĸç¢³": 6283,
      "Ġnation": 6284,
      "å¯¹æīĭ": 6285,
      "Ġconnect": 6286,
      "ĠGaz": 6287,
      "fully": 6288,
      "èĪŀ": 6289,
      "Ġborder": 6290,
      "pr": 6291,
      "Ġsides": 6292,
      "Ġmaterial": 6293,
      "åĩĢ": 6294,
      "ç¾İåĽ½åľ¨": 6295,
      "Ġheart": 6296,
      "çľģ": 6297,
      "ä¿Ŀéļľ": 6298,
      "è®©æĪĳä»¬": 6299,
      "Ġcommunities": 6300,
      "rehen": 6301,
      "çļĦæĬķèµĦ": 6302,
      "Ġcross": 6303,
      "arity": 6304,
      "Ġdivid": 6305,
      "æĺ¯ä¸į": 6306,
      "asion": 6307,
      "èĢĹ": 6308,
      "è¾¹å¢ĥ": 6309,
      "Ġurban": 6310,
      "Despite": 6311,
      "rel": 6312,
      "å°Ħ": 6313,
      "Ġpoll": 6314,
      "å¾ĹåĪ°äºĨ": 6315,
      "éĩįå»º": 6316,
      "Ġintellect": 6317,
      "é¦Ļ": 6318,
      "Ġthroughout": 6319,
      "Ġelected": 6320,
      "Ġdirection": 6321,
      "Ġmatters": 6322,
      "Ġfast": 6323,
      "sector": 6324,
      "çĦ¦": 6325,
      "åıĺæļĸ": 6326,
      "åŃ¦ä¹ł": 6327,
      "éĺ¿æł¹": 6328,
      "èİ·å¾ĹäºĨ": 6329,
      "Ġprimary": 6330,
      "Ġfri": 6331,
      "æ²³": 6332,
      "å¤ļè¾¹": 6333,
      "ĠHamas": 6334,
      "Ġconfront": 6335,
      "å¢ŀåĬłäºĨ": 6336,
      "éļıåĲİ": 6337,
      "åı¦å¤ĸ": 6338,
      "Ġultimately": 6339,
      "Ġactivities": 6340,
      "Finally": 6341,
      "Ġwants": 6342,
      "èĢ¶": 6343,
      "åıĹçĽĬ": 6344,
      "Ġwarming": 6345,
      "åıĳçĶŁçļĦ": 6346,
      "æĳĩ": 6347,
      "éĢĤåºĶ": 6348,
      "æľīæĹ¶": 6349,
      "ulated": 6350,
      "ä¸ĸçķĮçļĦ": 6351,
      "Ġdescrib": 6352,
      "ä¼Ĭæĸ¯åħ°æķĻ": 6353,
      "Ġconsumers": 6354,
      "Ġturned": 6355,
      "Ġsignificantly": 6356,
      "Ġresponsible": 6357,
      "Ġminim": 6358,
      "account": 6359,
      "éĺ¿æł¹å»·": 6360,
      "war": 6361,
      "åĩłä¸ª": 6362,
      "ä¸¥æł¼": 6363,
      "éĢłæĪĲäºĨ": 6364,
      "Ġdifference": 6365,
      "Ġequity": 6366,
      "Ġoccup": 6367,
      "çļĦåıį": 6368,
      "ï¼īãĢģ": 6369,
      "Ġtrying": 6370,
      "cle": 6371,
      "çļĦåīį": 6372,
      "aces": 6373,
      "Ġyield": 6374,
      "å°Ķåħ°": 6375,
      "æĮĩæłĩ": 6376,
      "Ġagreements": 6377,
      "Ġappear": 6378,
      "Ġdestro": 6379,
      "çŃĶæ¡Ī": 6380,
      "Ġcity": 6381,
      "Ġbilateral": 6382,
      "sec": 6383,
      "åĮħå®¹": 6384,
      "æĮĩæķ°": 6385,
      "çľŁå®ŀ": 6386,
      "æĬ¥éģĵ": 6387,
      "æ¤į": 6388,
      "Ġjour": 6389,
      "Ġcommitted": 6390,
      "Ġpoore": 6391,
      "å¯Įè£ķ": 6392,
      "åĲĮæł·çļĦ": 6393,
      "Ġcompetitive": 6394,
      "åłª": 6395,
      "éĤ»åĽ½": 6396,
      "åľ¨ä¸Ģä¸ª": 6397,
      "ä¼Ł": 6398,
      "åºŁ": 6399,
      "ç¾İæ´²": 6400,
      "æĽ²": 6401,
      "æĺİçĻ½": 6402,
      "Ġscen": 6403,
      "minbi": 6404,
      "åĩ¯æģ©": 6405,
      "Ġwat": 6406,
      "é¢ĩ": 6407,
      "ocks": 6408,
      "Ġregions": 6409,
      "airs": 6410,
      "Ġtreatment": 6411,
      "Ġneighbors": 6412,
      "Ġargument": 6413,
      "çĽĪä½Ļ": 6414,
      "å¸ĿåĽ½": 6415,
      "Ġsize": 6416,
      "åįĸ": 6417,
      "Ġsoft": 6418,
      "å½±åĵįåĬĽ": 6419,
      "rect": 6420,
      "åº§": 6421,
      "æĦıè¯ĨåĪ°": 6422,
      "çĶ±æŃ¤": 6423,
      "åĨħå®¹": 6424,
      "åĽ°å¢ĥ": 6425,
      "å·®è·Ŀ": 6426,
      "ä¹Ĳè§Ĥ": 6427,
      "éī´äºİ": 6428,
      "çļĦè´¢æĶ¿": 6429,
      "Ġflo": 6430,
      "çļĦç¼": 6431,
      "2005": 6432,
      "æĭħä»»": 6433,
      "ç§ĳæĬĢ": 6434,
      "çĽĳçĿ£": 6435,
      "æĪ¿åľ°äº§": 6436,
      "ĠPalestinians": 6437,
      "ä½Ľ": 6438,
      "Ġwithd": 6439,
      "åŁºåľ°": 6440,
      "éĩĳèŀįæľºæŀĦ": 6441,
      "æĶ¾ç¼ĵ": 6442,
      "ĠParis": 6443,
      "Ġimmediate": 6444,
      "Ġsummit": 6445,
      "Tr": 6446,
      "Ġmid": 6447,
      "ustom": 6448,
      "èĭĹ": 6449,
      "Though": 6450,
      "Ġexperien": 6451,
      "Ġunderstanding": 6452,
      "Ġcomplete": 6453,
      "åħĭæŀĹé¡¿": 6454,
      "åı¯éĿł": 6455,
      "augh": 6456,
      "åı¸æ³ķ": 6457,
      "çł´äº§": 6458,
      "lands": 6459,
      "holders": 6460,
      "ĠSyrian": 6461,
      "Ġskills": 6462,
      "Ġmanufacturing": 6463,
      "Per": 6464,
      "ç¯": 6465,
      "Ġoblig": 6466,
      "Ġpurp": 6467,
      "Ġargued": 6468,
      "æ¸©åĴĮ": 6469,
      "Ġtargets": 6470,
      "iciency": 6471,
      "æī®æ¼Ķ": 6472,
      "nder": 6473,
      "ä¸įåºĶè¯¥": 6474,
      "åĬĽäºİ": 6475,
      "ocial": 6476,
      "Ġyour": 6477,
      "åĿĽ": 6478,
      "ovember": 6479,
      "æ¢¦": 6480,
      "century": 6481,
      "light": 6482,
      "Ġtro": 6483,
      "Ġste": 6484,
      "è¿ĩäºİ": 6485,
      "Ġvital": 6486,
      "ancial": 6487,
      "ique": 6488,
      "Ġreferend": 6489,
      "Ġlegitimacy": 6490,
      "Ġname": 6491,
      "antic": 6492,
      "ender": 6493,
      "å·¦ç¿¼": 6494,
      "Ġbail": 6495,
      "è¿Ļæ¬¡": 6496,
      "å¿į": 6497,
      "èĢħä»¬": 6498,
      "çĲĨä¼ļ": 6499,
      "åı¯ä»¥éĢļè¿ĩ": 6500,
      "ĠWh": 6501,
      "åıįå¯¹æ´¾": 6502,
      "ĠKorean": 6503,
      "Ġsufficient": 6504,
      "lif": 6505,
      "Ġsources": 6506,
      "Ġfre": 6507,
      "åħ¶å®ĥ": 6508,
      "2000": 6509,
      "ĠEconomic": 6510,
      "Ġenorm": 6511,
      "éĩıåĮĸ": 6512,
      "Ġtrig": 6513,
      "åįĩåĢ¼": 6514,
      "Ġdemands": 6515,
      "Ġseeking": 6516,
      "èĥĮæĻ¯": 6517,
      "Ġsteps": 6518,
      "çļĦç´§": 6519,
      "nic": 6520,
      "åľ¨æŃ¤": 6521,
      "éĥ½æľī": 6522,
      "çĦ¶åĲİ": 6523,
      "Ġquant": 6524,
      "Only": 6525,
      "ç¼ºå°ĳ": 6526,
      "Ġsave": 6527,
      "Ġsafe": 6528,
      "Con": 6529,
      "Not": 6530,
      "hern": 6531,
      "iff": 6532,
      "Ġintellig": 6533,
      "æĦıæĦ¿": 6534,
      "auc": 6535,
      "ä¼Ĺå¤ļ": 6536,
      "Ġprovides": 6537,
      "Ġlaws": 6538,
      "çĪ±å°Ķåħ°": 6539,
      "åĢ¾åĲĳ": 6540,
      "eria": 6541,
      "Ġcontrary": 6542,
      "Ġprime": 6543,
      "çłĶ": 6544,
      "angu": 6545,
      "Ġeasily": 6546,
      "åıĸå¾ĹäºĨ": 6547,
      "è¾©è®º": 6548,
      "men": 6549,
      "oz": 6550,
      "å®¾": 6551,
      "æĪı": 6552,
      "å¤§éĻĨ": 6553,
      "illing": 6554,
      "éĩįçĤ¹": 6555,
      "æĪĳä»¬éľĢè¦ģ": 6556,
      "ĠNovember": 6557,
      "Ġactions": 6558,
      "Ġreduction": 6559,
      "æĬĹè®®": 6560,
      "ĠClinton": 6561,
      "Ã¡": 6562,
      "ĽçĽ¾": 6563,
      "racies": 6564,
      "åħ¶æ¬¡": 6565,
      "åĬłéĢŁ": 6566,
      "ç®¡åĪ¶": 6567,
      "ĠJohn": 6568,
      "Ġimportance": 6569,
      "Ġdefault": 6570,
      "ä»Ĭå¤©çļĦ": 6571,
      "Ġembra": 6572,
      "å±ŀäºİ": 6573,
      "éĢĬå°¼": 6574,
      "pay": 6575,
      "Ġstory": 6576,
      "æĬ±": 6577,
      "åľ°ç¼ĺ": 6578,
      "åıĳå¸ĥ": 6579,
      "æĪĳçļĦ": 6580,
      "çļĦçģ": 6581,
      "å®īæİĴ": 6582,
      "å½¢æĢģ": 6583,
      "ysis": 6584,
      "Ġrenminbi": 6585,
      "Ġpursue": 6586,
      "Ġpromote": 6587,
      "Ġintellectual": 6588,
      "ä¸ĥ": 6589,
      "çļ®": 6590,
      "åħĦ": 6591,
      "Ġfaster": 6592,
      "Ġconduct": 6593,
      "æĪĲæŀľ": 6594,
      "å®ļä¹ī": 6595,
      "æĮģæľī": 6596,
      "éľį": 6597,
      "åı¯èĥ½æĺ¯": 6598,
      "æıĲåĩºäºĨ": 6599,
      "å¯¼èĩ´äºĨ": 6600,
      "æģĲæĥ§": 6601,
      "Ġexcessive": 6602,
      "çļĦåĲĮæĹ¶": 6603,
      "æīĢå¸¦æĿ¥çļĦ": 6604,
      "èĢħåĴĮ": 6605,
      "Ġenh": 6606,
      "å¾·éĩĮ": 6607,
      "èĩ´åĬĽäºİ": 6608,
      "å®£ç§°": 6609,
      "æ¯«æĹłçĸĳéĹ®": 6610,
      "Ġscientific": 6611,
      "çŀ": 6612,
      "Ġfront": 6613,
      "state": 6614,
      "atever": 6615,
      "ä»ĸåľ¨": 6616,
      "Ġsepar": 6617,
      "çĲĨå¿µ": 6618,
      "Ġ2000": 6619,
      "å®ĺåĥļ": 6620,
      "æĦŁè§ī": 6621,
      "Ġstandard": 6622,
      "Ġshows": 6623,
      "Ġsecure": 6624,
      "Ġvulnerable": 6625,
      "lements": 6626,
      "Ġreve": 6627,
      "idency": 6628,
      "ĠSen": 6629,
      "çļĦç²": 6630,
      "Ġ12": 6631,
      "ĠNet": 6632,
      "Ġapprec": 6633,
      "ç»ĻäºĪ": 6634,
      "é¸": 6635,
      "Ġcore": 6636,
      "ä¿Ĺ": 6637,
      "çĽ¸åĲĮ": 6638,
      "Ġanything": 6639,
      "Ġwars": 6640,
      "Ġreflects": 6641,
      "Ġorigin": 6642,
      "łæĿĨ": 6643,
      "çļĦåı¯èĥ½æĢ§": 6644,
      "Ġminist": 6645,
      "æĿ°": 6646,
      "æĹ¶åĪ»": 6647,
      "ç©ºéĹ´": 6648,
      "America": 6649,
      "MB": 6650,
      "ira": 6651,
      "edly": 6652,
      "åĽ½æľī": 6653,
      "enth": 6654,
      "å¼Ł": 6655,
      "åİĤ": 6656,
      "Thus": 6657,
      "æĺ¾èĢĮæĺĵ": 6658,
      "æ»ĳ": 6659,
      "Ġacceler": 6660,
      "è¶³ä»¥": 6661,
      "åıĳçĶŁäºĨ": 6662,
      "Ġextent": 6663,
      "porary": 6664,
      "Ġsubstantial": 6665,
      "rich": 6666,
      "Ġlending": 6667,
      "ety": 6668,
      "é¢ĳ": 6669,
      "çī²": 6670,
      "Ġimag": 6671,
      "Ġtry": 6672,
      "order": 6673,
      "Ġregulatory": 6674,
      "Ġsaving": 6675,
      "ç¤¾åĮº": 6676,
      "Ġcircum": 6677,
      "ev": 6678,
      "lar": 6679,
      "Ġtakes": 6680,
      "urs": 6681,
      "çº¢": 6682,
      "ä¹ĭä¸ĭ": 6683,
      "ĠPl": 6684,
      "Ġcompar": 6685,
      "å¾Īå°ĳ": 6686,
      "ç»´äºļ": 6687,
      "åĳĬè¯ī": 6688,
      "ç±»ä¼¼åľ°": 6689,
      "Ġmeaning": 6690,
      "åģĩè®¾": 6691,
      "å¦¥åįı": 6692,
      "ĠCol": 6693,
      "æľºåĻ¨": 6694,
      "Ġdefe": 6695,
      "Ġgoing": 6696,
      "è´«ç©·": 6697,
      "Ġstudents": 6698,
      "Sh": 6699,
      "èĽ": 6700,
      "ä¸įä¹ħ": 6701,
      "å±Ĭ": 6702,
      "å±ł": 6703,
      "éĺ³": 6704,
      "çĲĨæĥ³": 6705,
      "fficient": 6706,
      "Ġpattern": 6707,
      "Ġhistorical": 6708,
      "Ġproperty": 6709,
      "Ġlatest": 6710,
      "ustainable": 6711,
      "16": 6712,
      "Russ": 6713,
      "Ġ60": 6714,
      "enn": 6715,
      "æĿłæĿĨ": 6716,
      "Ġneither": 6717,
      "åħ¨éĥ¨": 6718,
      "Ġefficient": 6719,
      "uck": 6720,
      "lusive": 6721,
      "ij": 6722,
      "ä»Ģåı¶": 6723,
      "é»Ħ": 6724,
      "Ġcontinent": 6725,
      "è®°å½ķ": 6726,
      "Ġfalling": 6727,
      "Ġterrorist": 6728,
      "æ±¡æŁĵ": 6729,
      "Ġzero": 6730,
      "çļĦåıĳå±ķ": 6731,
      "çļĦæĶ¹éĿ©": 6732,
      "Ġport": 6733,
      "Ġlog": 6734,
      "æĹħ": 6735,
      "åĬłæ²Ļ": 6736,
      "è¿ĺæ²¡æľī": 6737,
      "Ġopin": 6738,
      "Ġcalls": 6739,
      "Ġthreats": 6740,
      "European": 6741,
      "æ»ĭçĹħ": 6742,
      "ĠèĢĮ": 6743,
      "çļĦæ°ĳä¸»": 6744,
      "ita": 6745,
      "Ġfrag": 6746,
      "æ³ķæ¡Ī": 6747,
      "acific": 6748,
      "æ¬§æ´²äºº": 6749,
      "æįį": 6750,
      "æĹ¥ç¨ĭ": 6751,
      "èĩ³äºİ": 6752,
      "æĢĿç»´": 6753,
      "Ġbelief": 6754,
      "Ġmultilateral": 6755,
      "åı¯æĮģç»Ńåıĳå±ķ": 6756,
      "Ġcompetitiveness": 6757,
      "nal": 6758,
      "Ġtell": 6759,
      "çļĦè®¡åĪĴ": 6760,
      "Ġoption": 6761,
      "å¹ķ": 6762,
      "âĢĿâĢĶâĢĶ": 6763,
      "å°±å¿ħé¡»": 6764,
      "ops": 6765,
      "ä¸ŃåĽ½åĴĮ": 6766,
      "å®īçĲĨä¼ļ": 6767,
      "Ġproduced": 6768,
      "Ġsometimes": 6769,
      "çļĦçĭ¬": 6770,
      "éĨĴ": 6771,
      "Ġfield": 6772,
      "Ġdig": 6773,
      "cember": 6774,
      "Ġhere": 6775,
      "éĥ½ä¸į": 6776,
      "Ġ2005": 6777,
      "çĥŁ": 6778,
      "æī©æķ£": 6779,
      "ĠChrist": 6780,
      "13": 6781,
      "Ġpaid": 6782,
      "ä¼ļåľ¨": 6783,
      "è¦ģæĥ³": 6784,
      "ĠSunn": 6785,
      "oses": 6786,
      "é¡º": 6787,
      "éĩıçļĦ": 6788,
      "ä»·åĢ¼è§Ĥ": 6789,
      "èĹı": 6790,
      "Ġwithdraw": 6791,
      "æįįåį«": 6792,
      "æīĢæľª": 6793,
      "andon": 6794,
      "æīįæĺ¯": 6795,
      "Ġperman": 6796,
      "21": 6797,
      "ä¹Ķ": 6798,
      "éĢģ": 6799,
      "amb": 6800,
      "reaty": 6801,
      "Ġtruth": 6802,
      "ä¿¡è´·": 6803,
      "åħļæ´¾": 6804,
      "Ġassistance": 6805,
      "ĠYork": 6806,
      "èµ°åĲĳ": 6807,
      "èī¾æ»ĭçĹħ": 6808,
      "Similarly": 6809,
      "Ġtheory": 6810,
      "ä»¿": 6811,
      "uses": 6812,
      "é«ĺè¾¾": 6813,
      "Ġcompared": 6814,
      "åį±æľºçļĦ": 6815,
      "Ġadvoc": 6816,
      "çĶµè§Ĩ": 6817,
      "Ġfocused": 6818,
      "ĠDecember": 6819,
      "è¿Ŀçº¦": 6820,
      "Ġprospects": 6821,
      "Ġcommercial": 6822,
      "Ġscenar": 6823,
      "åħĭæľį": 6824,
      "è®®éĻ¢": 6825,
      "å»ī": 6826,
      "Ġtherefore": 6827,
      "åĥµ": 6828,
      "Ġacqu": 6829,
      "åıĳè¾¾ç»ıæµİä½ĵ": 6830,
      "Ġmodels": 6831,
      "Ġcultural": 6832,
      "åľ¨è¿Ļä¸ª": 6833,
      "Ġstructure": 6834,
      "è¾ŀ": 6835,
      "Ġdispl": 6836,
      "Ġmargin": 6837,
      "æİĮæı¡": 6838,
      "Ġweek": 6839,
      "Ch": 6840,
      "Ġsens": 6841,
      "ä¸ĭåİ»": 6842,
      "æĢĿèĢĥ": 6843,
      "Ġsubsidies": 6844,
      "Ġthousands": 6845,
      "cast": 6846,
      "gency": 6847,
      "æī¬": 6848,
      "å¯¹ç¾İåĽ½": 6849,
      "å¯¹æĬĹ": 6850,
      "éĻĦ": 6851,
      "izes": 6852,
      "æĶ¿åºľåĴĮ": 6853,
      "å±ķå¼Ģ": 6854,
      "Ġapparent": 6855,
      "Ġbook": 6856,
      "Ġprinciples": 6857,
      "Ġcoalition": 6858,
      "ĠLebanon": 6859,
      "Ġreferendum": 6860,
      "éĢĬå°¼æ´¾": 6861,
      "Ġmut": 6862,
      "çīĮ": 6863,
      "çĸ²": 6864,
      "è®¿éĹ®": 6865,
      "æĦıè¯Ĩå½¢æĢģ": 6866,
      "Perhaps": 6867,
      "åľ°ç¼ĺæĶ¿æ²»": 6868,
      "Ġmand": 6869,
      "è¿Ļä¸¤": 6870,
      "æĥł": 6871,
      "rowth": 6872,
      "Ġachieved": 6873,
      "åĨ·æĪĺ": 6874,
      "Ġadopted": 6875,
      "Ġmerely": 6876,
      "From": 6877,
      "Ġmer": 6878,
      "urm": 6879,
      "äºĭä¼ļ": 6880,
      "è°·": 6881,
      "å°Ķå¤ļ": 6882,
      "æįŁå®³": 6883,
      "Ġcreditors": 6884,
      "æ²Ļçī¹éĺ¿æĭīä¼¯": 6885,
      "DS": 6886,
      "eb": 6887,
      "åħ¨åĽ½": 6888,
      "æĺİæĻº": 6889,
      "Ġbecomes": 6890,
      "ĠKh": 6891,
      "Ġexpectations": 6892,
      "éģŃéģĩ": 6893,
      "ä»Ģåı¶æ´¾": 6894,
      "iles": 6895,
      "Ġisol": 6896,
      "Ġstabil": 6897,
      "æĭ¯": 6898,
      "ä¹ĭå¤Ħ": 6899,
      "è¾ĳ": 6900,
      "Ġ11": 6901,
      "Ġabandon": 6902,
      "åħ·å¤ĩ": 6903,
      "Ġconclud": 6904,
      "Ġdrugs": 6905,
      "Ġprecisely": 6906,
      "ER": 6907,
      "è®¤è¯Ĩ": 6908,
      "è¡¨è¾¾": 6909,
      "ondon": 6910,
      "æ¯«ä¸į": 6911,
      "rehensive": 6912,
      "pread": 6913,
      "Ġåľ¨": 6914,
      "ï¼į": 6915,
      "Ġlose": 6916,
      "è¯±": 6917,
      "è¡Įéķ¿": 6918,
      "çī¹å¾ģ": 6919,
      "ĠKe": 6920,
      "éĵ¶è¡ĮçļĦ": 6921,
      "Ġpresidency": 6922,
      "æĬµåĪ¶": 6923,
      "è´¦æĪ·": 6924,
      "Japan": 6925,
      "ĠâĤ¬": 6926,
      "è¿Ļä¹Ī": 6927,
      "çĽĺ": 6928,
      "nty": 6929,
      "Ġshown": 6930,
      "Ġpartly": 6931,
      "Ġremark": 6932,
      "æ·±åĪ»": 6933,
      "Ġprofession": 6934,
      "idespread": 6935,
      "Ġprinciple": 6936,
      "æĭ¯æķĳ": 6937,
      "reet": 6938,
      "çļĦæł¸å¿ĥ": 6939,
      "ä»°": 6940,
      "ä»¥åĲİ": 6941,
      "å¹´éĹ´": 6942,
      "ĠMal": 6943,
      "ä¸ĸçķĮç»ıæµİ": 6944,
      "æ®ĸ": 6945,
      "Ġsurve": 6946,
      "ecause": 6947,
      "Ġprofits": 6948,
      "Ġlimits": 6949,
      "Ġspecific": 6950,
      "Ġbiggest": 6951,
      "Ġearlier": 6952,
      "è¯¾": 6953,
      "æ²¿": 6954,
      "æĬĽ": 6955,
      "Ġcomprom": 6956,
      "æ²¹ä»·": 6957,
      "Ġfaces": 6958,
      "Ġvictim": 6959,
      "Germ": 6960,
      "Over": 6961,
      "policy": 6962,
      "Ġbound": 6963,
      "ĠTreaty": 6964,
      "ç»Łè®¡": 6965,
      "æĮīçħ§": 6966,
      "Ġenterpris": 6967,
      "orks": 6968,
      "Ġbatt": 6969,
      "ä¸Ģä»£": 6970,
      "ignty": 6971,
      "ä¸»å¼ł": 6972,
      "å¤ĸæ±ĩ": 6973,
      "è¯´æĺİ": 6974,
      "ĠHouse": 6975,
      "åįłé¢Ĩ": 6976,
      "åİĨåı²ä¸Ĭ": 6977,
      "Ġserve": 6978,
      "çī¹åĪ«æĺ¯åľ¨": 6979,
      "åĸľæ¬¢": 6980,
      "çļĦå¨ģèĥģ": 6981,
      "ä»ĭ": 6982,
      "Ġflex": 6983,
      "å°Ŀ": 6984,
      "ĠAt": 6985,
      "orthern": 6986,
      "third": 6987,
      "æīĢéľĢè¦ģçļĦ": 6988,
      "Ġcontext": 6989,
      "Ġfinally": 6990,
      "æŀĦå»º": 6991,
      "æ¡ĳ": 6992,
      "Ġchanged": 6993,
      "èĳĹåĲį": 6994,
      "èį·åħ°": 6995,
      "CC": 6996,
      "ºçī²": 6997,
      "Ġ\"": 6998,
      "çļĦä½ľçĶ¨": 6999,
      "Ġsou": 7000,
      "Ġrele": 7001,
      "Ġgame": 7002,
      "çīºçī²": 7003,
      "ç»ĵè®º": 7004,
      "èĮ¨": 7005,
      "æııè¿°": 7006,
      "ĠRevolution": 7007,
      "His": 7008,
      "com": 7009,
      "uct": 7010,
      "è¿Ļå°±æĺ¯": 7011,
      "ulate": 7012,
      "å®ŀéªĮ": 7013,
      "æıĲåĩºçļĦ": 7014,
      "åıĹå®³": 7015,
      "Why": 7016,
      "ä¸ĵä¸ļ": 7017,
      "çĶŁæ´»åľ¨": 7018,
      "çħ¤": 7019,
      "Ġaccounts": 7020,
      "Ġhimself": 7021,
      "Ġtreaty": 7022,
      "Ġspeech": 7023,
      "ĠEng": 7024,
      "co": 7025,
      "ä¸°": 7026,
      "çļĦéķ¿æľŁ": 7027,
      "ä¸įåıĹ": 7028,
      "æľīä¸Ģä¸ª": 7029,
      "å¾¡": 7030,
      "Ġstagn": 7031,
      "Ġwhom": 7032,
      "ieving": 7033,
      "åĨħæĪĺ": 7034,
      "èĥŀ": 7035,
      "çľĭèµ·æĿ¥": 7036,
      "Ġelectric": 7037,
      "èĪª": 7038,
      "Ġmembership": 7039,
      "é¾Ļ": 7040,
      "åıįæĺłäºĨ": 7041,
      "Ġvarious": 7042,
      "åĲ¯åĬ¨": 7043,
      "Ġtools": 7044,
      "Ã§": 7045,
      "Ġround": 7046,
      "aled": 7047,
      "Ġstem": 7048,
      "ä½Ĩå®ĥ": 7049,
      "ames": 7050,
      "Ġimbal": 7051,
      "åĬłä¸Ĭ": 7052,
      "çĶ¨æĿ¥": 7053,
      "éĹ®é¢ĺæĺ¯": 7054,
      "å¿ĥçĲĨ": 7055,
      "Ġpercent": 7056,
      "æ¡¥": 7057,
      "åįłæį®": 7058,
      "å®£ä¼ł": 7059,
      "ĠGeorge": 7060,
      "Ġcommodity": 7061,
      "Ġvers": 7062,
      "çļĦæľªæĿ¥": 7063,
      "çļĦå·¥ä½ľ": 7064,
      "æĺ¯ä¸Ģç§į": 7065,
      "çĶ¸": 7066,
      "æĿ¥çľĭ": 7067,
      "Ġenj": 7068,
      "ĠBrexit": 7069,
      "ĠGu": 7070,
      "Ġdism": 7071,
      "Ġspend": 7072,
      "Ġtrading": 7073,
      "äº§çĶŁçļĦ": 7074,
      "å±łæĿĢ": 7075,
      "Ġdead": 7076,
      "ull": 7077,
      "æ³ķåºŃ": 7078,
      "åĨħçĳŀ": 7079,
      "é¢Ħéĺ²": 7080,
      "èĦļ": 7081,
      "å§ĶåĨħçĳŀ": 7082,
      "åĨľæ°ĳ": 7083,
      "Ġuncertainty": 7084,
      "Ġmacroeconomic": 7085,
      "é¦Ļæ¸¯": 7086,
      "Ġenormous": 7087,
      "åħĦå¼Ł": 7088,
      "å§ĶåĨħçĳŀæĭī": 7089,
      "ħçĶ¸": 7090,
      "Ġwidespread": 7091,
      "è¯Ĭ": 7092,
      "å®ŀä½ĵ": 7093,
      "éļĶ": 7094,
      "è¯´æľį": 7095,
      "åĽłä¸ºå®ĥ": 7096,
      "ittee": 7097,
      "Ġdeflation": 7098,
      "ĠLibya": 7099,
      "Ġannounced": 7100,
      "Consider": 7101,
      "IV": 7102,
      "iring": 7103,
      "å½¼": 7104,
      "çŃĳ": 7105,
      "Ġpolice": 7106,
      "ossil": 7107,
      "Ġautom": 7108,
      "Ġstarted": 7109,
      "å¥ĩæĢª": 7110,
      "Ġhappen": 7111,
      "Ġethnic": 7112,
      "æĬĳåĪ¶": 7113,
      "å®ıè§Ĥç»ıæµİ": 7114,
      "åı¥è¯Ŀ": 7115,
      "ĠGaza": 7116,
      "US": 7117,
      "Ġpan": 7118,
      "å°±åı¯ä»¥": 7119,
      "Ġenable": 7120,
      "åīįçļĦ": 7121,
      "æ®Ĭ": 7122,
      "Ġtraining": 7123,
      "ä¹łè¿ĳ": 7124,
      "Ġstruggle": 7125,
      "åħ¹": 7126,
      "Ġfunction": 7127,
      "åĬ£": 7128,
      "ĠGeneral": 7129,
      "ç¨İçİĩ": 7130,
      "ä¼łæŁĵ": 7131,
      "ä¼łæĴŃ": 7132,
      "ganization": 7133,
      "èĲ¨å¾·": 7134,
      "TON": 7135,
      "åĪ¶éĢłä¸ļ": 7136,
      "Ġsafety": 7137,
      "ç»ıåİĨäºĨ": 7138,
      "å°Ĭéĩį": 7139,
      "ä¹łè¿ĳå¹³": 7140,
      "Both": 7141,
      "iable": 7142,
      "mar": 7143,
      "ani": 7144,
      "icro": 7145,
      "Ġlot": 7146,
      "Ġvacc": 7147,
      "Ġabroad": 7148,
      "ĠJan": 7149,
      "ĠJune": 7150,
      "çļĦäººåı£": 7151,
      "å½¢åĬ¿": 7152,
      "Ġpossibility": 7153,
      "ç¼ĵæħ¢": 7154,
      "Ġblock": 7155,
      "Ġarrange": 7156,
      "åĩ¯æģ©æĸ¯": 7157,
      "ifying": 7158,
      "å®ļçļĦ": 7159,
      "åħ¥ä¾µ": 7160,
      "ä¼Ĭæĸ¯åħ°åĽ½": 7161,
      "ynes": 7162,
      "åŃ¤ç«ĭ": 7163,
      "inary": 7164,
      "æľīäºĨ": 7165,
      "ubl": 7166,
      "Ġconfere": 7167,
      "çĻĮ": 7168,
      "Ġpersist": 7169,
      "Ġimmigration": 7170,
      "ä¿ĥä½¿": 7171,
      "Ġgeop": 7172,
      "æĦ¤æĢĴ": 7173,
      "ait": 7174,
      "gain": 7175,
      "ugh": 7176,
      "erke": 7177,
      "Ġwage": 7178,
      "Ġhour": 7179,
      "åľ¨åħ¨çĲĥ": 7180,
      "æĺ¯ä¸ª": 7181,
      "ä½ĵçİ°": 7182,
      "æŀģå¤§": 7183,
      "æİ¨ç¿»": 7184,
      "åħ¬åı¸çļĦ": 7185,
      "Ġhappened": 7186,
      "åį±éĻ©çļĦ": 7187,
      "Ġdiseases": 7188,
      "Ġmessage": 7189,
      "ä¸Ģä½ĵåĮĸ": 7190,
      "æĽ´æľī": 7191,
      "Ġincomes": 7192,
      "Ġtried": 7193,
      "Ġquarter": 7194,
      "åĩłå¹´": 7195,
      "æīĢæľīçļĦ": 7196,
      "Ġresulting": 7197,
      "ference": 7198,
      "Ġinsist": 7199,
      "Ġestimated": 7200,
      "èĩ³åħ³éĩįè¦ģ": 7201,
      "pri": 7202,
      "uild": 7203,
      "vail": 7204,
      "©åĽº": 7205,
      "åľ¨ç»ıæµİ": 7206,
      "å·©åĽº": 7207,
      "åĿĲ": 7208,
      "èµ·åĪ°": 7209,
      "Ġcarry": 7210,
      "Ġcauses": 7211,
      "Ġlaunched": 7212,
      ".)": 7213,
      "Ġfell": 7214,
      "åĬ²": 7215,
      "æ¸´": 7216,
      "itting": 7217,
      "Ġconcent": 7218,
      "èµĦæľ¬ä¸»ä¹ī": 7219,
      "Ġbuilt": 7220,
      "åĨľæĿĳ": 7221,
      "æģ°æģ°": 7222,
      "è·¨åĽ½": 7223,
      "know": 7224,
      "çļĦçĬ¶": 7225,
      "ä½ĨæĪĳä»¬": 7226,
      "aches": 7227,
      "åĬ¨åĬĽ": 7228,
      "ä½İçļĦ": 7229,
      "Ġarmy": 7230,
      "ç©¶ç«Ł": 7231,
      "Ġdifferences": 7232,
      "ĠEastern": 7233,
      "Ġsovereignty": 7234,
      "itig": 7235,
      "ray": 7236,
      "Ġworry": 7237,
      "æĥ©": 7238,
      "ĠGo": 7239,
      "ĠLondon": 7240,
      "Ġmanaged": 7241,
      "Ġpromise": 7242,
      "Ġfighting": 7243,
      "ĠArgent": 7244,
      "åĪļåĪļ": 7245,
      "Ġinitiative": 7246,
      "æķħäºĭ": 7247,
      "ç»¿èī²": 7248,
      "AS": 7249,
      "gn": 7250,
      "ä¸ĢèĪ¬": 7251,
      "ä¸Ńäº§": 7252,
      "Ġrange": 7253,
      "ĠJu": 7254,
      "Ġpresent": 7255,
      "Ġbroader": 7256,
      "æ¾³": 7257,
      "å°Ŀè¯ķ": 7258,
      "çº¸": 7259,
      "æīĢéľĢ": 7260,
      "çīĽ": 7261,
      "uman": 7262,
      "Ġprem": 7263,
      "æ¨¡åŀĭ": 7264,
      "å°½ç®¡å¦ĤæŃ¤": 7265,
      "Ġbankers": 7266,
      "Ġoperations": 7267,
      "Ġbarri": 7268,
      "Ġcandidates": 7269,
      "åŁ¹è®Ń": 7270,
      "reced": 7271,
      "Ġbomb": 7272,
      "aria": 7273,
      "åĽ½éĺ²": 7274,
      "ilies": 7275,
      "ä¸Ģèµ·": 7276,
      "èĥ½åĲ¦": 7277,
      "æĸ¯ç§ĳ": 7278,
      "ç«Ń": 7279,
      "Its": 7280,
      "æĿ¡æ¬¾": 7281,
      "Ġsupported": 7282,
      "æĳ§": 7283,
      "hetor": 7284,
      "çĸ«èĭĹ": 7285,
      "Ġhundreds": 7286,
      "hib": 7287,
      "çļĦéĩĳèŀį": 7288,
      "Ġcustom": 7289,
      "Ġgold": 7290,
      "æīĢåľ¨": 7291,
      "æĽ´é«ĺçļĦ": 7292,
      "Ġunable": 7293,
      "ĠTrade": 7294,
      "Ġ2001": 7295,
      "ç§ĳåŃ¦å®¶": 7296,
      "Ġmeasure": 7297,
      "åĲĪæ³ķæĢ§": 7298,
      "Ġcircumst": 7299,
      "Tw": 7300,
      "ä¼Ĳ": 7301,
      "ä¹ĭè·¯": 7302,
      "thern": 7303,
      "ä¹īåĬ¡": 7304,
      "è®®åĳĺ": 7305,
      "Ġspace": 7306,
      "åĽŀå½Ĵ": 7307,
      "å·¨é¢Ŀ": 7308,
      "ĠRepublicans": 7309,
      "Ġreceived": 7310,
      "Ġadopt": 7311,
      "Ġvolat": 7312,
      "Ġcollective": 7313,
      "Ġsen": 7314,
      "uting": 7315,
      "èµĭ": 7316,
      "å¯¹è¯Ŀ": 7317,
      "usion": 7318,
      "æĦĪ": 7319,
      "æĥħæĬ¥": 7320,
      "åĲĦåľ°": 7321,
      "Ġfirm": 7322,
      "çĬ¯ç½ª": 7323,
      "Ġabsence": 7324,
      "Ġoptim": 7325,
      "ING": 7326,
      "ih": 7327,
      "rative": 7328,
      "Ġtask": 7329,
      "Ġcash": 7330,
      "Ġbase": 7331,
      "åĽ½å¤ĸ": 7332,
      "æĪª": 7333,
      "æĪĪ": 7334,
      "åĴĮéĩĳèŀį": 7335,
      "æĿĲ": 7336,
      "è¿Ļå°Ĩ": 7337,
      "äºĨè¿Ļä¸Ģ": 7338,
      "Ġcommunic": 7339,
      "Ġsolid": 7340,
      "levant": 7341,
      "Ġrevenues": 7342,
      "recedented": 7343,
      "CE": 7344,
      "Ã¥": 7345,
      "é±": 7346,
      "Ġwind": 7347,
      "Ġbill": 7348,
      "Ġfossil": 7349,
      "Ġrhetor": 7350,
      "Ġwelf": 7351,
      "é«ĺäºİ": 7352,
      "çĽ¸ä¼¼": 7353,
      "æķ´ä½ĵ": 7354,
      "Ġappropri": 7355,
      "æ£®æŀĹ": 7356,
      "æĵįçºµ": 7357,
      "ĠOrganization": 7358,
      "aling": 7359,
      "Ġprove": 7360,
      "ĠCan": 7361,
      "Ġworst": 7362,
      "Ġ1970": 7363,
      "Ġspent": 7364,
      "Ġspir": 7365,
      "çĪ¶": 7366,
      "Ġfacilit": 7367,
      "æĹ©æľŁ": 7368,
      "Ġhands": 7369,
      "æ½ľåĬĽ": 7370,
      "sych": 7371,
      "Ġopinion": 7372,
      "LON": 7373,
      "fect": 7374,
      "orb": 7375,
      "æĿľ": 7376,
      "åį·": 7377,
      "æĽ´é«ĺ": 7378,
      "Ġ100": 7379,
      "Ġadap": 7380,
      "æī¿åıĹ": 7381,
      "å¼ķåħ¥": 7382,
      "çĭĤ": 7383,
      "ä¿Ħç½Ĺæĸ¯çļĦ": 7384,
      "Ġdemocracies": 7385,
      "çº³ç¨İ": 7386,
      "è¡¨çİ°åĩº": 7387,
      "è¯¸å¤ļ": 7388,
      "éĩıåĮĸå®½æĿ¾": 7389,
      "Ġintelligence": 7390,
      "Ġwelfare": 7391,
      "ching": 7392,
      "Ġleaving": 7393,
      "ĠBe": 7394,
      "ĠBro": 7395,
      "Ġdiss": 7396,
      "æŀģä¸º": 7397,
      "2001": 7398,
      "2006": 7399,
      "Ġteam": 7400,
      "Ġhighest": 7401,
      "åĲĦåĽ½æĶ¿åºľ": 7402,
      "Ġunprecedented": 7403,
      "å¾Īå¤§ç¨ĭåº¦ä¸Ĭ": 7404,
      "åĢºæĿĥäºº": 7405,
      "rimin": 7406,
      "inet": 7407,
      "Ġwent": 7408,
      "å¹»": 7409,
      "è¢«è®¤ä¸º": 7410,
      "ç¼ħçĶ¸": 7411,
      "æ¬§çĽŁå§Ķåĳĺä¼ļ": 7412,
      "ä¼ĬæľĹçļĦ": 7413,
      "èĤ¡å¸Ĥ": 7414,
      "Ġimproved": 7415,
      "Ġconstruction": 7416,
      "Ġweakness": 7417,
      "Ġasked": 7418,
      "iers": 7419,
      "ios": 7420,
      "time": 7421,
      "yan": 7422,
      "Ġpubl": 7423,
      "åĮĸçŁ³": 7424,
      "äº§éĩı": 7425,
      "çī¹æ®Ĭ": 7426,
      "å·´æĭīåħĭ": 7427,
      "éĺ¿èĲ¨å¾·": 7428,
      "åĩłä¸ªæľĪ": 7429,
      "åįĹéĿŀ": 7430,
      "ĠIranian": 7431,
      "ç´§å¼ł": 7432,
      "Ġdrive": 7433,
      "åħ±äº§ä¸»ä¹ī": 7434,
      "Ġlegislation": 7435,
      "é±¼": 7436,
      "Because": 7437,
      "ç»ĥ": 7438,
      "æĪ´": 7439,
      "etic": 7440,
      "åĩºäºİ": 7441,
      "çº¯": 7442,
      "Ġsex": 7443,
      "Ġsecur": 7444,
      "çļĦçĸ": 7445,
      "Ġmeant": 7446,
      "ç»Ħç»ĩçļĦ": 7447,
      "åĽŀåĪ°": 7448,
      "è¿Ľè¡ĮäºĨ": 7449,
      "è¾¹çķĮ": 7450,
      "å¥¹ä»¬": 7451,
      "Ġsustained": 7452,
      "Ġclean": 7453,
      "ashington": 7454,
      "DON": 7455,
      "Ġhit": 7456,
      "å¿ĺ": 7457,
      "æĥ¯": 7458,
      "åħ¬æŃ£": 7459,
      "Ġresistance": 7460,
      "åıĺæĪĲ": 7461,
      "åĮħåĲ«": 7462,
      "åľ¨è¿Ļæĸ¹éĿ¢": 7463,
      "Ġrevenue": 7464,
      "II": 7465,
      "lied": 7466,
      "ä»ĩ": 7467,
      "æĸ¥": 7468,
      "Ġrural": 7469,
      "æĥĳ": 7470,
      "æĦıè§ģ": 7471,
      "Ġtrial": 7472,
      "ç¬¬ä¸Ģæ¬¡": 7473,
      "æĪĲåĬŁçļĦ": 7474,
      "æµĭè¯ķ": 7475,
      "åĢŁè´·": 7476,
      "åľ¨ä¸Ģèµ·": 7477,
      "ĠXi": 7478,
      "erkel": 7479,
      "æ¾³å¤§": 7480,
      "LONDON": 7481,
      "house": 7482,
      "Ġty": 7483,
      "Ġbure": 7484,
      "ä¸Ģç³»åĪĹ": 7485,
      "Ġlangu": 7486,
      "Their": 7487,
      "åĬ¨çī©": 7488,
      "çļĦçĹ": 7489,
      "æĿĥçļĦ": 7490,
      "Ġfinal": 7491,
      "Ġoutc": 7492,
      "éĺ¿å°Ķ": 7493,
      "æĸ°åħ´ç»ıæµİä½ĵ": 7494,
      "Ġstrength": 7495,
      "Ġschools": 7496,
      "Ġdesigned": 7497,
      "lantic": 7498,
      "Ġpack": 7499,
      "Ġgiving": 7500,
      "ĠCold": 7501,
      "ĠMa": 7502,
      "æľĪä»½": 7503,
      "æĶ¯æĮģèĢħ": 7504,
      "Ġcapt": 7505,
      "Ġ2006": 7506,
      "Ġaddition": 7507,
      "Ġeasing": 7508,
      "wan": 7509,
      "zuel": 7510,
      "ä¸ĢçĤ¹": 7511,
      "Ġlies": 7512,
      "Ġstake": 7513,
      "ĠBut": 7514,
      "Ġfarmers": 7515,
      "Ġfamilies": 7516,
      "ç§ģäººéĥ¨éĹ¨": 7517,
      "enezuel": 7518,
      "ä¸Ńäº§éĺ¶çº§": 7519,
      "Ġcircumstances": 7520,
      "uary": 7521,
      "å®Ŀ": 7522,
      "ĠIt": 7523,
      "çŃ¹": 7524,
      "æĽ´ä¸į": 7525,
      "Ġefficiency": 7526,
      "æł¼é²ģ": 7527,
      "Ġmostly": 7528,
      "Ġraised": 7529,
      "è¿Ļä¸ªéĹ®é¢ĺ": 7530,
      "Ġpromises": 7531,
      "Ġconflicts": 7532,
      "Ġconsiderable": 7533,
      "vestment": 7534,
      "ä»¥æŃ¤": 7535,
      "ada": 7536,
      "äºİæĺ¯": 7537,
      "åīĤ": 7538,
      "ä»»æľŁ": 7539,
      "idered": 7540,
      "è¥¿æ´ĭ": 7541,
      "actions": 7542,
      "Ġactivity": 7543,
      "è¯ķéªĮ": 7544,
      "Ġcurrencies": 7545,
      "ĠDemocratic": 7546,
      "æ¾³å¤§åĪ©äºļ": 7547,
      "ä¸įæĦ¿": 7548,
      "Ġcomprehensive": 7549,
      "æįĲ": 7550,
      "ĠUniversity": 7551,
      "aves": 7552,
      "çļĦåİĨåı²": 7553,
      "å¤ı": 7554,
      "ä¸įå¤ª": 7555,
      "ĠCour": 7556,
      "ĠEuro": 7557,
      "åīįæīĢæľª": 7558,
      "åħ¬æĬķ": 7559,
      "æĹłçĸĳ": 7560,
      "æĶ¿æ²»å®¶": 7561,
      "ä¸¾æİª": 7562,
      "åıĤåĬł": 7563,
      "Ġensuring": 7564,
      "American": 7565,
      "ĠPoland": 7566,
      "èļ": 7567,
      "ä½©": 7568,
      "Ġprevail": 7569,
      "Ġconsidered": 7570,
      "Ġperce": 7571,
      "196": 7572,
      "åĲĮæĹ¶ä¹Ł": 7573,
      "Ġacknow": 7574,
      "Ġeverything": 7575,
      "ä¼Ļä¼´åħ³ç³»": 7576,
      "å¯¹å¾ħ": 7577,
      "ä¹ŁæĹłæ³ķ": 7578,
      "æľĢæĸ°": 7579,
      "äº§åĩº": 7580,
      "æĪĳä»¬åı¯ä»¥": 7581,
      "ĠHar": 7582,
      "Ġjustice": 7583,
      "Ġfactor": 7584,
      "ç¨³å®ļçļĦ": 7585,
      "Ġdeclared": 7586,
      "ä¸įåı¯éģ¿åħį": 7587,
      "Ġdriven": 7588,
      "é»ĺåħĭå°Ķ": 7589,
      "Ġpopulist": 7590,
      "Int": 7591,
      "Or": 7592,
      "inent": 7593,
      "Ġinform": 7594,
      "ä¸ŃæīĢ": 7595,
      "å¤§åŀĭ": 7596,
      "Ġdisaster": 7597,
      "Ġcapita": 7598,
      "Ġworked": 7599,
      "èµĦäº§è´ŁåĢº": 7600,
      "Ġdeeply": 7601,
      "Ġmultip": 7602,
      "åĬ³åĬ¨åĬĽå¸Ĥåľº": 7603,
      "Ġinvolved": 7604,
      "è´Ŀå°Ķ": 7605,
      "è¶³å¤ŁçļĦ": 7606,
      "Ġassociated": 7607,
      "govern": 7608,
      "åħ¼": 7609,
      "ä½Ĩè¿Ļä¸Ģ": 7610,
      "åĨ³å¿ĥ": 7611,
      "æłĩå¿Ĺ": 7612,
      "ç»´æĬ¤": 7613,
      "çĽ®åīįä¸ºæŃ¢": 7614,
      "Ġgenerally": 7615,
      "Ġcolle": 7616,
      "Ġcloser": 7617,
      "åĮĸçŁ³çĩĥæĸĻ": 7618,
      "äººåľ¨": 7619,
      "æĬĵ": 7620,
      "çİ°çĬ¶": 7621,
      "ĠBl": 7622,
      "è§£æĶ¾": 7623,
      "åıĺå¾ĹæĽ´åĬł": 7624,
      "Ġborrowing": 7625,
      "çĹĽèĭ¦": 7626,
      "Ġmortg": 7627,
      "Ġfrequ": 7628,
      "uine": 7629,
      "Ġsold": 7630,
      "Ġder": 7631,
      "ç²®é£Ł": 7632,
      "Ġadvance": 7633,
      "Ġemerged": 7634,
      "Another": 7635,
      "Ġtalk": 7636,
      "Ġdestroy": 7637,
      "Ġbureauc": 7638,
      "mark": 7639,
      "Ġlight": 7640,
      "å¯¼å¼¹": 7641,
      "Ġraising": 7642,
      "Ġassert": 7643,
      "éĩĩåıĸè¡ĮåĬ¨": 7644,
      "åĮ»çĶŁ": 7645,
      "Ġidentity": 7646,
      "Ġtransport": 7647,
      "Ġratio": 7648,
      "Ġjournal": 7649,
      "Ġpermanent": 7650,
      "nam": 7651,
      "Ġhor": 7652,
      "utive": 7653,
      "æĿ¿": 7654,
      "Ġadequ": 7655,
      "ç»ĵåĲĪ": 7656,
      "Ġhelping": 7657,
      "è¾¹ç¼ĺ": 7658,
      "ä¹Łæĺ¯å¦ĤæŃ¤": 7659,
      "äº¿ç¾İåħĥçļĦ": 7660,
      "standing": 7661,
      "Ġinstru": 7662,
      "Ġsmaller": 7663,
      "æ¶īåıĬ": 7664,
      "Ġrestrict": 7665,
      "whel": 7666,
      "Ġtight": 7667,
      "Ġban": 7668,
      "Ġbody": 7669,
      "æĺ¥": 7670,
      "Ġongoing": 7671,
      "ĠCO": 7672,
      "Ġsum": 7673,
      "æĭīä¸ģ": 7674,
      "Ġanyone": 7675,
      "Ġequal": 7676,
      "Ġmedical": 7677,
      "éĶĻè¯¯çļĦ": 7678,
      "åºĵå°Ķå¾·": 7679,
      "èµĦäº§è´ŁåĢºè¡¨": 7680,
      "Ġexception": 7681,
      "ĠBo": 7682,
      "Ġunw": 7683,
      "Ġcompens": 7684,
      "æĥ³æ³ķ": 7685,
      "ä»įåľ¨": 7686,
      "Ġobst": 7687,
      "Ġgenerate": 7688,
      "éĩĬæĶ¾": 7689,
      "Ġrunning": 7690,
      "Ġconstitution": 7691,
      "Ġrevers": 7692,
      "éĢ»": 7693,
      "Ġexceed": 7694,
      "éķ¿çļĦ": 7695,
      "Ġresist": 7696,
      "å¼ºç¡¬": 7697,
      "Ġsuffering": 7698,
      "ĠMuslims": 7699,
      "Ġvisit": 7700,
      "ze": 7701,
      "Ġhy": 7702,
      "å¤§è¥¿æ´ĭ": 7703,
      "Ġanim": 7704,
      "è¿ĩæ¸¡": 7705,
      "Ġeconomist": 7706,
      "çŁĽçĽ¾": 7707,
      "Ġconsolid": 7708,
      "æ»¥": 7709,
      "oking": 7710,
      "çĥ¦": 7711,
      "è¯Ħè®º": 7712,
      "æ¸ħæ´": 7713,
      "Ġcontrols": 7714,
      "Ġconference": 7715,
      "çļĦåľ°åĮº": 7716,
      "ethe": 7717,
      "Those": 7718,
      "ĠDonald": 7719,
      "Ġinfect": 7720,
      "çĭ±": 7721,
      "æħĮ": 7722,
      "Ġdepends": 7723,
      "ä»ĺåĩº": 7724,
      "åĵ¥ä¼¦": 7725,
      "AR": 7726,
      "back": 7727,
      "gen": 7728,
      "rus": 7729,
      "ä¸įæ»¡": 7730,
      "Ġconcept": 7731,
      "è°¨": 7732,
      "Ġchanging": 7733,
      "Ġmeth": 7734,
      "35": 7735,
      "DR": 7736,
      "çļĩ": 7737,
      "raft": 7738,
      "ä»ĸä»¬åľ¨": 7739,
      "å¾Īåı¯èĥ½": 7740,
      "Ġremained": 7741,
      "æĹ©å·²": 7742,
      "Ġauthoritarian": 7743,
      "bles": 7744,
      "Ġsought": 7745,
      "Ġmigration": 7746,
      "raction": 7747,
      "Ġwel": 7748,
      "æľŁæľĽ": 7749,
      "ague": 7750,
      "Ġgreatest": 7751,
      "Ġallowing": 7752,
      "Ġreturns": 7753,
      "Israel": 7754,
      "Ġrepeated": 7755,
      "ä¸įä»ħä»ħæĺ¯": 7756,
      "ĠSunni": 7757,
      "Ġoutcomes": 7758,
      "ĠCourt": 7759,
      "åĵ¥ä¼¦æ¯Ķäºļ": 7760,
      "åĺ": 7761,
      "çļĦä¸ŃåĽ½": 7762,
      "itative": 7763,
      "Ġdue": 7764,
      "èµ¶": 7765,
      "å¥ĳ": 7766,
      "ä¸İç¾İåĽ½": 7767,
      "Ġagencies": 7768,
      "ĠWashington": 7769,
      "é©»": 7770,
      "risis": 7771,
      "å¼ºåĪ¶": 7772,
      "Ġprefer": 7773,
      "æµģåħ¥": 7774,
      "è¿Ļæĺ¯ä¸Ģä¸ª": 7775,
      "remlin": 7776,
      "Ġproductive": 7777,
      "Ġinstability": 7778,
      "Ġcrimin": 7779,
      "Ġentirely": 7780,
      "æ¸´æľĽ": 7781,
      "çļĦæİªæĸ½": 7782,
      "çļĦéľĢæ±Ĥ": 7783,
      "åĽŃ": 7784,
      "Ġmention": 7785,
      "ä¸ŃéĹ´": 7786,
      "éĿĻ": 7787,
      "æĸ¯çī¹": 7788,
      "Ġimplies": 7789,
      "è°¢": 7790,
      "é«ĺåº¦": 7791,
      "å¹³æ°ĳ": 7792,
      "ä½įäºİ": 7793,
      "è±ª": 7794,
      "èģĮä¸ļ": 7795,
      "Ġplayed": 7796,
      "Ġgetting": 7797,
      "Ġagricultural": 7798,
      "å¾ªçİ¯": 7799,
      "ĠAustral": 7800,
      "ĠKeynes": 7801,
      "èĢĲ": 7802,
      "å¥ĭ": 7803,
      "Ġenab": 7804,
      "æģ¨": 7805,
      "åıĹåĪ°äºĨ": 7806,
      "éĿŀæ³ķ": 7807,
      "è¾¾åĪ°äºĨ": 7808,
      "èĲİ": 7809,
      "åįĩçº§": 7810,
      "æĹ¥æľ¬çļĦ": 7811,
      "Ġoffered": 7812,
      "ç¤ºå¨ģ": 7813,
      "ç¿°": 7814,
      "èĲ¥åħ»": 7815,
      "å¹¸è¿Ĳ": 7816,
      "è¿ģ": 7817,
      "Ġeight": 7818,
      "Ġgl": 7819,
      "ä¸įåĪ©": 7820,
      "see": 7821,
      "æ³½": 7822,
      "æľĢéĩįè¦ģçļĦ": 7823,
      "æŀĦæĪĲ": 7824,
      "é©¬åħĭ": 7825,
      "åĩıç¨İ": 7826,
      "cale": 7827,
      "Ġfaced": 7828,
      "Ġbarriers": 7829,
      "oil": 7830,
      "yle": 7831,
      "çļĦçİ¯å¢ĥ": 7832,
      "çļĦæī¿è¯º": 7833,
      "itter": 7834,
      "icip": 7835,
      "è´¾": 7836,
      "ĠCo": 7837,
      "åŃŁ": 7838,
      "ĠAbe": 7839,
      "èµĦæł¼": 7840,
      "Ġcomput": 7841,
      "Ġplaces": 7842,
      "reasury": 7843,
      "ä¸¤å¤§": 7844,
      "2004": 7845,
      "2016": 7846,
      "Ġgenuine": 7847,
      "åĳ½è¿Ĳ": 7848,
      "ç»Ŀå¯¹": 7849,
      "ĠVenezuel": 7850,
      "Ġhardly": 7851,
      "Ġorganization": 7852,
      "aiwan": 7853,
      "çļĦåĬªåĬĽ": 7854,
      "atis": 7855,
      "urt": 7856,
      "Ġforms": 7857,
      "Ġsusp": 7858,
      "ç¾İåĽ½ç»ıæµİ": 7859,
      "æĥ¨": 7860,
      "è¢«è§Ĩä¸º": 7861,
      "éĵ¾": 7862,
      "Ġoverwhel": 7863,
      "rene": 7864,
      "åĲĦæĸ¹": 7865,
      "è´§å¸ģèģĶçĽŁ": 7866,
      "æ°ĳä¸»åĽ½å®¶": 7867,
      "efense": 7868,
      "Ġanaly": 7869,
      "Ġweeks": 7870,
      "upp": 7871,
      "ĠâĢĶâĢĶ": 7872,
      "çļĦè¡ĮåĬ¨": 7873,
      "å°ģ": 7874,
      "asing": 7875,
      "Ġstage": 7876,
      "ulf": 7877,
      "æ´ŀ": 7878,
      "Ġsell": 7879,
      "ĠPh": 7880,
      "Ġunless": 7881,
      "æ¯Ķçİĩ": 7882,
      "ĠKremlin": 7883,
      "çº¦ç¿°": 7884,
      "åĲĦèĩª": 7885,
      "Ġimports": 7886,
      "Ġstands": 7887,
      "ä½ıæĪ¿": 7888,
      "Ġslowdown": 7889,
      "Ġpartnership": 7890,
      "é©±åĬ¨": 7891,
      "Ġtroops": 7892,
      "Ġpercentage": 7893,
      "etheless": 7894,
      "PA": 7895,
      "ä¸Ŀ": 7896,
      "æŀª": 7897,
      "æ¯Ľ": 7898,
      "ä¹ĭä¸Ĭ": 7899,
      "ä¹ĭæĹ¶": 7900,
      "ä½ľåĩº": 7901,
      "éĥ½æ²¡æľī": 7902,
      "æķ°çĻ¾ä¸ĩ": 7903,
      "Ġovercome": 7904,
      "æŁı": 7905,
      "åĽŀåºĶ": 7906,
      "Ġcapitalism": 7907,
      "Ġcredibility": 7908,
      "Ġimproving": 7909,
      "Ġregulations": 7910,
      "Ġrhetoric": 7911,
      "EN": 7912,
      "scale": 7913,
      "çĺ": 7914,
      "Ġpsych": 7915,
      "ley": 7916,
      "Ġbeg": 7917,
      "å¸ķ": 7918,
      "anda": 7919,
      "èĩªåĬ¨": 7920,
      "æĮģä¹ħ": 7921,
      "Ġupon": 7922,
      "ints": 7923,
      "Ġroot": 7924,
      "stitute": 7925,
      "è¶ħè¶Ĭ": 7926,
      "ç¼ºéĻ·": 7927,
      "Ġgeopolitical": 7928,
      "EL": 7929,
      "Ġtensions": 7930,
      "ä¸įå¤Ł": 7931,
      "æĭĽ": 7932,
      "çİ°éĩĳ": 7933,
      "ä¹ĭæīĢä»¥": 7934,
      "ode": 7935,
      "Ġsupporters": 7936,
      "Ġlesson": 7937,
      "Ġviews": 7938,
      "Ġchoose": 7939,
      "è¯Ńè¨Ģ": 7940,
      "Ġanalysis": 7941,
      "æĥ©ç½ļ": 7942,
      "atisf": 7943,
      "che": 7944,
      "eenth": 7945,
      "aly": 7946,
      "ula": 7947,
      "Ġshock": 7948,
      "çĶ¨çļĦ": 7949,
      "è¿ĺä¼ļ": 7950,
      "Ġdecided": 7951,
      "è·µ": 7952,
      "æ¶Īå¤±": 7953,
      "Ġrare": 7954,
      "éĻĲäºİ": 7955,
      "Ġincludes": 7956,
      "æ¼«": 7957,
      "æ¼ı": 7958,
      "å£°ç§°": 7959,
      "Ġpace": 7960,
      "apital": 7961,
      "è¾Ľ": 7962,
      "Ġchann": 7963,
      "é¦ĸæ¬¡": 7964,
      "Ġrestore": 7965,
      "åı°æ¹¾": 7966,
      "Ġparticipation": 7967,
      "å°ļæľª": 7968,
      "Ġlearned": 7969,
      "æĳ§æ¯ģ": 7970,
      "Pro": 7971,
      "rat": 7972,
      "ç£": 7973,
      "çļĦçĶŁæ´»": 7974,
      "å®ľ": 7975,
      "Ġey": 7976,
      "Ġnations": 7977,
      "åľ¨æĶ¿æ²»": 7978,
      "uries": 7979,
      "Ġregimes": 7980,
      "Ġ2004": 7981,
      "Ġ2016": 7982,
      "æĴĳ": 7983,
      "å±ħæ°ĳ": 7984,
      "reprene": 7985,
      "la": 7986,
      "Ġexact": 7987,
      "åħ¨çĲĥåıĺæļĸ": 7988,
      "ĠKen": 7989,
      "ç»ĻäºĨ": 7990,
      "Ġdebts": 7991,
      "ä¸ĩäºº": 7992,
      "éħ¬": 7993,
      "Ġelectoral": 7994,
      "åİŁåĽłæĺ¯": 7995,
      "Ġwanted": 7996,
      "Ġfears": 7997,
      "Ġinvolve": 7998,
      "Ġexperts": 7999,
      "Trump": 8000,
      "Fr": 8001,
      "Ġï¼ī": 8002,
      "Ġmount": 8003,
      "æ¬²": 8004,
      "å·²ç»ıå¼Ģå§ĭ": 8005,
      "çº¦æĹ¦": 8006,
      "Ġquite": 8007,
      "åıĳçĶŁåľ¨": 8008,
      "çĽ®åīįçļĦ": 8009,
      "éħ·": 8010,
      "Ġperspect": 8011,
      "ikes": 8012,
      "which": 8013,
      "Ġfundament": 8014,
      "Ġobjectives": 8015,
      "Ġkilled": 8016,
      "Russia": 8017,
      "Ġbott": 8018,
      "éĢļç¼©": 8019,
      "ĠDC": 8020,
      "åĨįçĶŁ": 8021,
      "æ¿ĢçĥĪ": 8022,
      "åħ´è¶£": 8023,
      "éĢīä¸¾ä¸Ń": 8024,
      "Ġaffairs": 8025,
      "Ġpotentially": 8026,
      "ĠSea": 8027,
      "çļĦçł´": 8028,
      "Ġreceive": 8029,
      "çģµæ´»": 8030,
      "Ġnarrow": 8031,
      "book": 8032,
      "ĠAd": 8033,
      "Ġ196": 8034,
      "æĶ¹éĿ©çļĦ": 8035,
      "Ġdepos": 8036,
      "Ġmainly": 8037,
      "Ġpayments": 8038,
      "Ġcontribute": 8039,
      "Ġmoving": 8040,
      "çļĦä¸ľè¥¿": 8041,
      "Ġpen": 8042,
      "è¿Ļä¹Łæĺ¯": 8043,
      "ote": 8044,
      "æłĳ": 8045,
      "å¤ļåħĥ": 8046,
      "ĠMerkel": 8047,
      "åħ¬çº¦": 8048,
      "ä¸ŃåĽ½åľ¨": 8049,
      "æµ·æ´ĭ": 8050,
      "é¥¥": 8051,
      "Ġoptions": 8052,
      "éĢ»è¾ĳ": 8053,
      "reland": 8054,
      "çļĦå®īåħ¨": 8055,
      "Ġmigrants": 8056,
      "æŃĮ": 8057,
      "å·§": 8058,
      "Ġrational": 8059,
      "åī¥": 8060,
      "å°±åľ¨": 8061,
      "è¿ĺéľĢè¦ģ": 8062,
      "ieth": 8063,
      "äº¿æ¬§åħĥ": 8064,
      "Ġgoes": 8065,
      "Ġplanet": 8066,
      "å§ĨæŀĹ": 8067,
      "Ġsecular": 8068,
      "éķĩåİĭ": 8069,
      "Ġscenario": 8070,
      "å°Ķå¤ļå®ī": 8071,
      "Re": 8072,
      "alib": 8073,
      "Ġmor": 8074,
      "æķ¢": 8075,
      "è¦ģæ¯Ķ": 8076,
      "ains": 8077,
      "åĪ©çıŃ": 8078,
      "æŃ£ä¹ī": 8079,
      "åĳĺå·¥": 8080,
      "Ġusually": 8081,
      "æīĵçł´": 8082,
      "Ġimplications": 8083,
      "ĠJanuary": 8084,
      "herent": 8085,
      "æĺ¯å¦ĤæŃ¤": 8086,
      "Ġlines": 8087,
      "ĠCons": 8088,
      "ĠBer": 8089,
      "éģ¥": 8090,
      "aks": 8091,
      "ĠTaiwan": 8092,
      "ogue": 8093,
      "è§Ĥå¿µ": 8094,
      "ä¸ľçĽŁ": 8095,
      "Ġtransfer": 8096,
      "ä¾ĭå¤ĸ": 8097,
      "Ġrecognized": 8098,
      "Ġcandidate": 8099,
      "Ġestimates": 8100,
      "ĠBrother": 8101,
      "çļĦåľ°æĸ¹": 8102,
      "Ġsqu": 8103,
      "æľĭ": 8104,
      "Ġfallen": 8105,
      "ä¸Ģå¼Ģå§ĭ": 8106,
      "æĹ¶çļĦ": 8107,
      "ĠKong": 8108,
      "å¼ºåĬ²": 8109,
      "è§ĦåĪĴ": 8110,
      "Ġaccomp": 8111,
      "Ġarms": 8112,
      "äº¤éĢļ": 8113,
      "å°¼æĹ¥": 8114,
      "äººä»¬å¯¹": 8115,
      "åĮĹäº¬": 8116,
      "ç¦»å¼Ģ": 8117,
      "ĠIslamist": 8118,
      "æ¼Ķè®²": 8119,
      "Ġterritory": 8120,
      "Ġconservative": 8121,
      "Ġdigital": 8122,
      "Ġpun": 8123,
      "antly": 8124,
      "astro": 8125,
      "é©¬éĩĮ": 8126,
      "Ġsuffer": 8127,
      "RIDG": 8128,
      "Ġdeaths": 8129,
      "Ġaggreg": 8130,
      "CAMB": 8131,
      "ĠJuly": 8132,
      "RIDGE": 8133,
      "CAMBRIDGE": 8134,
      "During": 8135,
      "Just": 8136,
      "Nor": 8137,
      "çļĦåĨĽäºĭ": 8138,
      "çļĦæĸ¹æ³ķ": 8139,
      "atform": 8140,
      "arbon": 8141,
      "Ġgave": 8142,
      "äººçī©": 8143,
      "Then": 8144,
      "æĻļ": 8145,
      "ç»ĦåĲĪ": 8146,
      "aching": 8147,
      "Ġpositions": 8148,
      "Ġdouble": 8149,
      "Ġestablishment": 8150,
      "å¿½çķ¥": 8151,
      "æĢİä¹Ī": 8152,
      "Ġproposal": 8153,
      "Ġpriority": 8154,
      "Ġmethod": 8155,
      "Be": 8156,
      "Ex": 8157,
      "Ġties": 8158,
      "isc": 8159,
      "istics": 8160,
      "kept": 8161,
      "ocu": 8162,
      "åŁºçĿ£": 8163,
      "aren": 8164,
      "èĩ³ä»Ĭ": 8165,
      "åģļçļĦ": 8166,
      "1990": 8167,
      "æİ¨è¡Į": 8168,
      "æį¢åı¥è¯Ŀ": 8169,
      "Ġimplemented": 8170,
      "Ġinitiatives": 8171,
      "ozy": 8172,
      "æĭīä¸ģç¾İæ´²": 8173,
      "lad": 8174,
      "long": 8175,
      "çļĦéĵ¶è¡Į": 8176,
      "Ġtold": 8177,
      "è¿Ļå°±": 8178,
      "ä»¥ä¸ĭ": 8179,
      "ĠSch": 8180,
      "Ġcancer": 8181,
      "ollah": 8182,
      "å°¼æĸ¯": 8183,
      "Ġnationalism": 8184,
      "æĪĲåĬŁåľ°": 8185,
      "æģĲæħĮ": 8186,
      "Ġinsp": 8187,
      "Ġviewed": 8188,
      "å·´åĭĴæĸ¯åĿ¦äºº": 8189,
      "Ġpatients": 8190,
      "itude": 8191,
      "çļĦç²¾": 8192,
      "ĠArgentina": 8193,
      "ĠEx": 8194,
      "ä¸ĭæĿ¥": 8195,
      "è®®ç¨ĭ": 8196,
      "æ¶Į": 8197,
      "èĤĨ": 8198,
      "å»ºçŃĳ": 8199,
      "èįĴ": 8200,
      "Ġremov": 8201,
      "èĩªçĶ±åĮĸ": 8202,
      "è¶ħçº§": 8203,
      "Ġnumbers": 8204,
      "Ġpractices": 8205,
      "ç¯ĩ": 8206,
      "coming": 8207,
      "kish": 8208,
      "ria": 8209,
      "çļĦåĪ©çĽĬ": 8210,
      "çļĦæĪĺçķ¥": 8211,
      "çļĦæĿĥåĪ©": 8212,
      "âĢ¢": 8213,
      "çİĽ": 8214,
      "ĠDav": 8215,
      "å®ŀçİ°äºĨ": 8216,
      "è¨Ģä¹ĭ": 8217,
      "Ġended": 8218,
      "å¤ªå¹³": 8219,
      "äº§çĶŁäºĨ": 8220,
      "åŁĥå°Ķå¤ļå®ī": 8221,
      "Ġmovements": 8222,
      "Ġformal": 8223,
      "åł¡": 8224,
      "Ġmechanisms": 8225,
      "åı¬å¼Ģ": 8226,
      "run": 8227,
      "orial": 8228,
      "æĺ¯ç¾İåĽ½": 8229,
      "è¿Ļä¸¤ä¸ª": 8230,
      "èĥ½åľ¨": 8231,
      "anted": 8232,
      "arkozy": 8233,
      "ĠKurd": 8234,
      "Ġruling": 8235,
      "å¿ħè¦ģçļĦ": 8236,
      "éĻ·åħ¥äºĨ": 8237,
      "ç»Ĩèĥŀ": 8238,
      "Ġdiplomacy": 8239,
      "Ġresolve": 8240,
      "Ġjoin": 8241,
      "èī°éļ¾": 8242,
      "ares": 8243,
      "çļĦé¢Ĩå¯¼": 8244,
      "Ġsil": 8245,
      "Ġhon": 8246,
      "ĠCal": 8247,
      "ĠSing": 8248,
      "ä¹Łä¸įä¼ļ": 8249,
      "è¿ĩæĿ¥": 8250,
      "Ġimped": 8251,
      "å¹³åı°": 8252,
      "çĽ®çļĦæĺ¯": 8253,
      "ä¿ĿçķĻ": 8254,
      "æĭīç¾İ": 8255,
      "ä»»åĳ½": 8256,
      "å¿ħçĦ¶": 8257,
      "éļıä¹ĭ": 8258,
      "çº³å¾·": 8259,
      "Ġcombined": 8260,
      "Ġprotests": 8261,
      "Ġguarantee": 8262,
      "24": 8263,
      "Last": 8264,
      "ÄŁ": 8265,
      "Ġmach": 8266,
      "åĴĮä¸ŃåĽ½": 8267,
      "åıĳè¡Į": 8268,
      "Ġleverage": 8269,
      "åĮºåĪ«": 8270,
      "èº«ä¸Ĭ": 8271,
      "æ°ĳä¸»çļĦ": 8272,
      "Ġtransformation": 8273,
      "Ġcommitments": 8274,
      "Ġconstitutional": 8275,
      "Ġscientists": 8276,
      "åı¦ä¸Ģæĸ¹éĿ¢": 8277,
      "Ġhar": 8278,
      "æĺ¯ä¸ºäºĨ": 8279,
      "ä¸Ģå¹´": 8280,
      "ä¸Ģä¸ĭ": 8281,
      "åĲĥ": 8282,
      "ä¸ºæŃ¤": 8283,
      "Ġworks": 8284,
      "ä¸ŃåĽ½æĶ¿åºľ": 8285,
      "æľĪçļĦ": 8286,
      "å£ģ": 8287,
      "è®¡åĪĴçļĦ": 8288,
      "è¯ģåĪ¸": 8289,
      "Ġentreprene": 8290,
      "éĩĩåıĸäºĨ": 8291,
      "Ġpractice": 8292,
      "Ġdemonstr": 8293,
      "è¯ļçĦ¶": 8294,
      "Ġsharply": 8295,
      "è¿¹è±¡": 8296,
      "power": 8297,
      "ä¸įè¦ģ": 8298,
      "åĨ°": 8299,
      "è¿Ļä¸ĢçĽ®æłĩ": 8300,
      "Ġcomplic": 8301,
      "ĠKim": 8302,
      "ä½İæĶ¶åħ¥": 8303,
      "Ġforecast": 8304,
      "Ġeverywhere": 8305,
      "æļ´éľ²": 8306,
      "Ġdeclining": 8307,
      "Ġmedium": 8308,
      "Ġeasier": 8309,
      "çļĦç©º": 8310,
      "Ġappropriate": 8311,
      "cers": 8312,
      "more": 8313,
      "oke": 8314,
      "enh": 8315,
      "æĺ¯æľī": 8316,
      "åĴĮæĬķèµĦ": 8317,
      "Ġexerc": 8318,
      "Ġvo": 8319,
      "Ġotherwise": 8320,
      "è®©äºº": 8321,
      "ç½Ĺé©¬": 8322,
      "æ¶ĪçģŃ": 8323,
      "æīĢæľīäºº": 8324,
      "Ġcorrect": 8325,
      "Ġordinary": 8326,
      "é¢Ŀå¤ĸ": 8327,
      "äºĴçĽ¸": 8328,
      "åĢŁæ¬¾": 8329,
      "æģĲæĢĸåĪĨåŃĲ": 8330,
      "å¡ĶåĪ©çıŃ": 8331,
      "å½ĵåīįçļĦ": 8332,
      "Ġpopulations": 8333,
      "Ġundermine": 8334,
      "Ġuniversal": 8335,
      "éĺµèĲ¥": 8336,
      "éģµå®Ī": 8337,
      "Ġimbalances": 8338,
      "Ġspect": 8339,
      "sts": 8340,
      "ä¸Ģéĥ¨åĪĨ": 8341,
      "Ġconventional": 8342,
      "å¿Ĩ": 8343,
      "å°Ĩç»§ç»Ń": 8344,
      "æ³ķæ²»": 8345,
      "åĪĨä¹ĭ": 8346,
      "ç½ķ": 8347,
      "ä¸ŃåĽ½ç»ıæµİ": 8348,
      "ä½¿åħ¶": 8349,
      "è¥¿äºļ": 8350,
      "è´¹çĶ¨": 8351,
      "åŀĴ": 8352,
      "åħ±åĴĮåĽ½": 8353,
      "Ġamounts": 8354,
      "Ġpoorest": 8355,
      "IC": 8356,
      "è¹": 8357,
      "Ġ70": 8358,
      "Ġones": 8359,
      "ç»ıèĲ¥": 8360,
      "Ġasp": 8361,
      "åħ¨æ°ĳ": 8362,
      "ĠMarch": 8363,
      "èĥĨ": 8364,
      "è®©ä»ĸä»¬": 8365,
      "å·²ç»ıåľ¨": 8366,
      "èİ·çĽĬ": 8367,
      "Ġphil": 8368,
      "ä¿®æŃ£": 8369,
      "æĤ£èĢħ": 8370,
      "arency": 8371,
      "Rather": 8372,
      "pin": 8373,
      "pret": 8374,
      "åı«": 8375,
      "äººåĿĩ": 8376,
      "æ²¦": 8377,
      "Ġalloc": 8378,
      "ĠEr": 8379,
      "ĠGovern": 8380,
      "çĲĨæĢ§": 8381,
      "Ġimposed": 8382,
      "Ġ17": 8383,
      "åĿ¡": 8384,
      "è®ºåĿĽ": 8385,
      "Ġproved": 8386,
      "adequ": 8387,
      "ä»½é¢Ŀ": 8388,
      "Ġdriving": 8389,
      "çĳŀåħ¸": 8390,
      "SEAN": 8391,
      "Â¾": 8392,
      "Ġaware": 8393,
      "çļĦåĶ¯ä¸Ģ": 8394,
      "Ġwast": 8395,
      "Ġmurd": 8396,
      "Ġstay": 8397,
      "ĠEconom": 8398,
      "åĪ°çļĦ": 8399,
      "Ġintens": 8400,
      "ä»İæĿ¥": 8401,
      "rown": 8402,
      "Ġalliance": 8403,
      "è¿Ļä¸ĢéĹ®é¢ĺ": 8404,
      "Ġcompl": 8405,
      "ĠNig": 8406,
      "Ġdisrupt": 8407,
      "idents": 8408,
      "Ġspur": 8409,
      "çļĦäººä»¬": 8410,
      "Ġdefend": 8411,
      "æµ·å¤ĸ": 8412,
      "æ®µæĹ¶éĹ´": 8413,
      "Ġtruly": 8414,
      "Ġcorporations": 8415,
      "liferation": 8416,
      "å¤ªå¹³æ´ĭ": 8417,
      "Ab": 8418,
      "Govern": 8419,
      "Ġdrop": 8420,
      "äººæķ°": 8421,
      "raf": 8422,
      "rage": 8423,
      "ä½Ĩè¿ĻäºĽ": 8424,
      "åİī": 8425,
      "åĬłæĭ¿": 8426,
      "Ġexpend": 8427,
      "åŃĺæ¬¾": 8428,
      "lows": 8429,
      "å»ºç«ĭä¸Ģä¸ª": 8430,
      "reme": 8431,
      "Ġstrategies": 8432,
      "åħĭéĩĮå§ĨæŀĹ": 8433,
      "Ġdistribution": 8434,
      "Ġsouthern": 8435,
      "Ġelectricity": 8436,
      "Ġrely": 8437,
      "å¼¥": 8438,
      "å¿ł": 8439,
      "åħ³ç¨İ": 8440,
      "æ¯Ķæĸ¹": 8441,
      "Ġpled": 8442,
      "Ġaccum": 8443,
      "åįıåĬ©": 8444,
      "æ°Ķä½ĵ": 8445,
      "Ġdesire": 8446,
      "é¥±": 8447,
      "ivalent": 8448,
      "Ġaggregate": 8449,
      "sk": 8450,
      "wing": 8451,
      "Ġdimin": 8452,
      "ster": 8453,
      "å¤§ä¼ļ": 8454,
      "æķı": 8455,
      "ä½Ĩä»ĸä»¬": 8456,
      "ä¸Ĭåİ»": 8457,
      "åĪ°çĽ®åīįä¸ºæŃ¢": 8458,
      "Ġseven": 8459,
      "ustr": 8460,
      "ĠMan": 8461,
      "éľ¸": 8462,
      "è°´": 8463,
      "æĶ¯æĮģçļĦ": 8464,
      "Ġsymb": 8465,
      "ä¸ľäºļ": 8466,
      "iction": 8467,
      "Ġcontinuing": 8468,
      "Ġdeprec": 8469,
      "Ġuseful": 8470,
      "Ġprepared": 8471,
      "Ġrobust": 8472,
      "27": 8473,
      "Ġmitig": 8474,
      "los": 8475,
      "amer": 8476,
      "æĢ§åĪ«": 8477,
      "åº¦çļĦ": 8478,
      "Ġresolution": 8479,
      "Ġprison": 8480,
      "æ²¡æľīä»»ä½ķ": 8481,
      "æ¸ł": 8482,
      "å·²ç»ıæĪĲä¸º": 8483,
      "åıªä¼ļ": 8484,
      "é©¾": 8485,
      "Ġarmed": 8486,
      "è®¸å¤ļåĽ½å®¶": 8487,
      "ç´§å¯Ĩ": 8488,
      "Ġregulators": 8489,
      "Ġreflected": 8490,
      "roduct": 8491,
      "ney": 8492,
      "Ġproposals": 8493,
      "äºĮåįģä¸ĸçºª": 8494,
      "Ġinevitable": 8495,
      "Ġexperienced": 8496,
      "Ġenjoy": 8497,
      "è°¨æħİ": 8498,
      "è°´è´£": 8499,
      "iately": 8500,
      "åľ¨ä¸ŃåĽ½": 8501,
      "Ġgir": 8502,
      "åı¯ä¿¡": 8503,
      "ĠAll": 8504,
      "ushed": 8505,
      "å¦ĤæŀľæĪĳä»¬": 8506,
      "ĠHong": 8507,
      "Ġappoint": 8508,
      "Ġroom": 8509,
      "åĤ¬": 8510,
      "åĲ¦è®¤": 8511,
      "å¾·åĽ½çļĦ": 8512,
      "Ġmanip": 8513,
      "Ġtowards": 8514,
      "ä¼ĺåħĪ": 8515,
      "èĦ±ç¦»": 8516,
      "èī¯å¥½": 8517,
      "Ġblame": 8518,
      "Ġmotiv": 8519,
      "Ġsenior": 8520,
      "æŁıæŀĹ": 8521,
      "oes": 8522,
      "Ġcell": 8523,
      "Ġep": 8524,
      "äººéģĵ": 8525,
      "ä¸ªä½ĵ": 8526,
      "Ġ16": 8527,
      "ä»¥åıĬåħ¶ä»ĸ": 8528,
      "Ġunderlying": 8529,
      "è¿Ļä¸ªåĽ½å®¶": 8530,
      "èĦ±æ¬§": 8531,
      "Ġviolent": 8532,
      "éĢĲæŃ¥": 8533,
      "å¤±åİ»äºĨ": 8534,
      "ĠHealth": 8535,
      "Ġcalc": 8536,
      "ĠAssad": 8537,
      "æľĭåıĭ": 8538,
      "çļĦåĨ³å®ļ": 8539,
      "atures": 8540,
      "ä¸įå¦Ĥ": 8541,
      "å¹´é¾Ħ": 8542,
      "ĠSocial": 8543,
      "åĢ¡": 8544,
      "åıĳèµ·": 8545,
      "ï¼īâĢĶâĢĶ": 8546,
      "éĺ´": 8547,
      "åĬłæĭī": 8548,
      "è¿ĺèĥ½": 8549,
      "æĹ¥æ¸Ĳ": 8550,
      "å¸ĥé²ģ": 8551,
      "Ġmonit": 8552,
      "æ¯ıå¤©": 8553,
      "Ġbelieved": 8554,
      "Ġcombination": 8555,
      "å©ļ": 8556,
      "Ġagriculture": 8557,
      "Ġdegree": 8558,
      "éĢĨè½¬": 8559,
      "Ġbailout": 8560,
      "çłĶåıĳ": 8561,
      "aliban": 8562,
      "Ġwond": 8563,
      "let": 8564,
      "æĢ¨": 8565,
      "ĠPr": 8566,
      "åĮĸåĴĮ": 8567,
      "çļĦçĪ": 8568,
      "rud": 8569,
      "Ġexpensive": 8570,
      "Ġplatform": 8571,
      "çĸŁ": 8572,
      "è·ĥ": 8573,
      "ails": 8574,
      "Ġcausing": 8575,
      "Ġchoices": 8576,
      "åĵªäºĽ": 8577,
      "åĲīäºļ": 8578,
      "Ġtwentieth": 8579,
      "Ġexpendit": 8580,
      "æ¸łéģĵ": 8581,
      "ĦæĸŃ": 8582,
      "itation": 8583,
      "eda": 8584,
      "estern": 8585,
      "ä¹ĭä¸º": 8586,
      "Ġenem": 8587,
      "åŀĦæĸŃ": 8588,
      "æķ´åĲĪ": 8589,
      "åĪ¤æĸŃ": 8590,
      "Global": 8591,
      "Our": 8592,
      "ipe": 8593,
      "icle": 8594,
      "è¡·": 8595,
      "ä»¥å¾Ģ": 8596,
      "ĠIreland": 8597,
      "ç»ıæµİåıĳå±ķ": 8598,
      "ä¸ļåĬ¡": 8599,
      "æĭīå¤«": 8600,
      "åĲįä¹ī": 8601,
      "çļĦç»ıæµİå¢ŀéķ¿": 8602,
      "Ġgenerations": 8603,
      "äºĶå¹´": 8604,
      "é¡¾éĹ®": 8605,
      "Ġreplace": 8606,
      "doÄŁ": 8607,
      "Ġfriends": 8608,
      "Ġenterprises": 8609,
      "æł¼é²ģåĲīäºļ": 8610,
      "doÄŁan": 8611,
      "iant": 8612,
      "åľ¨è¿Ļä¸Ģ": 8613,
      "è´¯": 8614,
      "illed": 8615,
      "ĠSum": 8616,
      "iagn": 8617,
      "ä¸ĸä¿Ĺ": 8618,
      "Ġunique": 8619,
      "å¤±è¡¡": 8620,
      "æĮĩå¯¼": 8621,
      "Ġactors": 8622,
      "å¤ªéĺ³": 8623,
      "ç»ĵæŀľæĺ¯": 8624,
      "èĤ¡ä¸ľ": 8625,
      "çļĦæľĢä½³": 8626,
      "éĺ¶å±Ĥ": 8627,
      "Ġvirtually": 8628,
      "Ġhopes": 8629,
      "Ġdefeat": 8630,
      "æį¢åı¥è¯Ŀè¯´": 8631,
      "300": 8632,
      "çļĦçĲĨçĶ±": 8633,
      "Ġfoot": 8634,
      "æĺ¯çĶ±": 8635,
      "ä¹ŁåºĶè¯¥": 8636,
      "åĩºåĶ®": 8637,
      "Ġcompe": 8638,
      "å¥ī": 8639,
      "é¢Ĩå¯¼çļĦ": 8640,
      "2003": 8641,
      "èİ·èĥľ": 8642,
      "åĩĨç¡®": 8643,
      "æĸĩç«ł": 8644,
      "Ġcourt": 8645,
      "Ġaccepted": 8646,
      "Ġdevast": 8647,
      "Ġadjustment": 8648,
      "ä¸§å¤±": 8649,
      "ties": 8650,
      "vis": 8651,
      "çļĦéĢīæĭ©": 8652,
      "itious": 8653,
      "Ġbul": 8654,
      "åı¯åĨįçĶŁ": 8655,
      "è¦ģç´ł": 8656,
      "æĢ§è´¨": 8657,
      "åĮĸä¸º": 8658,
      "iberal": 8659,
      "Ġrelief": 8660,
      "æ¯ıä¸ª": 8661,
      "Ġcredible": 8662,
      "æĬµæ¶Ī": 8663,
      "æĻºåĪ©": 8664,
      "èŃ¦å¯Ł": 8665,
      "è¿Ŀåıį": 8666,
      "çļĦåħ¬åħ±": 8667,
      "ä¸ĢæĿ¡": 8668,
      "ä¸ĢåįĬ": 8669,
      "çĶŁæĢģ": 8670,
      "Ġresource": 8671,
      "Ġimpose": 8672,
      "ä¿¡åı·": 8673,
      "å¸¸è§Ħ": 8674,
      "èĩ´åĳ½": 8675,
      "Ġinvestig": 8676,
      "åĩıè½»": 8677,
      "Ġschem": 8678,
      "åį°åº¦çļĦ": 8679,
      "ronic": 8680,
      "Ġesc": 8681,
      "Ġprofound": 8682,
      "Ġcutting": 8683,
      "åģ¿è¿ĺ": 8684,
      "æĤ²åī§": 8685,
      "Ġmistake": 8686,
      "Ġfigure": 8687,
      "éº»çĥ¦": 8688,
      "Ġdynamic": 8689,
      "Ġpension": 8690,
      "Ġinadequ": 8691,
      "åĽ½åĬ¡": 8692,
      "ä¸ĢåĲį": 8693,
      "ä»¥ä¾¿": 8694,
      "å±¥": 8695,
      "éĥ½èĥ½": 8696,
      "ĠRo": 8697,
      "æĪĺæĸĹ": 8698,
      "åĭĩ": 8699,
      "åįģå¹´ä»£": 8700,
      "GDPå¢ŀéķ¿": 8701,
      "çŁŃç¼º": 8702,
      "åįĬå²Ľ": 8703,
      "Ġliberalization": 8704,
      "Ġimmediately": 8705,
      "Ġtrends": 8706,
      "Ġlegisl": 8707,
      "ĠCommunist": 8708,
      "Under": 8709,
      "fall": 8710,
      "ground": 8711,
      "Ġut": 8712,
      "çļĦä¾ĭåŃĲ": 8713,
      "éĻĪ": 8714,
      "ä¹ŁéĹ¨": 8715,
      "resp": 8716,
      "ä¸»æµģ": 8717,
      "è¿ĺåľ¨": 8718,
      "æĶ¯æĴĳ": 8719,
      "Ġconfron": 8720,
      "ructuring": 8721,
      "ĠIndones": 8722,
      "ç»ĿéĿŀ": 8723,
      "ç»Ŀå¤§å¤ļæķ°": 8724,
      "Ġtrack": 8725,
      "Ġimmigrants": 8726,
      "Ġholding": 8727,
      "Ġstrengthening": 8728,
      "çļĦçŁ³": 8729,
      "ĠDemocrats": 8730,
      "Ġoccurred": 8731,
      "çļĦçľŁæŃ£": 8732,
      "çĸ²è½¯": 8733,
      "Ġbattle": 8734,
      "Rec": 8735,
      "Ġfire": 8736,
      "utr": 8737,
      "ä¸ºåŁºç¡Ģ": 8738,
      "æİ©": 8739,
      "æľĢä½İ": 8740,
      "éĥ½å°Ĩ": 8741,
      "éĢīç¥¨": 8742,
      "Ġdecis": 8743,
      "Ġopponents": 8744,
      "è´ŁéĿ¢": 8745,
      "Ġfulf": 8746,
      "å£°æĺİ": 8747,
      "Ġrefugee": 8748,
      "åħ±äº§åħļ": 8749,
      "Ġobser": 8750,
      "Ġnetworks": 8751,
      "Ġpurpose": 8752,
      "Ġvictims": 8753,
      "aeda": 8754,
      "fuel": 8755,
      "gia": 8756,
      "çļĦå¸Ĥåľº": 8757,
      "Ġment": 8758,
      "Ġdro": 8759,
      "ctober": 8760,
      "äºĨå¯¹": 8761,
      "cons": 8762,
      "æŃ¤åīį": 8763,
      "Ġenforce": 8764,
      "agers": 8765,
      "Ġtradition": 8766,
      "æľºæŀĦçļĦ": 8767,
      "Ġtaxpay": 8768,
      "India": 8769,
      "Ġinstitution": 8770,
      "åįĹäºļ": 8771,
      "Ġpromised": 8772,
      "Ġprofit": 8773,
      "æ¸©å®¤": 8774,
      "related": 8775,
      "Ġobstac": 8776,
      "IP": 8777,
      "çļĦæĬĢæľ¯": 8778,
      "åĲ¹": 8779,
      "Ġbear": 8780,
      "urb": 8781,
      "Ġconver": 8782,
      "çļĦç¥": 8783,
      "ĠTaliban": 8784,
      "æķ°åįģ": 8785,
      "è¿Ĳä½ľ": 8786,
      "ructive": 8787,
      "åĶĲ": 8788,
      "Ġelites": 8789,
      "Ġturning": 8790,
      "ç¼ĵè§£": 8791,
      "é¢Ħç®Ĺèµ¤åŃĹ": 8792,
      "åħ»èĢģ": 8793,
      "æ°¸ä¹ħ": 8794,
      "ĠParliament": 8795,
      "Ġheavily": 8796,
      "dden": 8797,
      "å»īä»·": 8798,
      "TPP": 8799,
      "mad": 8800,
      "çļĦåģļæ³ķ": 8801,
      "oud": 8802,
      "å°ĸ": 8803,
      "Ġstra": 8804,
      "ç»ıè¿ĩ": 8805,
      "æĹłåĬĽ": 8806,
      "ipher": 8807,
      "ĠWe": 8808,
      "Ġ1930": 8809,
      "Ġaccord": 8810,
      "å½¢è±¡": 8811,
      "ç»Īç»ĵ": 8812,
      "Ġsubsequ": 8813,
      "æ²Ļå°Ķ": 8814,
      "Ġmedic": 8815,
      "Ġseriously": 8816,
      "ugust": 8817,
      "Ġobjective": 8818,
      "Ġminority": 8819,
      "åĬłæĭ¿å¤§": 8820,
      "Ã¦": 8821,
      "çļĦåĢºåĬ¡": 8822,
      "Ġwhatever": 8823,
      "èµĦåĬ©": 8824,
      "Ġeconomically": 8825,
      "éĥ½è¦ģ": 8826,
      "é«ĺçº§": 8827,
      "ĠTreasury": 8828,
      "Ġrecomm": 8829,
      "ä¿¡ä»°": 8830,
      "æĶ¾åľ¨": 8831,
      "Ġ2003": 8832,
      "æ·¡": 8833,
      "Ġactive": 8834,
      "Ġoffers": 8835,
      "çĶµåĬĽ": 8836,
      "çº³åħ¥": 8837,
      "Ġtravel": 8838,
      "ĠTrans": 8839,
      "çī¹æľĹæĻ®çļĦ": 8840,
      "åį³ä½¿æĺ¯": 8841,
      "Ġcondition": 8842,
      "çķĻåľ¨": 8843,
      "Ġdestruction": 8844,
      "æ¦ľ": 8845,
      "Ġcheap": 8846,
      "ä»ħä»ħæĺ¯": 8847,
      "Ġcounterpart": 8848,
      "Ġmobil": 8849,
      "Ġignore": 8850,
      "CS": 8851,
      "fin": 8852,
      "Ġ80": 8853,
      "orpor": 8854,
      "å®°": 8855,
      "Ġgot": 8856,
      "ä¸įèī¯": 8857,
      "æĮ¤": 8858,
      "ĠPaul": 8859,
      "èĤ¥": 8860,
      "å¼ıçļĦ": 8861,
      "Ġpeaceful": 8862,
      "Ġchem": 8863,
      "Ġmaintaining": 8864,
      "Ġcycle": 8865,
      "Ġready": 8866,
      "æ³¨æĦıåĬĽ": 8867,
      "Ġperceived": 8868,
      "New": 8869,
      "count": 8870,
      "oly": 8871,
      "uous": 8872,
      "åľ¨åĨħçļĦ": 8873,
      "Ġgone": 8874,
      "ä¸įäºĨ": 8875,
      "æĽ´å¿«": 8876,
      "è¿ĳæľŁ": 8877,
      "æĮĩæİ§": 8878,
      "ç§ģæľī": 8879,
      "Without": 8880,
      "å¯ĨåĪĩ": 8881,
      "Ġfigures": 8882,
      "Ġadapt": 8883,
      "å°¼æĹ¥åĪ©äºļ": 8884,
      "æ¯Ķæĸ¹è¯´": 8885,
      "bre": 8886,
      "çļĦæĪĲæľ¬": 8887,
      "è®½": 8888,
      "å¦Ļ": 8889,
      "Ġinclusive": 8890,
      "æĭīæĸ¯": 8891,
      "Ġdecide": 8892,
      "Ġrelated": 8893,
      "ĠOctober": 8894,
      "ç¬¬ä¸Ģä¸ª": 8895,
      "Ġdesper": 8896,
      "ç»Īäºİ": 8897,
      "åĬŁèĥ½": 8898,
      "Ġbene": 8899,
      "Ġannually": 8900,
      "è®°èĢħ": 8901,
      "Ġsolve": 8902,
      "Ġbringing": 8903,
      "ç»ıå¸¸é¡¹çĽ®": 8904,
      "éĶĢåĶ®": 8905,
      "Ġtemporary": 8906,
      "aught": 8907,
      "Ġexactly": 8908,
      "Ġperspective": 8909,
      "çļĦçŁ³æ²¹": 8910,
      "Ġaris": 8911,
      "äº¦": 8912,
      "stood": 8913,
      "ä½Ĩåħ¶": 8914,
      "Ġsudden": 8915,
      "ffect": 8916,
      "æĪĳä»¬åºĶè¯¥": 8917,
      "å·¥ä¼ļ": 8918,
      "Ġdevelopments": 8919,
      "Ġremind": 8920,
      "ployed": 8921,
      "Ġissued": 8922,
      "éĻįä½İäºĨ": 8923,
      "Ġflaw": 8924,
      "bled": 8925,
      "ystem": 8926,
      "inks": 8927,
      "inian": 8928,
      "onom": 8929,
      "erous": 8930,
      "ional": 8931,
      "åĴĮæľįåĬ¡": 8932,
      "ä¸ŃæľŁ": 8933,
      "äº§æĿĥ": 8934,
      "Ġuncon": 8935,
      "Ġresc": 8936,
      "æĻ°": 8937,
      "Ġjoint": 8938,
      "æĸ½åĬł": 8939,
      "ä¸¤ç§į": 8940,
      "Ġundert": 8941,
      "è£Ķ": 8942,
      "anging": 8943,
      "owned": 8944,
      "luding": 8945,
      "å¤įåħ´": 8946,
      "Ġsupporting": 8947,
      "æĶ¶åħ¥çļĦ": 8948,
      "Ġowners": 8949,
      "Ġconcerned": 8950,
      "éĽĨä¸Ńåľ¨": 8951,
      "Ġtypically": 8952,
      "Ġministers": 8953,
      "åıĹå®³èĢħ": 8954,
      "Ġtype": 8955,
      "Ġlanguage": 8956,
      "Ġec": 8957,
      "stream": 8958,
      "åīĳ": 8959,
      "Ġyouth": 8960,
      "Ġwhereas": 8961,
      "ietnam": 8962,
      "Ġcoordin": 8963,
      "æľªæĿ¥çļĦ": 8964,
      "åŃĺåľ¨çļĦ": 8965,
      "ä»¥èī²åĪĹçļĦ": 8966,
      "Ġbrut": 8967,
      "æĬµæĬ¼": 8968,
      "Ġcontributed": 8969,
      "åĲĪçĲĨçļĦ": 8970,
      "è·Ŀç¦»": 8971,
      "ladim": 8972,
      "fers": 8973,
      "uations": 8974,
      "heast": 8975,
      "çļĦèĩªçĶ±": 8976,
      "Ġwis": 8977,
      "Ġparent": 8978,
      "Ġdial": 8979,
      "ä¸Ģä»½": 8980,
      "Ġlosing": 8981,
      "igor": 8982,
      "Ġonline": 8983,
      "å¤ļå¹´": 8984,
      "åĬłä»¥": 8985,
      "éª¤": 8986,
      "å¾Īå¤ļäºº": 8987,
      "ç©·äºº": 8988,
      "Ġexplan": 8989,
      "ä¸įç®¡æĺ¯": 8990,
      "Ġbubble": 8991,
      "Ġdictators": 8992,
      "çļĦç¼º": 8993,
      "æ®ĸæ°ĳ": 8994,
      "ladimir": 8995,
      "Ġbold": 8996,
      "Ġfil": 8997,
      "ç»¼": 8998,
      "Ġli": 8999,
      "äºīåıĸ": 9000,
      "Ġleads": 9001,
      "æ´»åĬĽ": 9002,
      "ä¸ľæ¬§": 9003,
      "æīĭä¸Ń": 9004,
      "æĸĩæĺİ": 9005,
      "inking": 9006,
      "Ġequivalent": 9007,
      "åĽºå®ļ": 9008,
      "Ġassume": 9009,
      "æīŃæĽ²": 9010,
      "çĸŁçĸ¾": 9011,
      "Iran": 9012,
      "Pe": 9013,
      "Whe": 9014,
      "½åĬ¨": 9015,
      "Ġreact": 9016,
      "Ġlend": 9017,
      "ä¸įè®º": 9018,
      "rack": 9019,
      "æ¬º": 9020,
      "å¤ļä¹Ī": 9021,
      "acerb": 9022,
      "Ġshape": 9023,
      "åĬ¨æľº": 9024,
      "äºĭä¸ļ": 9025,
      "licit": 9026,
      "åĩıéĢŁ": 9027,
      "Ġacad": 9028,
      "Ġbankrupt": 9029,
      "ç´§æĢ¥": 9030,
      "Ġequally": 9031,
      "Ġreview": 9032,
      "Ġstarting": 9033,
      "Ġcrimes": 9034,
      "mbly": 9035,
      "Ġwillingness": 9036,
      "æĵįä½ľ": 9037,
      "Ġtrouble": 9038,
      "contro": 9039,
      "iny": 9040,
      "çļĦåĲİæŀľ": 9041,
      "adays": 9042,
      "ĠAnd": 9043,
      "ä¹Łå¿ħé¡»": 9044,
      "ç³Ĭ": 9045,
      "åį´æĺ¯": 9046,
      "Ġlessons": 9047,
      "æİĴéĻ¤": 9048,
      "Ġaffected": 9049,
      "Ġdramatically": 9050,
      "ĠJewish": 9051,
      "é»Ħéĩĳ": 9052,
      "åħĭéĩĮå§ĨæŀĹå®«": 9053,
      "æ¸©å®¤æ°Ķä½ĵ": 9054,
      "Ã¤": 9055,
      "çļĦåıĺåĮĸ": 9056,
      "æĶ¿åıĺ": 9057,
      "irth": 9058,
      "åı¯æĢķ": 9059,
      "ift": 9060,
      "éĹ®é¢ĺåľ¨äºİ": 9061,
      "æł¹æºĲ": 9062,
      "æŀĹæĸ¯": 9063,
      "æŁĲä¸ª": 9064,
      "Ġtechnical": 9065,
      "Ġhealthy": 9066,
      "Ġpersu": 9067,
      "åĿļå®ļ": 9068,
      "Ġstudies": 9069,
      "nership": 9070,
      "çļĦçŁ¥": 9071,
      "Ġsurprise": 9072,
      "ĠProt": 9073,
      "Ġreinfor": 9074,
      "Ġheavy": 9075,
      "bank": 9076,
      "ded": 9077,
      "son": 9078,
      "Ġnorthern": 9079,
      "æĹĹ": 9080,
      "Ġexacerb": 9081,
      "emen": 9082,
      "åİĮ": 9083,
      "æľ¬è´¨": 9084,
      "åı¯èĥ½å¯¼èĩ´": 9085,
      "æİ¥çĿĢ": 9086,
      "è®¾å¤ĩ": 9087,
      "åĽ°æī°": 9088,
      "Ġretire": 9089,
      "ä¸ĵåĪ¶": 9090,
      "Ġpursuing": 9091,
      "Ġdiscussion": 9092,
      "ĠFinancial": 9093,
      "ĠSwed": 9094,
      "æĿĲæĸĻ": 9095,
      "çļĦä»»åĬ¡": 9096,
      "è¿Ķ": 9097,
      "åĽ½åĢº": 9098,
      "ç»ķ": 9099,
      "è¯ŀ": 9100,
      "ĠAct": 9101,
      "usal": 9102,
      "Ġ13": 9103,
      "æĢ»åĢ¼": 9104,
      "èīº": 9105,
      "rence": 9106,
      "Ġperipher": 9107,
      "äººä»¬çļĦ": 9108,
      "ç§°ä¹ĭä¸º": 9109,
      "åĮ»åŃ¦": 9110,
      "èģĮä½į": 9111,
      "å®¢æĪ·": 9112,
      "Ġfuels": 9113,
      "Ġdemonstrated": 9114,
      "ä¸įç¡®å®ļæĢ§": 9115,
      "Ġphysical": 9116,
      "ias": 9117,
      "ires": 9118,
      "çļĦèµĦéĩĳ": 9119,
      "Ġrelevant": 9120,
      "æŃ¤æ¬¡": 9121,
      "çķª": 9122,
      "ä½İä¼°": 9123,
      "åģļå¥½": 9124,
      "Ġproducers": 9125,
      "éªĹ": 9126,
      "Ġknows": 9127,
      "äººåı£çļĦ": 9128,
      "Ġplayers": 9129,
      "çİ°ä»£åĮĸ": 9130,
      "éĿĴå¹´": 9131,
      "Ġdivided": 9132,
      "çļĦä»·æł¼": 9133,
      "alk": 9134,
      "Ġdream": 9135,
      "Ġstead": 9136,
      "åĮĪ": 9137,
      "look": 9138,
      "æ¬§æ´²åĽ½å®¶": 9139,
      "çī©è´¨": 9140,
      "åĽŀçŃĶ": 9141,
      "çļĦä¸ĢäºĽ": 9142,
      "çº³ç²¹": 9143,
      "å®³æĢķ": 9144,
      "ä¸ĢçĽ´æĺ¯": 9145,
      "Ġpossibly": 9146,
      "è¶ħè¿ĩäºĨ": 9147,
      "Ġaddressing": 9148,
      "ĠTurkish": 9149,
      "Ġexpanding": 9150,
      "Ġdelay": 9151,
      "ographic": 9152,
      "Ġbegun": 9153,
      "TA": 9154,
      "gu": 9155,
      "ns": 9156,
      "national": 9157,
      "Ġtact": 9158,
      "ana": 9159,
      "Ġfeed": 9160,
      "åħ¶åľ¨": 9161,
      "ĠAugust": 9162,
      "ĠSarkozy": 9163,
      "Ġshocks": 9164,
      "æľ¬äºº": 9165,
      "å½ĵä¸Ń": 9166,
      "è½¨": 9167,
      "ager": 9168,
      "Ġtrip": 9169,
      "æīĢæľīäººéĥ½": 9170,
      "çªģçĦ¶": 9171,
      "Ġkept": 9172,
      "éĺ»æĮ": 9173,
      "Ġrecognition": 9174,
      "Ġnecessarily": 9175,
      "ĠShia": 9176,
      "Ġdetermined": 9177,
      "éĢĶå¾Ħ": 9178,
      "æµªè´¹": 9179,
      "Ġdescribed": 9180,
      "De": 9181,
      "Every": 9182,
      "Ġbillions": 9183,
      "ä¸Ģå®¶": 9184,
      "ä¹Łèĥ½": 9185,
      "æľĢåĪĿ": 9186,
      "éĩįå¡ĳ": 9187,
      "è¾±": 9188,
      "ibilities": 9189,
      "ĠNob": 9190,
      "Ġpreced": 9191,
      "ä¼ģä¸ļçļĦ": 9192,
      "è¯ºè´Ŀå°Ķ": 9193,
      "Ġcivilian": 9194,
      "Ġtransparency": 9195,
      "è¸ª": 9196,
      "Germany": 9197,
      "çļĦçĬ¶åĨµ": 9198,
      "¡èĲ": 9199,
      "çļĦè´§å¸ģ": 9200,
      "è¿ĻéĩĮ": 9201,
      "éĢĴ": 9202,
      "Ġric": 9203,
      "å®ŀè´¨": 9204,
      "çļĦç¦": 9205,
      "ancy": 9206,
      "å·´æ²Ļå°Ķ": 9207,
      "çĹħæ¯Ĵ": 9208,
      "Ġelite": 9209,
      "èĳ¡èĲ": 9210,
      "Ġpresence": 9211,
      "è¶ĬæĿ¥è¶Ĭå¤ļ": 9212,
      "Ġcollabor": 9213,
      "class": 9214,
      "Ġhours": 9215,
      "å£ģåŀĴ": 9216,
      "èĳ¡èĲĦ": 9217,
      "22": 9218,
      "IDS": 9219,
      "Ġsays": 9220,
      "uty": 9221,
      "å¤§èĲ§æĿ¡": 9222,
      "ading": 9223,
      "åĳĪ": 9224,
      "Ġresil": 9225,
      "Ġgrown": 9226,
      "è®¤çľŁ": 9227,
      "æķĻèĤ²åĴĮ": 9228,
      "èĳ£": 9229,
      "åı¤å·´": 9230,
      "Ġreligion": 9231,
      "ĠPeople": 9232,
      "Ġcompromise": 9233,
      "Here": 9234,
      "Non": 9235,
      "fort": 9236,
      "rid": 9237,
      "çļĦæīĢæľī": 9238,
      "arning": 9239,
      "oreign": 9240,
      "Ġshr": 9241,
      "æ²¡æľīäºº": 9242,
      "Ġinterven": 9243,
      "ä½įç½®": 9244,
      "Ġrestructuring": 9245,
      "Ġdistin": 9246,
      "çĻ¾åĪĨ": 9247,
      "Ġreported": 9248,
      "Ġrepresents": 9249,
      "èĮĥåĽ´åĨħ": 9250,
      "Ġdetermine": 9251,
      "obert": 9252,
      "ĠDepression": 9253,
      "åħĳçİ°": 9254,
      "ĠVenezuela": 9255,
      "first": 9256,
      "Ġil": 9257,
      "çļĦäºĭå®ŀ": 9258,
      "çļĦæĢģåº¦": 9259,
      "Ġnone": 9260,
      "urch": 9261,
      "ä»¥å¤ĸ": 9262,
      "æ¬ł": 9263,
      "å¹´åº¦": 9264,
      "å®ŀè·µ": 9265,
      "appe": 9266,
      "çĶ¨è¯´": 9267,
      "åĨ³è®®": 9268,
      "æ²¡èĥ½": 9269,
      "Ġtrib": 9270,
      "å®Įç¾İ": 9271,
      "è´¢æĶ¿æĶ¿çŃĸ": 9272,
      "Ġmodest": 9273,
      "è´Łè´£ä»»": 9274,
      "çĶµåŃĲ": 9275,
      "éĥ¨éĹ¨çļĦ": 9276,
      "å±Ĥæ¬¡": 9277,
      "Ġplaying": 9278,
      "èī¯å¥½çļĦ": 9279,
      "Ġclosely": 9280,
      "æŁĲç§įç¨ĭåº¦ä¸Ĭ": 9281,
      "Ġsummer": 9282,
      "æĩ": 9283,
      "onent": 9284,
      "ï¼ĮâĢĿ": 9285,
      "Ġdocu": 9286,
      "æľīèĥ½åĬĽ": 9287,
      "ä¸Ńæľī": 9288,
      "æīĢå¾Ĺ": 9289,
      "ç¾İåĽ½æĶ¿åºľ": 9290,
      "å¢Ļ": 9291,
      "ĠPort": 9292,
      "ä»İäºĭ": 9293,
      "è¿ĻäºĽéĹ®é¢ĺ": 9294,
      "æĥħå½¢": 9295,
      "åĽłä¸ºä»ĸä»¬": 9296,
      "æĶ¾æĿ¾": 9297,
      "çī©ä»·": 9298,
      "åİŁæľ¬": 9299,
      "Ġlooks": 9300,
      "Ġhumanitarian": 9301,
      "arsh": 9302,
      "å¥¹çļĦ": 9303,
      "Ġdeeper": 9304,
      "å¡Ķå°¼äºļ": 9305,
      "ä¸»æĿĥåĢºåĬ¡": 9306,
      "å¹¿æ³ĽçļĦ": 9307,
      "Ġpromoting": 9308,
      "Ġgirls": 9309,
      "çļĦåħ³ç³»": 9310,
      "çļĦéĢŁåº¦": 9311,
      "Ġsaw": 9312,
      "Ġlearning": 9313,
      "æĪĳåľ¨": 9314,
      "åıįè¿ĩæĿ¥": 9315,
      "æį·": 9316,
      "å·´æĸ¯": 9317,
      "è®¤å®ļ": 9318,
      "çŁ¿": 9319,
      "çĤŃ": 9320,
      "Ġcommand": 9321,
      "Ġdefined": 9322,
      "Ġnationalist": 9323,
      "åį¡æ¢ħ": 9324,
      "ç§¯ç´¯": 9325,
      "Ġrequirements": 9326,
      "Ġopposite": 9327,
      "å¼ķåıĳäºĨ": 9328,
      "ĠClimate": 9329,
      "Ġlaunch": 9330,
      "Ġextremely": 9331,
      "è¦ĨçĽĸ": 9332,
      "Ġdramatic": 9333,
      "èĶĵ": 9334,
      "Ġquantitative": 9335,
      "æĬĵä½ı": 9336,
      "Ġbottom": 9337,
      "GO": 9338,
      "flation": 9339,
      "with": 9340,
      "Ġfal": 9341,
      "Ġtoler": 9342,
      "Ġdiagn": 9343,
      "Ġgender": 9344,
      "ä¸įå°ĳ": 9345,
      "å¯¹å¤ĸ": 9346,
[...]
